#version: 0.2
с т
е н
р а
р о
п о
к о
н о
т о
р е
н а
н и
в о
в а
л ь
е р
т о</w>
и т
к а
н ы
н а</w>
г о</w>
д е
м о
р и
з а
ен и
д о
с о
л е
л и
н е
г о
л и</w>
т е
л а
л о
с я</w>
н е</w>
п ро
т ь</w>
т а
н о</w>
ч е
д а
б о
в е
м а
t ;</w>
ц и
р у
ст в
м е
ст а
т и
q u
с е
в ы
qu o
quo t;</w>
& quot;</w>
ч то</w>
о б
д и
в и
х о
ч а
п ри
д а</w>
к и
б ы
е т</w>
п а
м и</w>
л а</w>
с и
м ен
п ре
с ко
о т
м и
п е
ст о
с ь</w>
к и</w>
но й</w>
е т
р ы
ны х</w>
л я</w>
и с
ени я</w>
д у
к а</w>
л у
ра з
ж е</w>
л я
и н
и з
но ст
н у
ко то
ит ь</w>
м у</w>
г а
т ы</w>
л ю
в ер
ны е</w>
но го</w>
б у
ени е</w>
с а
и х</w>
с ки
ны й</w>
б ы</w>
с у
ч и
е го</w>
ит е
л о</w>
е й</w>
к у
б е
п о</w>
п ра
е м</w>
т а</w>
ка к</w>
н и</w>
ж и
д ля</w>
мо ж
о р
э то</w>
м ы</w>
к о</w>
з на
г и
ет ся</w>
э то
ш и
з а</w>
с во
и з</w>
д у</w>
ж а
. .</w>
щ и
ци и</w>
б а
ва ни
з о
п у
н ы</w>
е с
2 0
ь ся</w>
. ..</w>
в с
б и
т е</w>
кото ры
ш ь</w>
о т</w>
ра с
г ра
ко н
л е</w>
г да</w>
по д
о н</w>
П о
т и</w>
ст ра
л ен
п ер
с ка
ч то
до л
ю т</w>
ст ь</w>
в се
ф и
н я
ста в
щ е
ж е
с ле
к е</w>
пе ре
ст и
т у
в ы</w>
ра бо
р а</w>
ны м</w>
к у</w>
в ре
во з
на я</w>
пре д
1 9
ност и</w>
и ли</w>
по л
пра в
ко м
ва ть</w>
м ер
ств ен
но е</w>
д ен
ите ль
но в
р я
м ы
о с
л ь</w>
ст и</w>
д е</w>
ль ко</w>
ств а</w>
п и
i n
т ся</w>
те ль
м а</w>
К а
д о</w>
то м</w>
з и
ш а
т ер
что бы</w>
д ру
м у
о н
бо ль
с лу
но м</w>
ш е</w>
ит а
a n
ц е
т ься</w>
Э то</w>
ш е
а ль
e r
вс е</w>
р и</w>
та к</w>
а р
ств о</w>
ско й</w>
о д
бы л</w>
го во
ме ст
ра н
ре д
Т ы</w>
то в</w>
ко гда</w>
л ся</w>
де т</w>
д ер
з ы
де ла
я в
го да</w>
ст у
с по
20 0
п ла
ц ен
ч ен
те б
ф ор
м я</w>
ст е
ь ю</w>
а н
че ски
р е</w>
щ а
ни я</w>
ж ен
ност ь</w>
д ы</w>
ст ро
г ла
г у
хо ди
мен я</w>
а к
т ре
ни е</w>
в а</w>
ит е</w>
ни ма
ну ю</w>
сто я
Н а
л ения</w>
ю щи
к ра
o r
о на</w>
хо д
во й</w>
a r
в у
по ль
т у</w>
ско го</w>
с а</w>
т ы
п ис
ко в</w>
па р
в я
о ни</w>
ени и</w>
с ло
бы ло</w>
ит и
которы е</w>
по с
o n
е к
ко й</w>
ес ли</w>
та к
к лю
ни и</w>
t h
ро в</w>
е шь</w>
со б
ро ва
в о</w>
вани я</w>
м не</w>
то го</w>
e n
К о
н я</w>
ле т</w>
во д
ет е</w>
Т а
то лько</w>
ж д
О н</w>
к ры
мож ет</w>
ка за
т ра
р ы</w>
м е</w>
вре мя</w>
бо ле
ло ве
В ы</w>
бу дет</w>
ит ся</w>
лу ч
- то</w>
ств и
ли сь</w>
з у
го ду</w>
л ы
t i
дол ж
б ли
ро м</w>
ю тся</w>
да р
х а
в то
ю щ
ска за
ны ми</w>
че лове
д и</w>
бы ть</w>
ци я</w>
Н о</w>
ст во
так же</w>
е сть</w>
ти в
на ш
ро д
ко м</w>
да н
20 1
щ е</w>
ро в
яв ля
ве т
r e
о на
ст о</w>
и ме
ст ре
с пе
к ру
бы ла</w>
е е</w>
s t
т я
ви де
с я
ло сь</w>
0 0</w>
ду ма
о ста
г ру
& #
&# 9
ве д
боле е</w>
ле й</w>
ла сь</w>
ств у
ис поль
на ча
с мо
бы ли</w>
г а</w>
де й
ц а</w>
ч но</w>
е м
е ди
мож но</w>
e r</w>
не й</w>
ло ж
a m
к то
мо й</w>
ени ю</w>
ени й</w>
o n</w>
п ы
з да
че м</w>
теб я</w>
ме ж
де сь</w>
р я</w>
не т</w>
т во
с ер
с е</w>
кото ро
г и</w>
я х</w>
л ение</w>
ж из
к ла
вы х</w>
с ли</w>
С о
б ра
то му</w>
се б
ни й</w>
т ру
это м</w>
вани е</w>
у ч
рабо та
с о</w>
o s
об раз
ча ст
у же</w>
которы й</w>
зы ва
р ен
т ро
до м</w>
став ля
a l
про из
по мо
с вя
ит ься</w>
З а
н у</w>
вре мен
i t
са мо
в ра
Д а</w>
П ро
с дела
ж но</w>
В а
сле д
ме р</w>
вы е</w>
ко но
по лу
ни х</w>
ра в
вы й</w>
Б о
ор га
a p
ски й</w>
Р а
ци ю</w>
О на</w>
го д
об ъ
ле к
с ред
о м</w>
это го</w>
к ре
ч ер
го ро
м о</w>
Е сли</w>
те м</w>
чен ь</w>
на с</w>
ли ч
по з
ж да
та м</w>
боль ш
ски х</w>
o u
i c
ц ы</w>
п ри</w>
з десь</w>
и м</w>
ка н
па с
ком па
м но
она ль
п ло
я ми</w>
th e</w>
ч у
a t
e s</w>
р о</w>
с си
не го</w>
э ти
б ле
Н а</w>
ло ги
ц е</w>
о ди
ци аль
от но
е ще</w>
слу ча
т ри
ци он
г у</w>
фор ма
к то</w>
ста нов
в ро
на м</w>
е з
сто ро
и г
гра м
ва м</w>
в з
М а
ва с</w>
о чень</w>
про сто</w>
не е</w>
М о
ени ем</w>
В о
сту п
же н</w>
ка ж
ре ш
су ще
ри и</w>
бу ду
со в</w>
ки х</w>
н ен
по д</w>
со зда
в е</w>
м ного</w>
ч ита
ва я</w>
сле ду
пос ле</w>
с ы</w>
у т
ни че
ст а</w>
явля ется</w>
г де</w>
л ы</w>
си сте
исполь зо
су дар
ств е</w>
ва н
до в</w>
ка р
ва л</w>
об ра
ре з</w>
боль ше</w>
по след
h t
бо й</w>
19 9
пис а
е й
я т
ча с</w>
сле до
ц а
теб е</w>
от вет
й ти</w>
e l
i l
ка х</w>
все х</w>
хо ро
т ен
й те</w>
ци й</w>
пре де
ин те
э к
об ла
коно ми
го ло
об ще
это й</w>
е му</w>
во с
ва ет</w>
до б
мер и
o f</w>
ва ш
а вто
Та к</w>
я м</w>
ма н
ни к</w>
орга ни
r o
ст в</w>
ф о
се й
гово ри
g t;</w>
& gt;</w>
пол ити
ч ение</w>
и сто
воз мож
про грам
э кономи
не об
о бо
во го</w>
ска я</w>
an d</w>
д ь</w>
a c
э н
гу т</w>
г их</w>
ч у</w>
у ча
б о</w>
го судар
ки е</w>
ф а
ч и</w>
себ я</w>
ра я</w>
т ь
o l
ра з</w>
а д
ско лько</w>
ско м</w>
во про
ин ы</w>
к ро
пра ви
гру п
де й</w>
че рез</w>
это т</w>
итель но</w>
ч ь</w>
ч ис
те ле
р у</w>
a s
би ра
го то
ло м</w>
д ви
in g</w>
в мест
Н е</w>
про ти
П а
да же</w>
Д а
от кры
i n</w>
чески х</w>
a l</w>
ни м</w>
ль но</w>
об щ
с т</w>
с ы
г ен
e s
все го</w>
про бле
ст ру
ко го</w>
на род
О ни</w>
Т е
П ри
ит у
ap os
apos ;</w>
& apos;</w>
Р ос
a n</w>
i s
п а</w>
ни ка
пу бли
к ти
Н е
необ ходи
c o
то ч
г е
М ы</w>
ин форма
то й</w>
а ли
тру д
И н
ва ли</w>
до ро
раз в
ку ю</w>
г е</w>
то т</w>
ф ер
С Ш
3 ;</w>
&#9 3;</w>
отно ш
о к
СШ А</w>
те х
ф е
ста н
ски е</w>
се м
но в</w>
поз во
п ря
долж ны</w>
х и
Т о
пе ра
по р
по тому</w>
ла га
за ции</w>
то р
вс ё</w>
Д о
ци ональ
л ли
мо гут</w>
оди н</w>
ль та
д ы
в ла
ми ни
1 8
ш ен
по ло
это му</w>
я т</w>
с па
Рос си
С а
пред став
1 ;</w>
&#9 1;</w>
ду народ
ден ь</w>
год ня</w>
ги е</w>
ти я</w>
и мен
о те
дер жа
жиз ни</w>
ющ их</w>
ре ги
дру го
меж ду</w>
на н
сказа л</w>
ва р
ь ю
я ть</w>
и гра
ки м</w>
п ы</w>
Ка к</w>
но му</w>
у би
кото рая</w>
че ской</w>
с ки</w>
ни ков</w>
с ла
T h
е мы
ве т</w>
о б</w>
челове к</w>
в стре
про ек
инте ре
которы х</w>
л ю</w>
са мы
e d</w>
произ вод
б ла
спо р
при ня
лю дей</w>
вы со
г ро
у н
ба н
у ров
l t;</w>
& lt;</w>
об ес
1 0</w>
б ря</w>
клю ча
r i
н ь</w>
э ти</w>
ро вать</w>
помо щ
е ё</w>
х ра
у да
ос нов
ста ви
дей стви
бе з</w>
в ши
во й
ну жно</w>
ходи т</w>
у ю</w>
рова н
ко р
цен т
т ри</w>
e c
Г о
щ ен
сей час</w>
о преде
не м</w>
на ход
на се
ла н
М и
Е вро
у р
л у</w>
Д ж
С е
дол жен</w>
сто и
ж ения</w>
хо те
пы та
еди н
ме т
ч ения</w>
к ли
б ро
сво ю</w>
обес пе
ющи е</w>
О т
разв ити
О д
сво ей</w>
из мен
пер ь</w>
зу льта
фи нан
бо р
буду т</w>
со ответ
жд ы
a ti
про ш
Х о
чески е</w>
под дер
Д ля</w>
ка ми</w>
у прав
це в</w>
зи ден
му ж
по ка</w>
ност ью</w>
ство м</w>
ка че
ма р
В е
г .</w>
гово р
в ле
ви д
с ни
ц ес
со стоя
д ву
пол ни
ва ж
o m
ш о</w>
П о</w>
я н
че т</w>
дру гих</w>
ь я</w>
ро й</w>
да в
с ен
ре б
ком п
Б е
рабо т
c h
З на
ре зульта
со гла
ще е</w>
че ского</w>
ве ст
г ля
ль ной</w>
з я
по ч
с чита
ен ь</w>
ва ться</w>
пре до
у ве
по лож
челове ка</w>
б ер
и м
б е</w>
мест о</w>
мери кан
проти в</w>
чи т</w>
за х
бла го
ш их</w>
все гда</w>
все м</w>
вер ну
смо т
з ем
1 8</w>
М е
ско е</w>
ки й</w>
п ита
a d
ма ш
во е</w>
вы м</w>
ю сь</w>
хо т
на ру
сво бо
бу дь</w>
ко е</w>
u r
2 0</w>
ющи й</w>
ц у</w>
ло в</w>
ж и</w>
ж у</w>
ка я</w>
e t
e n</w>
зо пас
ни ки</w>
на ко</w>
да ть</w>
по луч
ите лей</w>
мен т</w>
у ни
ш ко
ко не
г ре
де я
случа е</w>
те х</w>
ше л</w>
ё т</w>
0 -
гра ни
o o
ф ек
се годня</w>
хо зя
В се</w>
те ль</w>
за ви
ш та
полу чи
за щ
не сколько</w>
гра фи
с ю
на ми</w>
ва ется</w>
на стоя
до ста
ht t
Д е
ско ль
ро вания</w>
меж дународ
чу в
ер а</w>
о й</w>
ду к
ль ный</w>
и де
пере д</w>
про цес
мож ете</w>
щ ё</w>
жен щи
стру к
свя з
Th e</w>
ку р
htt p</w>
при мер</w>
прав итель
на ли
не с
а мерикан
t o</w>
х а</w>
хо чу</w>
времен и</w>
м я
a g
ль ных</w>
бе зопас
ка зыва
е ха
ё м</w>
ни ю</w>
эти х</w>
ме ся
по каза
з е
o r</w>
гла в
при я
u s
не й
соб ствен
исполь зу
го д</w>
лю ди</w>
Р е
с но</w>
тер и
по ли
ма с
В ы
во м</w>
мо г
я ви
в ну
о кру
б а</w>
с ле</w>
ко ман
М не</w>
ши м</w>
на д
u n
ко ро
в ли
со труд
д ва</w>
i g
спо соб
ле т
ос но
ко в
гото в
при нима
мо ло
ч ной</w>
стра н
ра й
к е
e m
19 8
ми на
сдела ть</w>
у сло
ва ми</w>
к ни
на прав
- за</w>
i s</w>
ма я</w>
де ле</w>
пер и
ка жды
у станов
ни будь</w>
l e</w>
Д у
та х</w>
хозя й
во т</w>
А н
ни ка</w>
ит ы
д ь
ди т</w>
сво и</w>
бу де
но -
бе д
те й</w>
со вер
I n
на х</w>
i r
насе ления</w>
е щё</w>
с ве
компа нии</w>
э ф
3 0</w>
К он
ству ет</w>
к рас
о ру
к ри
т но</w>
ж ение</w>
ни когда</w>
образ ом</w>
ра ст
ль ные</w>
про дук
обла сти</w>
и ю
ми ну
о фи
- нибудь</w>
сю да</w>
эн ер
й ся</w>
сказа ть</w>
по тре
П ре
в не
Б а
че му</w>
И з
о пера
че ски</w>
ши й</w>
я зы
с кую</w>
чески й</w>
с лы
ру ю</w>
0 ,
которо й</w>
со м</w>
зави си
защ ит
5 0</w>
себ е</w>
е в</w>
до сти
ши е</w>
э ту</w>
вы пу
образ о
з ер
те перь</w>
по нима
то чно</w>
в ен
ь е</w>
за д</w>
a v
ве сти</w>
по ня
жд ения</w>
с мер
ст ы
ф ак
ли бо</w>
ры н
из вест
ком на
g am
стра ны</w>
клю ч
та ми</w>
ин у</w>
вмест е</w>
эф фек
ва ют</w>
у до
ша я</w>
рабо ты</w>
. co
жиз нь</w>
па д
свя за
мо сти</w>
т ить</w>
ли че
В и
1 5</w>
l o
ку ль
о ко
ма ти
лю бо
ко л
ст ри
эк с
д ж
i m
в ключа
те сь</w>
ч лен
S t
ль ного</w>
Н и
тель но</w>
д ра
лю б
ва ла</w>
ли шь</w>
т ран
кон тро
сво их</w>
де ж
са м</w>
э лек
ми ре</w>
при зна
.co m</w>
ми лли
от де
на зад</w>
уча сти
которо е</w>
за нима
усло ви
эти м</w>
О б
у спе
со ставля
ти й</w>
Ка зах
из -за</w>
хо д</w>
ис следо
на д</w>
я за
на з
ста р
А р
ну ть</w>
но логи
в у</w>
ци ей</w>
па ра
с у</w>
Н о
б лю
бе с
ща я</w>
с ли
ве з
со бира
об ы
до й</w>
до ма</w>
i d
о соб
кто р</w>
ту р
с нов
ющ ей</w>
С и
ре в
ш ей</w>
пре зиден
ё н
Ч то</w>
за кон
Росси и</w>
u l
зна ч
ну ж
че т
П ер
пе й
ти л</w>
о в</w>
стои т</w>
а т
ни з
про да
дея тель
п ен
дума ю</w>
ф он
ста л</w>
м л
мы ш
об е
ст ер
бе ре
В от</w>
мен ь
ле н</w>
что -то</w>
фа й
ми ра</w>
де мо
п е</w>
ве ро
по до
ш ения</w>
ни ть</w>
финан со
стро й
19 7
ш а</w>
й д
та кой</w>
име ет</w>
не де
ш его</w>
воз можно</w>
на циональ
вы бо
o t
ву ш
ту ры</w>
сво й</w>
ва ри
о че
1 2</w>
с и</w>
ви н
П е
ля ет</w>
те лей</w>
ми ро
м ной</w>
уби й
l e
с ро
0 00</w>
ниче го</w>
м н
за да
х ва
по да
ски м</w>
зо ва
з ы</w>
ти и</w>
Г а
ру ко
ра к
у ли
мо би
ите ли</w>
нача ла</w>
тех нологи
за ме
Б у
с пи
ц ер
o w
дан ных</w>
ство вать</w>
ту т</w>
1 1</w>
о жи
ё р
щ ения</w>
у слу
г лу
хоро шо</w>
2 5</w>
ч е</w>
государ ствен
исто ри
ле г
мо ей</w>
ин тер
про во
про дол
про ис
в и</w>
ш ься</w>
су т
систе мы</w>
ву ю</w>
по се
поддер ж
тя бря</w>
виде л</w>
един ствен
луч ше</w>
фи ль
те чение</w>
об яза
х ран
го р
d i
Од нако</w>
которо го</w>
слу ж
лю би
м ся</w>
долж на</w>
о каза
мо м</w>
ф ун
ма ши
ств у</w>
сво его</w>
органи за
по том</w>
К ро
e l</w>
ре й
2 ,
Р о
ди и</w>
то же</w>
ва н</w>
же ла
a r</w>
кото рую</w>
иту а
раз лич
am p
ет а</w>
ги и</w>
щ их</w>
мо гу</w>
у част
дру г</w>
л ении</w>
л ить</w>
ко личе
сторо ны</w>
a t</w>
се ме
од ной</w>
ш ение</w>
на до</w>
в нима
Е го</w>
у зна
си л</w>
t er
пред ставля
пе ча
ко й
о п
ш и</w>
по ря
горо да</w>
г ло
к вар
потре б
б р
че го</w>
до ку
мер е</w>
ри то
Н у</w>
ли чи
вани и</w>
ча сть</w>
С у
ди а
де тей</w>
ч а</w>
ин ве
1 00</w>
Х а
я тся</w>
т ных</w>
ден ь
во ен
ше е</w>
про ф
о суще
по лага
связ и</w>
стоя н
пра кти
полу ча
де ся
щи й</w>
ци а
По сле</w>
то к</w>
лен ь
особ ен
дей ств
ст иту
ма тери
д вер
за ня
жа ть</w>
Л и
ите ль</w>
де ло</w>
en t
х ся</w>
ве щ
ш ком</w>
от ве
р ения</w>
e t</w>
со бой</w>
безопас ности</w>
по зи
Во з
сто в</w>
ра х</w>
т рен
w w
ми сси
1 ,
К ита
на чи
дру гие</w>
то гда</w>
стра н</w>
с к
фо то
д ня</w>
ти е</w>
э та</w>
развити я</w>
ли я</w>
дву х</w>
с ме
да ет</w>
при ш
комп ью
те м
наш ей</w>
друго й</w>
мож ешь</w>
око ло</w>
осуще ств
ти н
Ра з
м ени
a s</w>
с итуа
ми р</w>
Ко м
кру п
1 0
сем ь
пре ж
жи т</w>
т р
сту па
Ко гда</w>
элек тро
ч ных</w>
дол ла
б из
те р</w>
руко вод
Ф ран
на зыва
вед ения</w>
тер рито
2 4</w>
i v
ле з
u s</w>
у з
in g
вер с
полни тель
o p
че шь</w>
по р</w>
само м</w>
жи л</w>
с ить</w>
про вер
на йти</w>
ност ей</w>
C h
но к</w>
пери о
вер х
при н
С та
Ч е
З а</w>
рабо ту</w>
ра ми</w>
ли и</w>
вы пол
по чему</w>
мож ем</w>
стви и</w>
зна ю</w>
ж ить</w>
кажды й</w>
мо в</w>
мо сть</w>
став ить</w>
муж чи
виде ть</w>
наход ится</w>
зна ешь</w>
од ного</w>
возмож ность</w>
ч ный</w>
б ю
1 4</w>
лен а</w>
каче стве</w>
де вуш
19 6
ж а</w>
эффек тив
ла д
по тер
ющи м</w>
a b
ка м</w>
б ло
ма ль
та ких</w>
Казах ста
да ль
лен ы</w>
A S
ati on</w>
ку п
зи и</w>
стви е</w>
пере да
Кро ме</w>
Л ю
пис и</w>
кла с
снов а</w>
ра м
говори т</w>
М ар
ду т</w>
к ров
тор го
об ре
Р ес
пер вый</w>
вани ем</w>
щ ение</w>
со циаль
та кие</w>
мно го
ча сти</w>
st r
м ни
во л
мо мент</w>
. ht
ра б
мо г</w>
к м</w>
Рес публи
л ению</w>
ма лень
доку мен
со бы
при мен
ре ши
проф ес
мест е</w>
м пи
пу ст
m l</w>
тре ть</w>
по па
раз де
С ред
ч ки</w>
ли н
му зы
с ма
спо со
с к</w>
ле м</w>
щи е</w>
ени ями</w>
ч ные</w>
се к
с фер
работа ть</w>
ят но</w>
явля ются</w>
201 0</w>
Д же
1 7
на и
с ка</w>
се да
е ся</w>
з у</w>
я сь</w>
ве ли
ци али
В се
по вы
.ht ml</w>
д ней</w>
больш ой</w>
4 0</w>
дела ть</w>
то р</w>
при чи
т ю
со общ
слы ша
со л
ж ер
ё л</w>
за ко
совер шен
ви ди
к си
на пример</w>
i a</w>
Р и
ре сто
от ме
рас ши
по стоян
200 8</w>
груп пы</w>
ст ью</w>
кли ен
А О</w>
по жа
пря мо</w>
ба в
говор ить</w>
сли шком</w>
1 3</w>
у м
од на</w>
мен ее</w>
е ра
т ки</w>
на ро
по этому</w>
ча ет</w>
да х</w>
ты ся
дума л</w>
ц ве
ш о
ре али
день ги</w>
К у
хоте л</w>
горо де</w>
а в
ри я</w>
en t</w>
на й
офи циаль
Д и
Ду ма
amp ;</w>
& amp;</w>
до ступ
от прав
верс ит
Г ер
щ его</w>
ля ть</w>
н к
дру ги
де ра
200 9</w>
А мери
те ли</w>
рас про
те ля</w>
кру г</w>
женщи н</w>
з во
ру ет</w>
воз ду
3 ,
Э тот</w>
у ди
использо вать</w>
про ве
ре аль
пер вые</w>
са ми</w>
о цен
но р
до мой</w>
но во
мо е</w>
пра во
пла ни
пробле мы</w>
o c
с мы
со к</w>
пред лага
по хо
ме д
не много</w>
1 6</w>
вер си
за тем</w>
на блю
про жи
ени ях</w>
ро вание</w>
объ ек
имен но</w>
фер ен
мо р
получ ить</w>
сколь ку</w>
ре н</w>
л ит
сотруд ниче
re s
сер д
ку с
ло й</w>
l i
Ф и
у си
н ю</w>
Б и
начи на
са й
ющ его</w>
мо де
больш ин
сред и</w>
лы й</w>
бе з
на ж
c e</w>
т вер
ме ди
го ды</w>
но ви
фун к
хот я</w>
мог ли</w>
ля р
о грани
р ь
вли я
пло ща
действи я</w>
со н</w>
с ня
ма га
информа ции</w>
о пы
б у</w>
рас поло
не ф
ци о
о стро
200 0</w>
200 7</w>
ль ю</w>
поль зова
по доб
го в</w>
бу ду</w>
Ч то
Ц ен
Б ы
Р у
до во
ста ть</w>
тво р
1 6
необходи мо</w>
Л а
инве сти
по -
мен та</w>
сказа ла</w>
п я
жи во
наш и</w>
спе циаль
пре ступ
ч ка</w>
т -
да л</w>
доста точно</w>
d e</w>
с ь
воз вра
вани й</w>
e v
емы х</w>
по й
ст ы</w>
поч ти</w>
мыш лен
те к
u t
горо д</w>
да ле
З десь</w>
a y</w>
вер ен
реш ение</w>
че ты
э та
вед ь</w>
ш у</w>
на зна
Хо ро
ми р
ля ми</w>
л ё
че ская</w>
аль бо
со об
ж ет</w>
кон це</w>
долж но</w>
за в
1 5
ствен но</w>
ре гу
У кра
у че
сто й
Ме ж
т ный</w>
ва ш</w>
e d
вс ю</w>
обще ствен
оче ред
ро сси
про вод
ка пита
ак тив
ту да</w>
о не</w>
П у
каж ется</w>
кото ром</w>
ли ц
из и
ну л</w>
Л е
о зна
о пас
ж ении</w>
По тому</w>
со времен
1 -
произ о
ре з
долла ров</w>
деятель ности</w>
воз раст
продол жа
семь и</w>
д ро
e p
но ч
пар т
фото графи
спе к
су р
и ми</w>
во ды</w>
ми и</w>
о то
о нов</w>
на р
и мя</w>
жд ение</w>
П ри</w>
действ ительно</w>
на у
авто моби
реш ения</w>
участи е</w>
матери а
сма три
1 7</w>
н ер
ч ить</w>
ль ное</w>
свобо д
К и
ля х</w>
по ра
слу жи
ер и
сте р</w>
сер ь
чески м</w>
пред лож
Г ру
- либо</w>
у каза
но вых</w>
Пе ре
ш ла</w>
прав а</w>
при ве
6 5</w>
програм мы</w>
Ф е
u m
ва й</w>
ру с
п ле
ст ен
стви я</w>
ди ре
стро итель
управ ления</w>
бу р
ут вер
AS E</w>
f or</w>
фи ка
мер а</w>
та ким</w>
a k
бли з
ж ной</w>
хо чешь</w>
иг ры</w>
та н
тре бу
r u</w>
по бе
лы х</w>
то бой</w>
кре п
бор ь
н ения</w>
K ASE</w>
Н ет</w>
o v
вз я
хо чет</w>
пос мо
од но
з е</w>
д во
бы ст
Г ос
рам ках</w>
пред прия
ш ли</w>
все й</w>
П ред
благо дар
вани ю</w>
200 6</w>
ден е
реб ен
гро м
й ской</w>
Ва м</w>
ите ля</w>
u p
о ши
че й</w>
ня я</w>
над ле
раз работ
помощ ью</w>
на писа
ж ур
ро ль</w>
19 4
ря дом</w>
органи зации</w>
пре ду
л ением</w>
пос ред
на уч
со ве
ра и
со держа
тре бо
л ки</w>
бу д
е вро
за яв
e -
опреде лен
ль ным</w>
де ка
соб ра
ме то
следу ет</w>
лу й
экс пер
Зна ешь</w>
вой ны</w>
по стро
под готов
2 -
. 0
ру до
ль ная</w>
наш их</w>
f or
вопро с</w>
не которые</w>
дви га
су м
o g
де л</w>
сво им</w>
мно гих</w>
на ло
стар ше</w>
ни ми</w>
ва ются</w>
к ва
стра нах</w>
ност ран
П ар
со стави
луй ста</w>
сер и
ли к
об нару
ве сь</w>
дав но</w>
э й
послед ние</w>
ни цы</w>
щ ей</w>
on g</w>
хо да</w>
ча сто</w>
П ра
ч ного</w>
но вый</w>
ты й</w>
мер ы</w>
ре сур
поддер жи
соответ ству
д ве</w>
в за
ход я
кто ра</w>
еди нен
г да
чис ле</w>
та кое</w>
in d
само е</w>
квар ти
де ла</w>
э ро
то л
г ли
По этому</w>
проти во
з ву
б ре</w>
каж до
ва х</w>
ф е</w>
. .
к ло
о к</w>
н ных</w>
пу ти</w>
стра не</w>
че ское</w>
у гро
исто рии</w>
э р</w>
мо го</w>
ря т</w>
ши ро
сту пи
об су
ст ей</w>
т ные</w>
слу ша
ни ком</w>
за кры
с рав
А л
биз не
работа ет</w>
по н
до мо
вну трен
ва тель
не му</w>
л л</w>
er s
сво е</w>
Ка р
го м</w>
мо я</w>
коне ц</w>
Гер ма
ту ра</w>
по ез
o u</w>
бр ита
ж де
внима ние</w>
не зависи
ло д
вы ми</w>
тель ства</w>
мину т</w>
ору жи
ки ми</w>
ха рак
щ ем</w>
ожи да
про мышлен
ку да</w>
ад ре
спе циали
a y
во ло
ш ки</w>
Г ла
стра те
Ве ли
по про
ни ца</w>
особен но</w>
И ли</w>
жен щ
И так</w>
ста ли</w>
т ра</w>
бра ть</w>
ни ем</w>
1 4
во ду</w>
201 1</w>
I S
ве че
an d
за й
ст ин
201 2</w>
к лу
со хра
жер т
на л</w>
си м
мо его</w>
о но</w>
ф изи
ре ли
со ю
и ностран
включа я</w>
ви ду</w>
ни цу</w>
ь ер
мо н
мест а</w>
ри сти
пол ностью</w>
Э та</w>
ря д</w>
200 5</w>
со вмест
А ф
раз у</w>
поря д
s h
обо рудо
ян ва
стан дар
говори л</w>
т ной</w>
ш ло</w>
U R
помощ и</w>
вы ра
мага зи
и д
с про
в но</w>
смер ти</w>
ме н</w>
ход ят</w>
но гда</w>
на ш</w>
лю д
профес си
u m</w>
которы м</w>
ш ка</w>
ит а</w>
ра ди
вер и
по ме
2 2</w>
на ходи
С ан
ответ ствен
То лько</w>
мно гие</w>
компа ния</w>
раз ви
с со
дан ные</w>
да ми</w>
ход ить</w>
де во
ку па
рас ска
цен тра
ста ла</w>
во сто
фор ми
за коно
О р
си н
r a
се кре
с чет</w>
перио д</w>
це п
я сни
п ят
ите сь</w>
мини стра
э ле
ti on</w>
маль чи
с ре
Н ью
вы ше</w>
цент р</w>
уни версит
2 1</w>
ко му</w>
1 9</w>
ча й
кла д
вы гля
ди на
5 -
ис кус
возраст е</w>
отно с
у строй
со зна
0 0
од ним</w>
а пре
чи л</w>
пре крас
ста в</w>
ро ди
раз и
но вые</w>
ю ще
дру з
it y</w>
обо ро
до ме</w>
с с</w>
де т
та р
ско ро
вла сти</w>
б ри
ре жи
раз ме
и мо
до полнитель
ро к</w>
ь ше</w>
по став
ко мен
са х</w>
с -
исто ч
у кра
Т у
соответ ствии</w>
по скольку</w>
пра в</w>
er s</w>
тран спор
г ер
М у
Хоро шо</w>
ь те</w>
но я
зна чит</w>
ю щее</w>
Бо ль
обще ства</w>
Б ан
ко го
A n
при вле
I I</w>
ка са
6 0</w>
кра ти
И ра
В о</w>
а ген
ж ден
ва ны</w>
то н
сте пен
од но</w>
Во сто
ди с
Г ен
тра ди
га н
се ль
пе с
ско му</w>
то ра</w>
Ин тер
самы х</w>
сто лько</w>
результа те</w>
дер жи
га ни
i t</w>
3 -
Э ти</w>
з я</w>
п ли
росси й
ст ра</w>
Та м</w>
не сколь
2 3</w>
19 5
ю щая</w>
ка м
игра ть</w>
у б
во круг</w>
получи л</w>
а л
с част
прин ци
п си
лен ных</w>
за па
ак ти
семе й</w>
самы й</w>
В ер
возмож ности</w>
o f
ж дан
Т о</w>
п ро</w>
gam e</w>
ди л</w>
хот ите</w>
хо де</w>
бу ма
знач итель
вне ш
ви д</w>
то ва
ству ют</w>
д не
Что бы</w>
по пу
зна ете</w>
х и</w>
сдела л</w>
Меж дународ
террито рии</w>
ав гу
ни це</w>
име ть</w>
по мина
н ные</w>
Республи ки</w>
наи более</w>
пу сти
мо щ
u b
i c</w>
х у
фе вра
u c
ди н</w>
UR L</w>
р ит
пу нк
мо и</w>
за вер
ни к
при надле
кто -то</w>
ди я</w>
19 3
до к</w>
б и</w>
фи ци
201 4</w>
н ение</w>
во д</w>
больш о
количе ство</w>
да м</w>
ле й
помо га
о з
ш ем</w>
О О
in e</w>
х о</w>
ф он</w>
бе спо
ем ся</w>
ou n
По д
име ют</w>
меди ци
с виде
рабо те</w>
лы е</w>
И з</w>
е шься</w>
за бо
л ений</w>
но мер</w>
ча сов</w>
а нали
уве лич
меся цев</w>
евро пей
м ите</w>
наш его</w>
интере со
прав о</w>
т вой</w>
ре е</w>
ты х</w>
вто рой</w>
отнош ении</w>
мен ты</w>
зна ть</w>
у ста
сен тября</w>
быст ро</w>
комп лек
и му
но чь</w>
информа цию</w>
хо в
при мер
н ю
ша н
l y</w>
цион ных</w>
о кон
Л ад
пар ень</w>
ля ется</w>
ве чер
клю чен
201 3</w>
у г
пис ь
компью тер
Сред ний</w>
П рав
200 4</w>
помо чь</w>
емы е</w>
сло ж
ня ть</w>
ч ная</w>
ль зя</w>
у бе
п ти
полити ки</w>
то н</w>
мужчи н</w>
под твер
проис ходит</w>
Те бе</w>
ста ть
2 8</w>
встре ча
e b
а ви
че н</w>
гло ба
жи ли</w>
ка та
ва на</w>
ва лись</w>
ма н</w>
Да же</w>
ти т</w>
у верен
вы з
до маш
t r
Е сть</w>
д ить</w>
ш ин
о ри
Лад но</w>
пер со
тя т</w>
кон ф
це лью</w>
с цен
серь ез
e w</w>
i st
сто м</w>
ati on
A l
кон ферен
o d
до сту
ко е
ин стру
во да</w>
дан ным</w>
у луч
пу ска
тем пера
кра й
ва лся</w>
преж де</w>
p l
с ч
ко раб
кол ле
тю рь
ваш ей</w>
Се годня</w>
Мо жет</w>
ра м</w>
М ос
различ ных</w>
ди н
вши й</w>
домо хозяй
д же
мо з
двер ь</w>
U n
щи м</w>
п у</w>
То гда</w>
з ма</w>
Ми ни
зо в</w>
вз гля
ре комен
п ять</w>
о гром
во лю
бо га
Нью -
лю бой</w>
предо ставля
мен я
ля м</w>
ста би
ме та
2 6</w>
рова л</w>
уров ень</w>
веро ятно</w>
во в</w>
ад министра
ме ро
e x
ющи хся</w>
2 7</w>
ра ба
по яви
Ма й
гру з
ко гда
по ис
торго в
вза имо
т ного</w>
С ей
т .
буд то</w>
лен о</w>
че скую</w>
прав да</w>
е р</w>
иму ще
жен ы</w>
маш ину</w>
оте ц</w>
С то
Ч а
ло го</w>
Евро пей
се зо
г ря
го род
государ ства</w>
од нако</w>
Й ор
на деж
ран ьше</w>
ча ть</w>
ст е</w>
буде м</w>
Из раи
при гла
200 3</w>
вед ение</w>
4 -
Дума ю</w>
н рав
ствен ной</w>
а та
гра ждан
зна ет</w>
g e</w>
вла де
4 5</w>
С ер
со став</w>
На циональ
ко ло
ком му
ц ов</w>
уров не</w>
ни кто</w>
сво ем</w>
ви л</w>
h re
ва ло</w>
хо дов</w>
вопро сы</w>
A r
оста нов
о ф
мо л
а эро
п ля
составля ет</w>
со ба
до ров
Зна чит</w>
по тен
S h
Е С</w>
ста ло</w>
хран ения</w>
лен ные</w>
производ ства</w>
си т</w>
ма ть</w>
ь я
со се
ствен ных</w>
у ме
настоя щее</w>
4 ,
ис ключ
раз мер</w>
ты е</w>
но вой</w>
та й
Б ер
обеспе чи
публи ко
пу ть</w>
дол го
ресто ра
до вой</w>
виде ла</w>
p e
с ъ
част ности</w>
ща ет</w>
э т
ию ля</w>
ца ми</w>
позво ли
2 9</w>
и то
еди ни
сторо н
a m</w>
Л у
сло ва</w>
ф ран
hre f</w>
Б ар
it h</w>
вещ и</w>
А ль
ве ду
ль ном</w>
на де
уров ня</w>
щ у
М ен
ш ить</w>
ю ри
ка те
Пре зиден
ва жно</w>
р д</w>
ф а</w>
са н
к с</w>
ла й
ш у
жен а</w>
во ро
ма х</w>
ше му</w>
w .
отнош ения</w>
ко ле
од ну</w>
str ong</w>
образо вания</w>
ф ро
кра си
5 ,
под писа
e g
ри н
Се вер
гра жда
Х от
ут ром</w>
тре ть
че к</w>
ва йте</w>
систе ма</w>
На пример</w>
ет ы</w>
М ак
проек та</w>
все му</w>
де рев
о логи
с ва
во к</w>
Мос к
обы чно</w>
женщ ины</w>
да ют</w>
пла т
Евро пы</w>
ок тября</w>
с пра
у жа
об нов
точ ки</w>
Я по
несколь ких</w>
регу ли
ен а</w>
тво ей</w>
с пис
еха ть</w>
я щи
по мни
ww w.
нача ле</w>
s i
коне чно</w>
со всем</w>
меро прия
1 .
цион ной</w>
при обре
ла х</w>
за интересо
ин ститу
вос станов
Т ак
де н</w>
ски ми</w>
иг ро
раз д
си ла</w>
Те перь</w>
уни что
с разу</w>
за щи
до гово
a d</w>
ру ется</w>
а н</w>
мо ю</w>
смо треть</w>
ин ф
со кра
C om
Т и
измен ения</w>
л ку</w>
ени ям</w>
от сут
не которых</w>
финан си
на вер
бли жа
o b
у па
з вез
мар та</w>
за ция</w>
основ е</w>
зо ло
ан гли
буде шь</w>
мы е</w>
пре вра
ис ка
лен ной</w>
E n
при ро
компа ни
му ю</w>
2 .
оши б
до каза
о хра
цент ре</w>
ка ки
поло ви
но ва
мы х</w>
ре да
у видеть</w>
при ят
пре с
из бе
d s</w>
ar d</w>
под ро
то ров</w>
ру ки</w>
сред ств</w>
н ной</w>
та кого</w>
пер вой</w>
но вого</w>
ти ли</w>
с че
сфер е</w>
да ли</w>
кон тра
s p
е н</w>
успе ш
е в
дума ла</w>
рабо та</w>
ба с
при сут
вну три</w>
об уч
об ще</w>
лиц о</w>
ж у
С вя
ста нет</w>
й ский</w>
окру жа
ч ку</w>
д но</w>
би р
самы м</w>
де ре
ин ди
любо в
ч ном</w>
не те</w>
помощ ь</w>
а б
из обра
че ском</w>
обеспе чения</w>
ше д
си бо</w>
е же
со р
Со ве
6 ,
в ших</w>
использо вания</w>
я дер
г ли</w>
раз ру
дела ет</w>
позво ляет</w>
8 0</w>
мен а</w>
ст р</w>
з рения</w>
пис ы
виде ли</w>
пробле м</w>
л ка</w>
к р
го сти
по казыва
ко пи
мень ше</w>
ow s</w>
кате го
си лы</w>
де тся</w>
сту ден
ка на
ли чно</w>
у доб
се ти</w>
мет ров</w>
ва ю</w>
распро стра
со став
на си
зна чение</w>
уч ре
ию ня</w>
сто й</w>
7 ,
энер гии</w>
постоян но</w>
Ва с</w>
к ну
фи р
ли ца</w>
З ем
рын ка</w>
W ind
само го</w>
при лож
к ви</w>
по ве
ле е</w>
Евро пе</w>
С С
теле м</w>
ме ха
су б
приня ть</w>
й тесь</w>
при ход
страте ги
да тель
янва ря</w>
ша ет</w>
га ран
груп па</w>
со в
п разд
1 3
дека бря</w>
услу г</w>
спи сок</w>
до бав
работа л</w>
за ка
ти па</w>
Фе дера
А в
озна чает</w>
г ри
мен тов</w>
де м</w>
ла ми</w>
пере писи</w>
e w
Ш та
са д
про долж
В с
семе й
милли онов</w>
мен та
аэро пор
M ar
расши р
имен и</w>
l as
o w</w>
пар у</w>
ка кой
ре с
экономи ки</w>
жда ть</w>
Воз можно</w>
боле з
дру га</w>
ку х
Нью- Йор
пред ло
Л он
правитель ства</w>
ши ми</w>
жа ет</w>
201 5</w>
е тесь</w>
во ль
б -
Д э
ис у
200 1</w>
очеред ь</w>
вы став
а на
дол го</w>
ж ных</w>
o t</w>
пол но
тыся ч</w>
er v
хо ды</w>
по вто
благодар я</w>
ры й</w>
бас сей
действи е</w>
медици н
де ти</w>
о деж
гово рят</w>
on e</w>
бо р</w>
кро ме</w>
вид но</w>
комна те</w>
ё тся</w>
й ского</w>
послед ний</w>
спо ль
га з
професси ональ
пер вых</w>
B N</w>
чи к</w>
ша ть</w>
co m
нар ко
8 ,
Про сто</w>
ль ник</w>
струк ту
реги ональ
програм ма</w>
л ли</w>
маш ины</w>
ре й</w>
гря з
д ж</w>
кон ку
нача л</w>
Сей час</w>
емы й</w>
200 2</w>
смот р
предо став
Wind ows</w>
с са
зна л</w>
га ми</w>
за пре
сооб щи
позво ля
ис пол
раз но
ве сь
S p
суще ствует</w>
ющ ую</w>
Так же</w>
с вет</w>
досту п</w>
пу те
г на
я с
ри й</w>
пробле ма</w>
Д ру
e st
r an
ра ви
ве р</w>
не льзя</w>
проек т</w>
с кры
по в</w>
други ми</w>
процес с</w>
дене г</w>
ника ми</w>
чи е</w>
ОО Н</w>
тер ро
из о
ль ную</w>
gam e
ваш его</w>
весь ма</w>
м .</w>
еха л</w>
a i
потер я
апре ля</w>
y ou</w>
каждо го</w>
ан ти
фран ц
л ле
E x
наш ли</w>
пар та
ваш ем</w>
мог ла</w>
компа ний</w>
за яви
глу бо
ча са</w>
С ко
ч ным</w>
рын ке</w>
l d</w>
го й</w>
А Т
наж ды</w>
правитель ство</w>
ст вами</w>
И спа
c h</w>
ди ли</w>
за д
про цен
т иться</w>
ну т</w>
жа л</w>
ar t
че мпи
ни же</w>
4 4</w>
фор мы</w>
a .com</w>
прош лом</w>
в первые</w>
про тя
ou r
й дет</w>
IS BN</w>
не р</w>
нрав ится</w>
es t</w>
про стран
Т ур
ou r</w>
ту аль
дале ко</w>
мед лен
кор пора
конф лик
Н И
чер а</w>
ро ста</w>
0- х</w>
бю дж
6 4</w>
серд це</w>
ге ти
8 -
об служи
С Т
на ч
л ла</w>
даль ней
ген ера
v e</w>
к но
за про
од ном</w>
у ро
ноч ью</w>
ство вал</w>
тя же
ра нее</w>
гла за</w>
член ов</w>
ги б
о пла
вы ступа
А лек
поня ть</w>
7 0</w>
- -</w>
уди в
га м</w>
хоте ла</w>
про тив
мно же
четы ре</w>
ч ёр
во обще</w>
общ его</w>
вы с
ваш и</w>
защит ы</w>
хо м</w>
февра ля</w>
Со гла
Казахста н</w>
по ро
при ходи
С ле
полож ение</w>
о писа
ку н
Цен тра
рас сматри
услови ях</w>
П ет
Б р
по ки
ре а
т ка</w>
демо н
В ен
ве й
спосо б</w>
з доров
к ита
Ко ро
w ith</w>
201 6</w>
Ар м
созда ния</w>
не ё</w>
зах ва
ни те</w>
ше к</w>
а п
нор ма
состоя нии</w>
к -
те й
ё н</w>
дума ть</w>
па н
зна ком
прави льно</w>
C on
зы вать</w>
на вли
к ред
ве ка</w>
сказа ли</w>
на стро
ч их</w>
де б
це лом</w>
вари ан
з м</w>
ситуа ции</w>
Герма нии</w>
по ле</w>
кон су
Ч ер
наход ятся</w>
h t</w>
авгу ста</w>
пожа луйста</w>
Бо г</w>
Ра с
мо их</w>
ро ст</w>
кол лек
Об ъ
ка кой</w>
вс я
ра ди</w>
от прави
друго м</w>
в ной</w>
йд жа
Хот я</w>
то ры</w>
держа ть</w>
уве личи
зер ба
Лон до
ви де</w>
рас преде
мисси и</w>
зерба йджа
ле в
лег ко</w>
ноя бря</w>
И ису
стой чи
при ме
ци ях</w>
el l
у го
я р
обе ща
пу та
за ключа
те ку
ню ю</w>
il l
О дин</w>
ча тель
or t
П и
по ко
И с
ци ен
сред ства</w>
созда ть</w>
Э н
M a
не тся</w>
верну ться</w>
чески ми</w>
й ских</w>
ва лю
поряд ке</w>
Дже й
путе ше
те ло</w>
з ре
т ью</w>
9 0</w>
ющи ми</w>
се н</w>
единствен ный</w>
ру ют</w>
други м</w>
f f
рав но</w>
станов ится</w>
Т во
ок е
ч ное</w>
ar e</w>
х е</w>
ен ы</w>
по яв
ки ста
Аф ри
х удо
3 1</w>
смот ря</w>
зыва ет</w>
ш ку</w>
че сть</w>
Вели ко
попу ляр
по м
at e</w>
са мой</w>
сво ими</w>
I M
ис а</w>
авто бу
20 0</w>
ти ла</w>
ло к</w>
Вс ё</w>
энер гети
вз ять</w>
за л</w>
боль шая</w>
систе му</w>
ци ями</w>
чи лось</w>
сто л
П ла
куль тур
про па
говор ю</w>
ни ке</w>
вы де
c on
пример но</w>
смо тре
Велико брита
н ению</w>
ме ста
И та
ag e</w>
приход ится</w>
о публико
по пы
рован ных</w>
за пад
ч ины</w>
w h
маши не</w>
кон струк
рова ли</w>
Л о
д жи
чет вер
ля ции</w>
вы бра
3 00</w>
G r
ма тер
отнош ение</w>
к ля
H T
Ка жды
по купа
ми мо</w>
ф ут
буде те</w>
ствен ные</w>
кон кре
э ко
времен но</w>
развити е</w>
шо у</w>
не сти</w>
шко ле</w>
ща ется</w>
и ногда</w>
9 ,
ст вах</w>
и ни
се вер
сотрудниче ства</w>
game 3
game3 a.com</w>
ван ной</w>
e y</w>
b y</w>
рели ги
дости г
Ко не
фор ме</w>
ис че
ща ть</w>
узна ть</w>
президен та</w>
Ор гани
та кая</w>
Та ким</w>
большин ство</w>
вы ступ
альбо м</w>
ч ную</w>
об и
де ть</w>
са йте</w>
ите лем</w>
п ру
та я</w>
га я</w>
u d
чис ло</w>
га х</w>
смы сле</w>
га р
конку рен
Бе ла
ж ей</w>
и дет</w>
чи ст
p h
W or
ви жу</w>
ну жен</w>
ти м</w>
ц ени
хоте ли</w>
согла си
па циен
мл н</w>
p ro
се кун
с де
печа т
вмест о</w>
ствен ного</w>
ты м</w>
P ro
по то
голо ву</w>
о казыва
A m
Кажды й</w>
персо на
К ри
ро да</w>
ж ности</w>
е вре
це ду
те ла</w>
суще ство
Т ем</w>
боль шие</w>
от ца</w>
у мень
и л
из да
к рова
до м
дума ешь</w>
ни л</w>
7 -
ме ц
В то
ско рее</w>
л итель
хо тят</w>
мас шта
цион ные</w>
ми ру</w>
ста ти</w>
раз работа
вече ром</w>
пер вого</w>
тив ных</w>
al l</w>
ло в
ствен ный</w>
е мой</w>
си льно</w>
С па
С П
ющи еся</w>
ре волю
ста ту
дви жения</w>
пере гово
Д о</w>
совершен но</w>
президен т</w>
ва ли
пар тии</w>
единен ных</w>
эк спор
фай лов</w>
при бы
ли де
res s</w>
чен ы</w>
мо т
си ст
ro m</w>
ву т</w>
Со ю
раз ных</w>
год ня
кон ца</w>
en d
r os
кажды е</w>
те о
пред седа
по следо
вы ход
из мени
ар ен
s e</w>
ic e</w>
ца м</w>
ti c
з дра
пу т
тех ниче
ш ую</w>
франц уз
тво я</w>
кла д</w>
дан ный</w>
Ком па
мы м</w>
19 0
систе ме</w>
виде о</w>
годня ш
воз ра
6 -
M ic
В ла
дово льно</w>
услу ги</w>
маши на</w>
контра к
и л</w>
ди шь</w>
под вер
си х</w>
ле га
ка де
относ ительно</w>
рес публи
тре х</w>
фай л</w>
м лад
х е
ребен ка</w>
з р
женщи на</w>
e m</w>
ще н</w>
у креп
с но
ста ти
сторо ну</w>
поддерж ку</w>
от ра
д ца
П ор
си ли</w>
во ка
ме ч
действи й</w>
Г ар
пла н</w>
M L</w>
мы с
счаст ли
миро вой</w>
С тра
кон так
сек су
мы й</w>
кр ити
голо в
Мен я</w>
ту а
про цеду
большо е</w>
информа ция</w>
поддерж ки</w>
бо м</w>
до х
ти фика
ы х</w>
мен но</w>
исследо вания</w>
ца х</w>
утвер жда
199 9</w>
пози ции</w>
на ко
Фран ции</w>
уче б
уве рен</w>
го вари
зо м</w>
вопро сам</w>
раз а</w>
международ ных</w>
част ью</w>
по кры
вед ли
зав тра</w>
ц ей</w>
органи зо
от лич
кно п
стави л</w>
Дж ор
го раз
объ е
ли ц</w>
за пи
де шь</w>
бли оте
си лу</w>
Г е
го ря
при со
реали зации</w>
пер ен
технологи и</w>
пла не
д .</w>
ла я</w>
от ды
ди да
ч ин
ж ителей</w>
с ку
Гос под
пре кра
К то
оди но
цион ного</w>
зо р</w>
In ter
контро ли
шко лы</w>
пос вя
ближа й
По л
воз ь
степен и</w>
Х ри
пар ла
результа ты</w>
3 5</w>
смы с
итель ности</w>
вы да
бо ро
от каза
кар ти
д я</w>
ре кла
раба ты
от да
н ный</w>
больш ую</w>
во ору
ра то
за писи</w>
произо шло</w>
B l
распро стран
бес пла
ри ю</w>
ма кси
Па ри
an t
пу тем</w>
ви зи
ur e</w>
у мер
К ор
а ми</w>
P h
ма ми</w>
прав ду</w>
нуж на</w>
неде лю</w>
Росси я</w>
ва лась</w>
е сте
с ке</w>
неде ли</w>
наблю да
во дит</w>
it e</w>
е мого</w>
демо крати
дь ми</w>
А зии</w>
По жа
при з
та ри
не смотря</w>
or y</w>
Укра и
основ ном</w>
ба р
проек тов</w>
5 00</w>
воз ник
ит ы</w>
P l
ста ра
об ли
у стойчи
практи чески</w>
пар ня</w>
теле фон
интере с
за боле
ре ди
ла м</w>
вро де</w>
ми кро
по й</w>
реши л</w>
люд ям</w>
ко фе</w>
го н
э кра
тех ни
д ю
та ть</w>
o st
г но
тя бре</w>
чен о</w>
сист ем</w>
ко ст
гру зо
сем ь</w>
на пря
протя жении</w>
от рас
г де
er e</w>
al l
реги стри
при дется</w>
дер ж
сло во</w>
ма ло</w>
авто мати
гораз до</w>
фе дера
ком мер
по воду</w>
ти в</w>
буду щем</w>
стан ции</w>
С лу
ча сти
га ть</w>
пре имуще
Бела ру
се годняш
н .</w>
во о
продук ции</w>
U S
Б ла
i e</w>
ро го</w>
ави а
извест но</w>
го с
меся ца</w>
лю бы
an g
про вести</w>
с ви
w or
цент ра</w>
жи ла</w>
ш ёл</w>
под чер
про гре
рай оне</w>
кров и</w>
ле та</w>
обяза тель
ко с
клю чения</w>
ку ро
Не которые</w>
па м
ве б-
лю дьми</w>
иностран ных</w>
чув ству
девуш ка</w>
деятель ность</w>
кон цер
обра тно</w>
д р
Р К</w>
про те
ня ет</w>
от вет</w>
управ ля
су дь
Н у
нача ть</w>
for m
д ите</w>
сим во
из бира
o k
к ле
Мо жно</w>
пред полага
от сюда</w>
чи й</w>
пер вую</w>
Амери ки</w>
коман ды</w>
следу ющий</w>
хо ть</w>
оте ля</w>
поли ции</w>
отнош ений</w>
ско р
чис ла</w>
кри з
пер вым</w>
кла ды
Ш а
о г
каж дой</w>
же лез
кан дида
мас со
про смот
с может</w>
не ш
си ль
ме ст</w>
ж ений</w>
со вет
похо же</w>
ули це</w>
организа ций</w>
наш ем</w>
жур на
хо лод
уси ли
кое -
итель ный</w>
мен е
опы т</w>
Коне чно</w>
о щу
игра л</w>
экономи ческого</w>
верну лся</w>
пло хо</w>
рова н</w>
ника ких</w>
каче ства</w>
Мини стер
По хо
де та
гла за
мет ить</w>
це ли</w>
бе зу
па ль
все ми</w>
верси и</w>
про ведения</w>
не мец
ден ы</w>
i b
те мати
мо ре</w>
н ём</w>
ц ем</w>
но с
Раз ве</w>
т ное</w>
Гла в
вши е</w>
О ли
у стро
М э
К рас
ли нии</w>
у ж</w>
ну жда
фотографи и</w>
О т</w>
e ar
програм м</w>
пред ме
у бед
согла сно</w>
наш а</w>
про то
ли л</w>
с сы
ц ар
суще ству
ло е</w>
реги стра
милли ар
за седа
за во
m e</w>
п лу
площа д
та ет</w>
де в
сторо не</w>
у мер</w>
ч ь
Япо нии</w>
что -нибудь</w>
y st
же шь</w>
бер ите</w>
услови я</w>
Х ар
веро ят
ите лями</w>
А зербайджа
на че</w>
вечер ин
друго го</w>
удо вле
ми ра
случа ях</w>
ща ться</w>
ис пыта
з и</w>
объ яв
ку пи
име ю</w>
по йти</w>
по верх
рова ны</w>
посмо треть</w>
пос ла
даль ше</w>
за пу
k s</w>
бо м
край ней</w>
зав тра
следу ющие</w>
1 2
c i
за тра
пер во
истори ю</w>
доб ро
Н ес
круп ней
домохозяй ств</w>
д ри
которы ми</w>
год но</w>
199 8</w>
ресур сов</w>
ма ни
Укра ины</w>
технологи й</w>
цер кви</w>
це лях</w>
случа й
ющ ем</w>
сол н
ра с</w>
об ви
слыша л</w>
подро б
меха низ
ы ду
ли ча
представля ет</w>
Ка ж
кон кур
a z
за мен
со лю
ла бо
ви на</w>
я та</w>
медлен но</w>
ди зай
М но
ходи л</w>
о став
сексу аль
i f
т ку</w>
.. ..
отме тил</w>
на гра
пре дела
вз ры
о свобо
луч ший</w>
во до
я сно</w>
хи ми
вши сь</w>
х у</w>
са мая</w>
ж ного</w>
Кита й</w>
a u
иде аль
рас т</w>
ми гра
харак тер
па к
ини циа
рован ные</w>
рас следо
зда ние</w>
д ли
Л уч
х ите
ли зации</w>
фак т</w>
служ бы</w>
гаран ти
поли це
Г ре
цер ков
та ции</w>
p er
самы е</w>
б ре
со стоит</w>
нарко ти
Д ей
Г у
on s</w>
кни ги</w>
филь м</w>
срав нению</w>
ер ы</w>
наш у</w>
жи в
Похо же</w>
i on</w>
Сове та</w>
э м
з доро
ми стер</w>
моло ды
Казахста на</w>
са ма</w>
Э к
ра до
нов ь</w>
u e</w>
не ров</w>
М ин
цион ный</w>
av e</w>
чис лен
стре м
т ря
ё шь</w>
К ла
по лез
обеспе чить</w>
квар та
на столько</w>
цио ни
привле ка
эко логи
хра ни
П К</w>
ван ных</w>
ко ми
ров ки</w>
з ор
бизне са</w>
i k
сы н</w>
мо мента</w>
лан д
По ль
HT ML</w>
раз о
f rom</w>
се кто
ры х</w>
слу чилось</w>
вы ро
Кита я</w>
И менно</w>
3 2</w>
ид ти</w>
Бо лее</w>
И х</w>
Бо га</w>
у ва
м ьер
e f
жд ений</w>
с ра
ви дов</w>
сси и</w>
щ ении</w>
ка би
ло г</w>
М он
т ным</w>
уч иты
ж ные</w>
а ресто
Го судар
сло вно</w>
д ни</w>
пред ыду
ри л</w>
су д</w>
об вин
ступи л</w>
би блиоте
сто л</w>
с п
й ском</w>
t er</w>
o s</w>
л ён
ез жа
гово ря</w>
сдела ли</w>
но мера</w>
обще ство</w>
нов ую</w>
Прав итель
П Р
м -
с бор
собира юсь</w>
с мен
Лю ди</w>
по нен
выбо р</w>
случа й</w>
es s</w>
располо жен
Ф а
P ar
ж ный</w>
ци ям</w>
ры нок</w>
тран с
с са</w>
в ся</w>
то ром</w>
ко ль
поез д
высо ко
ad s</w>
Ч и
ту ри
использо вание</w>
Ген ера
до бы
контро ля</w>
говори ли</w>
ге ро
куль туры</w>
а зи
с вет
пыта лся</w>
в ни
представ ители</w>
по зна
сч иты
ма ты</w>
конферен ции</w>
с пуст
б ран
Ц е
ш ту
тво его</w>
Зна ете</w>
el l</w>
ст у</w>
в чера</w>
в новь</w>
мо ни
законо датель
Е е</w>
оп ти
Те ле
ссо циа
сай т</w>
но ме
лы м</w>
пси хо
на сколько</w>
продук тов</w>
ясни ть</w>
на мер
инф ра
ре зер
труд но</w>
су деб
тво и</w>
до ход</w>
не давно</w>
из уч
поз д
дер жит</w>
сред ы</w>
в шего</w>
a in
наз вание</w>
ве ща
дан ной</w>
свиде тель
ком фор
ден а</w>
вер но</w>
куп ить</w>
N ew</w>
она х</w>
тив ной</w>
t h</w>
Го во
би о
ма ма</w>
ника м</w>
ди пло
верну ть</w>
ба л
бо е
основ ных</w>
фо то</w>
ка кие</w>
какой -то</w>
здра воо
бан к</w>
боль шим</w>
реги оне</w>
ли н</w>
у чен
энер ги
ль ными</w>
оф ис
ч рез
с бо
получ ения</w>
мо ему</w>
реш ений</w>
тру да</w>
ва лось</w>
итель ность</w>
оста ви
мо им</w>
клю че
му ли
iv ers
чи ли</w>
прожи вали</w>
у ма</w>
консу льта
аб солю
стра хо
дей ству
опера ции</w>
б ит
сти ва
получи ли</w>
терро ри
ско ро</w>
ба лан
у м</w>
че ст
по говорить</w>
Ф ор
9 -
юри ди
хозяй ства</w>
ж ная</w>
ol og
За тем</w>
под ня
спо кой
Гос по
ху д
струк туры</w>
точ ка</w>
т ная</w>
итель ные</w>
не посред
пред принима
кам па
но вая</w>
стати сти
Спа сибо</w>
располо жен</w>
процес са</w>
S erv
об стоя
ре ак
об а</w>
не доста
счита ет</w>
ваш их</w>
зе лен
использу ется</w>
моде ли</w>
тр ени
ла гер
прави ла</w>
ар хите
ко рен
ac k</w>
л л
Гру п
Ра бо
ру бе
уда лось</w>
поз же</w>
любов ь</w>
до сто
Пожа луйста</w>
ствен ное</w>
сред ний</w>
пис ан
те ат
С каж
IM G</w>
Н ор
вз ро
бан ка</w>
сто ли
оста ется</w>
О но</w>
зависи мости</w>
ц ом</w>
живо тных</w>
го ся</w>
об ер
м -то</w>
В И
приш лось</w>
Д ан
воз раст</w>
деся ти
вид ите</w>
итель ных</w>
дву мя</w>
и щ
ня ется</w>
нача ли</w>
ло н
из мер
ча я</w>
h -
a -
д я
буду щее</w>
С во
доступ а</w>
у ника
ми я</w>
све та</w>
предлага ет</w>
ки н
разви ва
мо к</w>
вопро сов</w>
голо со
с .</w>
п ры
ть е</w>
потен циа
язы к</w>
т ё
измен ить</w>
ре ша
А й
раз гово
До л
ру б
Ш е
участ ников</w>
с эр</w>
на шел</w>
ма т
О тель</w>
но чи</w>
К ин
уб ить</w>
с пас
ру ках</w>
дире кто
от че
Казах стан
at ar</w>
наз ванием</w>
элек три
сем ье</w>
смо г</w>
зна ем</w>
бо в</w>
мер т
люб ви</w>
Че рез</w>
це ль</w>
ле жа
на ше</w>
я сня
заяви л</w>
нуж ны</w>
г ла</w>
С ло
связ ь</w>
стра да
де те</w>
став ки</w>
биз нес
зем ле</w>
в ме
наж мите</w>
ж ению</w>
т вра
понима ю</w>
Ка на
Амери ке</w>
го тов</w>
окру га</w>
ма м</w>
экс плу
С ен
мо ро
ва ешь</w>
щен ы</w>
клиен тов</w>
199 7</w>
в ью</w>
up lo
мн ю</w>
те п
двер и</w>
процес се</w>
зем ли</w>
Е ще</w>
3 .
ш ению</w>
со р</w>
говори ла</w>
пол не</w>
оружи е</w>
зо ваться</w>
те н</w>
ст ера</w>
e .
дово ль
т р</w>
примен я
прави ло</w>
ис полни
i p
фи гу
не за
стра и
различ ные</w>
жур нали
су да</w>
ду хов
каса ется</w>
знач ительно</w>
ви ду
го дах</w>
в печат
созда ние</w>
о цени
ле кар
меся ц</w>
ван ные</w>
необходи мости</w>
мот ря</w>
чен а</w>
До ктор</w>
ac e</w>
вы бро
тель ных</w>
дела ют</w>
любо м</w>
При вет</w>
до чер
су ль
больш их</w>
окон ча
возду ха</w>
b e
язы ке</w>
ко сти</w>
ки ло
заключа ется</w>
i es</w>
A p
uplo ads</w>
по вре
s -
ци к
компани ей</w>
К О
av atar</w>
ит ета</w>
вы пла
влия ние</w>
шан с</w>
коро т
м с</w>
а уди
шта т</w>
бед ности</w>
ou t</w>
д жа
кого -то</w>
брита н
рабо чих</w>
ся т</w>
луч ших</w>
6 .
ш ка
Ц ер
сво ему</w>
при шел</w>
ля ют</w>
у де
ф ей
мьер -
A c
ль ности</w>
множе ство</w>
ге о
итель ной</w>
Б ра
сосе д
где -то</w>
У ни
ту ре</w>
жи м</w>
рова ться</w>
личи е</w>
щ а</w>
религи оз
откры вается</w>
мо ем</w>
у жи
иг ра</w>
ше сть</w>
истори я</w>
тюрь ме</w>
предо твра
места х</w>
с нима
по вер
общ ей</w>
кон цов</w>
С Р</w>
со жа
ры е</w>
ро ждения</w>
th at</w>
му ж</w>
ation al</w>
тво ю</w>
F or
ли цен
встре чи</w>
а на</w>
просмот ра</w>
t s</w>
лен ный</w>
ваш а</w>
неде ль</w>
of t</w>
ли дер
дне в
За пад
борь бе</w>
над ца
Н О
il l</w>
18 9
ва ем</w>
принима ть</w>
тив ные</w>
Нес мотря</w>
л иться</w>
х ристи
лабо рато
s r
от лича
Р А
сро к</w>
получи ла</w>
реда кти
тив ного</w>
клю чение</w>
адре с</w>
во сти</w>
ac h
та ком</w>
I n</w>
сол да
бан ков
or e</w>
дей ствовать</w>
l in
a st
поня л</w>
са жи
ё з
обли га
с не
пер вом</w>
ч ении</w>
п ить</w>
v er
ко ри
u t</w>
m ent</w>
за регистри
Д жа
мл рд</w>
се й</w>
за р
s c
с ной</w>
Т ре
к лет
Un ivers
сло вам</w>
развити ю</w>
состави л</w>
пре пода
представ ить</w>
по гиб
о ставля
у казыва
то пли
по со
Ка ли
о созна
л ке</w>
комна та</w>
аген т
и т</w>
3 0
д ре
ц о
пре вы
кла сси
исследо ваний</w>
представ ителей</w>
Кто -то</w>
ле ст
ап пара
прово ди
А к
э м</w>
d er</w>
су д
По ка</w>
Великобрита нии</w>
объ ем</w>
полож ения</w>
вер а</w>
шин г
ту р</w>
гово й</w>
Бла го
g r
ин ду
ен но</w>
Со л
ни ц</w>
тур ни
шко лу</w>
Про грам
ско в</w>
по сте
си я</w>
По след
су пру
го стей</w>
убий ства</w>
ен о</w>
же сто
разно образ
М ан
f il
га зо
американ цы</w>
совмест но</w>
то е</w>
Да вай</w>
у видел</w>
в не</w>
цен ы</w>
ад вока
экономи ческой</w>
которо му</w>
торгов ли</w>
en ce</w>
му ни
оте ле</w>
кре ст
на конец</w>
Г и
ру п
д ва
ни ко
по ка
катего рии</w>
послед нее</w>
на сла
еха ли</w>
По чему</w>
бо к</w>
на шим</w>
мини стр</w>
Р ей
преду пре
по бед
с начала</w>
Ва шинг
при вы
3 3</w>
чи лся</w>
ба р</w>
мя ти</w>
участи я</w>
ве ще
де вя
ло ша
я пон
Г ор
кар ьер
Согла сно</w>
одно временно</w>
Пер вый</w>
под ру
ев ро</w>
тен ге</w>
стре е</w>
преж нему</w>
сер ви
све те</w>
о ны</w>
З е
находи лись</w>
м би
фор м</w>
теле фон</w>
окружа ющей</w>
демон стри
в ходит</w>
ы й</w>
фут бо
по ле
спис ке</w>
мя г
з ло
oo k</w>
спра ведли
е ва</w>
И ногда</w>
По мни
m an</w>
ot el</w>
музы ка
Ва ш</w>
b o
ф у
За па
iv e</w>
3 6</w>
до пол
бу ты
T r
ти н</w>
оборудо вания</w>
тен ден
до вери
демо кра
ро ли</w>
парт нер
но вое</w>
sr c</w>
s e
4 .
та бли
оружи я</w>
B e
пред назна
й ские</w>
m y</w>
международ ного</w>
иг ру</w>
ig ht</w>
пуст ить</w>
ми н</w>
де ли
приня л</w>
A d
б ить</w>
С М
Алек сан
чу ть</w>
ис прав
ли за
само стоя
кред ит
с прав
при род
па мяти</w>
стои мость</w>
ру ку</w>
ле тия</w>
со з
челове ком</w>
дире ктор</w>
а м</w>
Во -
чемпи она
s k
ar y</w>
по жи
промышлен ности</w>
п ит
R e
смо три
д р</w>
состоя ние</w>
клас са</w>
ва ше</w>
кост ю
кра со
an t</w>
r e</w>
ко н</w>
гу ю</w>
P ress</w>
контро ль</w>
зна ют</w>
ат мо
по м</w>
кли ма
ор дина
ре за
ка к
or g</w>
взя л</w>
националь ной</w>
друго е</w>
Н К</w>
д рев
то на</w>
навер ное</w>
ви и</w>
im g</w>
C o
ль я</w>
же ст
из уча
х ро
ду ю</w>
ро д</w>
про сты
комна ту</w>
свя щен
не ве
ня х</w>
мл н.</w>
ба зе</w>
З о
3 8</w>
в ше
Та й
уби л</w>
хо л
мн ению</w>
В ес
199 5</w>
спуст я</w>
зи я</w>
л лек
и наче</w>
з ен
еха ла</w>
Арм ении</w>
ство вали</w>
при вести</w>
ван ная</w>
Ф он
Д об
199 6</w>
ти лся</w>
скоро стью</w>
ть я</w>
работ ки</w>
по может</w>
Интер нет</w>
рова на</w>
се к</w>
неф ти</w>
ги п
ши л</w>
Mic ros
од нажды</w>
G oo
г не
Ин дии</w>
показа ть</w>
американ цев</w>
рев но
д лин
с можете</w>
д вое</w>
магази н</w>
на много</w>
зда ния</w>
ти на</w>
государствен ных</w>
инди виду
худо ж
собы тий</w>
доро ги</w>
иде я</w>
b e</w>
сы гра
бра ться</w>
Ав стра
смот рен
до ба
государ ств</w>
финансо вых</w>
фе стива
хо ло
сем ья</w>
производ ство</w>
образо вание</w>
н т</w>
гото вы</w>
па ле
л ки
А вто
u g
де ло
за ди</w>
да й</w>
га за</w>
рова ла</w>
прото ко
Ч ар
дви жение</w>
с на
i z
ны неш
Компа ния</w>
Сле ду
Дж о
7 5</w>
за ключ
вече р</w>
го спо
К ре
исче з
до ктор</w>
жда я</w>
пу сты
Ж ен
спа ль
о де
Ю жной</w>
or t</w>
е ду</w>
во споль
итель ного</w>
в ку
дан ного</w>
се ть</w>
объ яви
со бо
при ор
со м
люб лю</w>
нача ло</w>
владе ль
в полне</w>
оцен ки</w>
Федера ции</w>
ы е</w>
Б ро
щен а</w>
наблю д
де р</w>
г -
Из ви
ска ж
ри к</w>
ито ге</w>
окру ге</w>
На м</w>
R ec
на пад
ви ру
до жд
k ing</w>
полити ческих</w>
следу ющим</w>
ком понен
подо зре
пита ния</w>
полно мо
груп п</w>
це н</w>
Н Е
че ства</w>
рабо т</w>
за писа
ля ться</w>
голо ве</w>
реги она</w>
ри т</w>
уси лия</w>
ти ю</w>
хо в</w>
установ лена</w>
ст ях</w>
г ни
Inter n
рас кры
кра т
i d</w>
жи вет</w>
ль е</w>
приходи лось</w>
3 4</w>
ак ций</w>
борь бы</w>
Ва ша</w>
Бы ло</w>
Ра й
С ин
ло со
гражда н</w>
ност ями</w>
2 5
ве н</w>
ит ет</w>
включа ет</w>
ар мии</w>
пре пят
Все мир
ва но</w>
ско ре</w>
ве ло
ро е</w>
ве л</w>
ф ла
инве сто
m an
го дов</w>
ви да</w>
Президен т</w>
199 4</w>
дви жи
оп ять</w>
Росси йской</w>
О АО</w>
эксплу ата
реш ить</w>
К е
ответствен ность</w>
коман да</w>
се реди
го -
оте ль</w>
жд ении</w>
жа ло
полити ческой</w>
по ступ
и н</w>
ж ением</w>
экспер имен
g i
времен а</w>
кров ь</w>
се т</w>
от метить</w>
l is
сери и</w>
са м
К э
те ра
про вед
не н</w>
л ите
случа ев</w>
В В
ну ла</w>
Micros oft</w>
па ла
здравоо хранения</w>
вла сть</w>
пере ме
теле ви
выгля дит</w>
но вым</w>
ла м
раз говари
име ли</w>
сообщ ение</w>
ни ку</w>
не возможно</w>
на па
га ет</w>
мест ных</w>
комму ника
ч ке</w>
К то</w>
ограни чен
обуч ения</w>
пер вая</w>
би л</w>
щ ер
материа лов</w>
програм му</w>
ма ги
вы бира
кре ди
Север ной</w>
моде ль</w>
темпера туры</w>
у по
требу ет</w>
те лями</w>
вы брать</w>
предприя тий</w>
процен тов</w>
P r
це лей</w>
прес с-
бизне с</w>
общ ем</w>
дина ми
ма темати
I t</w>
преступ ления</w>
лан дии</w>
Ту т</w>
сы на</w>
с да
реши ли</w>
при клад
пи сто
тель ной</w>
ста не</w>
ста на</w>
орга нов</w>
до чь</w>
рей тин
за пла
У ч
Ал маты</w>
со вый</w>
на ме
зна чения</w>
ти ем</w>
А б
приш ли</w>
лад но</w>
кри зи
спра ши
ля ются</w>
ото бра
в ступ
фор му</w>
со на</w>
4 8</w>
ори ен
воз ника
п ь
матер и</w>
роди лся</w>
долго сро
I N
интер вью</w>
работа ют</w>
в ключен
международ ной</w>
Ан г
наро да</w>
каж дом</w>
рован ный</w>
спо н
дале е</w>
ри ца
предлож ение</w>
щ и</w>
пя ти</w>
А га</w>
y -
глав ным</w>
зем лю</w>
вни з</w>
иг ре</w>
И сто
ре чь</w>
щ ую</w>
компью тер</w>
п лы
удо воль
ско -
обяза н
стра на</w>
бы стрее</w>
Че лове
С К
ст ите</w>
вы стре
иг р</w>
стави ли</w>
иг ры
дости жения</w>
ч ится</w>
ль ян
3 7</w>
вы чай
бра т</w>
име л</w>
от ка
внима ния</w>
er ic
дела л</w>
член ы</w>
про вин
направ лении</w>
C ol
ки сло
два дца
ходи ли</w>
смер ть</w>
ваш у</w>
Г ра
коро б
здоров ья</w>
друз ей</w>
4 2</w>
ужа с
послед них</w>
ит и</w>
го довой</w>
пи ш
пар ы</w>
при д
Н А
ра сту
го до
по- прежнему</w>
ите лям</w>
чи ки</w>
. j
тра в
груп пе</w>
on d
шта та</w>
В О
О снов
докумен ты</w>
ш ру
беспо ко
Мо л
рас стоя
сте н</w>
но сит</w>
ин нова
Б рази
кораб ль</w>
сво ё</w>
О к
зако н</w>
сдела ла</w>
инвести ций</w>
чи ков</w>
спа ть</w>
стви й</w>
по мню</w>
Е му</w>
с бе
y p
я ся</w>
сол не
убий ство</w>
ми ю</w>
f las
Т ор
эти ми</w>
к ем</w>
присо едини
искус ства</w>
вы нуж
со че
игра ет</w>
предприя тия</w>
Х е
разработ ки</w>
сцен а
альбо ма</w>
v i
es c
мо ря</w>
ту ю</w>
мн ение</w>
люби т</w>
логи и</w>
0 1</w>
дер ь
I II</w>
вы шел</w>
возвра ща
ре мон
не бо</w>
s on</w>
ко д</w>
зависи т</w>
доро ге</w>
М ор
но сить</w>
ско н
ко сть</w>
18 8
стать и</w>
По том</w>
Е ё</w>
услови й</w>
та л</w>
не с</w>
Ф ин
ин жен
ч т
ле чения</w>
ствен ная</w>
ня ми</w>
ле р</w>
am e</w>
а каде
рован ной</w>
университ ета</w>
пас сажи
Т ер
ры м</w>
сва дь
насе ление</w>
Вто рой</w>
криз иса</w>
199 3</w>
пере се
види шь</w>
199 2</w>
ч ению</w>
опас ности</w>
o m</w>
глав ный</w>
На до</w>
следу ющих</w>
глу б
объек тов</w>
способ ности</w>
Органи зации</w>
фак ти
поль зу</w>
пер вое</w>
за м
сто ль</w>
со т
ба зы</w>
за ставля
ну ли</w>
o h
ш ении</w>
чи м</w>
когда -нибудь</w>
по чита
бо л
до вер
ми н
пре бы
про фи
спор та</w>
инте гра
под держа
деся ть</w>
сто к</w>
Э й
Мно гие</w>
ди ла</w>
i an</w>
под разде
строитель ства</w>
реб ята</w>
от вер
ва ющие</w>
о гра
ни ях</w>
О чень</w>
B B
управ ление</w>
мо на
смо гут</w>
W h
хо ждения</w>
о прав
зна ли</w>
3 9</w>
рас сказать</w>
не при
M us
обеспе чение</w>
собы тия</w>
вы йти</w>
потен циаль
вы полни
Каж ется</w>
ствен ным</w>
пол ной</w>
пом нить</w>
ма на</w>
жен о</w>
виде о
я й
ше н</w>
от рица
от чет
Д жи
М ек
ки но
со един
на помина
i x</w>
пло хо
дан ном</w>
s t</w>
приня ли</w>
ще му</w>
an ce</w>
ac k
199 1</w>
кар ты</w>
зако на</w>
с верх
четы ре
уч ени
по думал</w>
Ро жде
пе р</w>
нало го
вер х</w>
цве та</w>
flas h-
бе лых</w>
D i
стра ну</w>
Д ом</w>
про сто
по ступа
ут ра</w>
an n
во де</w>
тер на
фо ру
да ла</w>
при вет
о ставить</w>
времен ем</w>
сем ью</w>
полити ка</w>
кур с</w>
н ная</w>
ка мен
мен ю</w>
дру гую</w>
ст вам</w>
ту ру</w>
взгля д</w>
ок но</w>
ря д
оста нови
а спек
Univers ity</w>
установ ить</w>
итель ное</w>
ке р</w>
бо й
пос ы
больш ей</w>
о хва
полу чен
п иты
мол ча
да ции</w>
ц о</w>
кор ре
рав но
млад ше</w>
Е дин
у с</w>
пи ра
Ф ло
Дж он</w>
е мая</w>
в люб
сохра нить</w>
н ного</w>
S ch
си и</w>
под ъ
W i
пыта ется</w>
не движи
ци она
o p</w>
не до
ч он
Моск ве</w>
в друг</w>
мар шру
a e</w>
н ью</w>
кни гу</w>
по л</w>
о до
требу ется</w>
та кими</w>
ё те</w>
к нул</w>
что б</w>
ли на</w>
У и
не деле</w>
д ят</w>
а у
ле том</w>
за груз
за бы
сво й
кое- что</w>
вто р
flash- game</w>
со ревно
де ль
Бо же</w>
об у
Кали фор
Б ли
D e
регу ляр
но ги</w>
смо гу</w>
способ ность</w>
оста вил</w>
програм ме</w>
ар хи
чи ла</w>
О те
каки е
уста навли
та кую</w>
про гно
го ль
позволи т</w>
ново сти</w>
ква ли
рас полага
кон цеп
стви ем</w>
оста ться</w>
лен ная</w>
посе т
индивиду аль
у слыша
ван ный</w>
199 0</w>
слу жа
i o</w>
у мира
э мо
му з
за бра
ва ете</w>
ла кти
со прово
по куп
пор т</w>
редакти рования</w>
конструк ции</w>
га н</w>
функ ции</w>
Т вой</w>
a f
ва ющих</w>
инте ллек
о доб
B o
вос кре
тив ный</w>
подготов ки</w>
выпу сти
Ве дь</w>
Q u
прави л</w>
ты с.</w>
ря ду</w>
бере ж
Аф гани
C l
сре до
ри со
офи с</w>
ли ли</w>
националь ных</w>
ла в
Б ен
смо гли</w>
укра ин
жен ных</w>
ка з
ис пы
клу б</w>
Ф о
зо ны</w>
измен ений</w>
бума ги</w>
Б Р</w>
ш ке</w>
Ну жно</w>
H otel</w>
вя за
б я</w>
не у
ва й
бе ль</w>
по тря
называ ется</w>
Вла ди
те лям</w>
сай та</w>
до би
ul a</w>
- -
дж а</w>
мер у</w>
жиз нен
Пет ер
оста льные</w>
es s
го лу
в шей</w>
си деть</w>
любо го</w>
L in
ста ми</w>
ожида ется</w>
оборо т</w>
финансо вой</w>
йд ите</w>
ec t
щ ению</w>
му суль
Су ще
Оли мпи
возмож ностей</w>
ме тра
кноп ку</w>
докумен тов</w>
5 5</w>
О ста
чрез вычай
х ит
единствен ная</w>
Com p
площа ди</w>
остро ва</w>
н -
м ян
юще йся</w>
хоро ший</w>
ви ч</w>
Дж он
c l
со хран
интер не
архите к
мн ения</w>
л -
бро ни
це ле
бассей н</w>
a w
рова но</w>
л ити
ситуа ция</w>
о хран
СМ И</w>
P -
u n</w>
отправ ить</w>
Украи не</w>
под нима
за ле</w>
принадле жа
ни ли</w>
мини стра</w>
зо не</w>
нен а
О Б
ча л</w>
дву х
Г ри
посред ством</w>
а ф
тель ные</w>
К ра
re c
прош лого</w>
Rec or
сотруд ников</w>
занима ться</w>
ди ю</w>
Хо чешь</w>
г ита
Благо дар
ти п</w>
организа ция</w>
пред вар
по на
х ар
груп пу</w>
де ть
стоя ть</w>
объ ясня
и ден
расска зыва
девуш ки</w>
с можем</w>
В ре
4 1</w>
ви дом</w>
Wor ld</w>
кан чи
вы зо
церков ь</w>
про йти</w>
н ении</w>
рекомен ду
тель ство</w>
и стин
тыся чи</w>
за мест
необходи мая</w>
из бра
счита ют</w>
п лю
ни ж
вещ ей</w>
С пе
воло сы</w>
под ходя
верси я</w>
исключ ением</w>
то в
Уни версит
пес ни</w>
мо ра
бро са
стра ш
om e</w>
пользова телей</w>
строитель ство</w>
ж ки</w>
ак ции</w>
деть ми</w>
лай н</w>
ко ордина
кон тек
това ров</w>
состоя ния</w>
прода жи</w>
э й</w>
результа тов</w>
Центра льной</w>
Ка н
за ключен
ing s</w>
М ис
H e
с ку</w>
возду х</w>
сове та</w>
до кла
н ки</w>
Д ет
ша г</w>
площа дь</w>
приш ла</w>
дума ете</w>
мужчи на</w>
C ar
спе кти
рас ходы</w>
прош лой</w>
результа т</w>
м м</w>
де лу</w>
се мина
Мек си
переда чи</w>
вши м</w>
s ch
су пер
тво их</w>
со держит</w>
по хоро
Восто чной</w>
х уже</w>
гото ви
че ство</w>
ки но</w>
специали зи
th er</w>
про гу
луч шее</w>
У прав
Э д
б ен
И ди</w>
устрой ства</w>
с м.</w>
откры ть</w>
испы ты
я з
ди м</w>
сум му</w>
И р
ь е
итель ным</w>
т ке</w>
це ло
повто р
ir l
ф ан
упо мя
со средо
in a</w>
ле ты</w>
интере су
о су
Ра совый</w>
име ется</w>
се л</w>
аль терна
язы ка</w>
a il
член ом</w>
s s
M an
обра ща
. ...</w>
кос ми
ти ровать</w>
ду ющий</w>
се ст
Белару си</w>
B r
иде и</w>
Б ес
сообщ ения</w>
связа нных</w>
х ло
g le</w>
си пе
написа л</w>
пла те
пар к</w>
ка ть</w>
при е
К ен
пу сть</w>
ги на
по станов
с пут
понима ешь</w>
выбо ров</w>
Од на</w>
И споль
ь ями</w>
м ит
вос ь
С начала</w>
на каза
когда -либо</w>
as t</w>
пере жи
b er
4 00</w>
ле ди</w>
состав е</w>
не уда
стави т</w>
не ц</w>
4 3</w>
количе ства</w>
l es</w>
опреде лить</w>
чита ть</w>
П ло
С мо
АТ О</w>
примен ения</w>
использу ет</w>
n e</w>
Иису с</w>
us t</w>
спор т
фи лосо
Нью-Йор ке</w>
id e</w>
каче ство</w>
ру ются</w>
ж ё
наро д</w>
Ба л
сту ю</w>
жда ет</w>
ме л
круп ных</w>
за цию</w>
е .</w>
k e</w>
провод ить</w>
щ у</w>
o -
ч ными</w>
С ы
та ки</w>
щи ков</w>
наш ла</w>
гла з</w>
интере с</w>
сотрудниче ство</w>
н ской</w>
ent s</w>
вой не</w>
M e
государствен ного</w>
бу ю</w>
Ита лии</w>
0 3</w>
емы м</w>
пре следо
вы зыва
как -то</w>
по ля</w>
па ро
свобо ды</w>
государствен ной</w>
показыва ет</w>
отды ха</w>
лен ного</w>
щи ми</w>
предлож ения</w>
С эр</w>
ё х</w>
му м</w>
же ли</w>
к са</w>
ос ве
Е Р
мен том</w>
вос ста
боль нице</w>
M on
че скому</w>
коман ду</w>
w e
сообщи л</w>
не большой</w>
лите ра
Х и
слу ги</w>
ответствен ности</w>
Петер бур
У же</w>
социаль ной</w>
Пра во
ча р
спа сти</w>
а л</w>
i r</w>
П О</w>
D V
ко ва</w>
Кон вен
зна я</w>
стра нами</w>
р эн
жи вут</w>
ок на</w>
ля н
Ж и
ri g
тон н</w>
ключ ить</w>
ф ы</w>
грузо ви
абсолю тно</w>
От кры
ч ности</w>
ты ми</w>
оборудо вание</w>
нау ки</w>
запи сь</w>
от кро
Бан к</w>
оста лось</w>
И о
экономи ческих</w>
обяза тельно</w>
да ние</w>
s l
ситуа цию</w>
электро нной</w>
тель ный</w>
т ную</w>
повы шения</w>
ec h
со отношение</w>
филь ма</w>
стро в</w>
c an</w>
чи ка</w>
объ един
бло ки
ка т</w>
взро слы
муж чины</w>
oc i
рас сказал</w>
2 8
Господ ь</w>
теле вид
отно ся
ци па
о про
К стати</w>
продол жать</w>
С ек
Am eric
фика ции</w>
стои мости</w>
глаза х</w>
про ходит</w>
ющи йся</w>
ч ём</w>
продук ты</w>
выпол нения</w>
ми сс</w>
из бав
во н</w>
основ ной</w>
ита льян
га л
ана логи
у помина
им пери
строй ки</w>
с ла</w>
луч шие</w>
иска ть</w>
r on
ве дет</w>
Т от</w>
ф ло
т ном</w>
ство вала</w>
ри су
Са й
се ктора</w>
ребен ок</w>
возду ш
рестора н</w>
бу к
з ра
воз ле</w>
друз ья</w>
вело сипе
чув ствовать</w>
по ру
бы стро
пара мет
у н</w>
избе жать</w>
нов ения</w>
па ми</w>
настоя щий</w>
Р обер
си г
расшир ениями</w>
собствен ной</w>
оди нако
от пу
сте п
ри с</w>
р г
Про стите</w>
L e
специали стов</w>
не закон
г г.</w>
страте гии</w>
вер ное</w>
оста ваться</w>
серд ца</w>
от личие</w>
пол ный</w>
па не
зо й</w>
собствен ности</w>
На ций</w>
ден о</w>
сте к
перио да</w>
т рас
l l
регистра ции</w>
ката стро
ля л</w>
ж о
тя м</w>
причи на</w>
пла тье</w>
об о</w>
ре ки</w>
приклад ная</w>
Анг лии</w>
прове л</w>
вещ ь</w>
сло в</w>
ника кого</w>
вани ям</w>
ic al</w>
Лондо не</w>
ти лись</w>
ре ж
обще -то</w>
независи мо</w>
провер ить</w>
материа лы</w>
По з
у потреб
зна ла</w>
ст рии</w>
ма стер
мисси я</w>
поли цию</w>
отнош ению</w>
сло вами</w>
y n
реб ён
хо дом</w>
с пря
по береж
4 7</w>
на вы
Со вет
ез да</w>
позво лить</w>
К ли
пер спек
бе се
сою за</w>
и ско
раз ные</w>
ве се
a in</w>
ц вет</w>
согла шения</w>
следу ющей</w>
Бо ж
режи ме</w>
лу ю</w>
Н АТО</w>
ль ше</w>
ва ясь</w>
b l
По скольку</w>
ли лся</w>
не пре
да вай</w>
а ссоциа
полити ку</w>
комна ты</w>
Израи ля</w>
хо жу</w>
рай она</w>
попа сть</w>
ъ ек
по к</w>
G u
выбо рах</w>
моло де
Ко ре
милли она</w>
ль ти
использу я</w>
М А
выпу ска
компью те
х ле
Дума ешь</w>
or k</w>
лиц ом</w>
в перед</w>
На ш</w>
воен ных</w>
Т ом</w>
ш ением</w>
ста вок</w>
ро вании</w>
мальчи к</w>
ль д</w>
Тво я</w>
u re
о сад
ма лы
ec t</w>
C O
ш ений</w>
ч лен</w>
с фе
необ ы
пере воз
по пыта
ч ё
4 6</w>
помога ет</w>
ут ро</w>
те пло
пар ков
ис ход
yst em</w>
Об ще
Кита е</w>
нали чи
не медленно</w>
ка ким</w>
Е Н
об ез
раз вед
д литель
пись мо</w>
установ ки</w>
а й
Ни ко
домаш них</w>
д ра</w>
устрой ство</w>
большо го</w>
th is</w>
высо кой</w>
М В
о ч
макси ма
мы сли</w>
мо дер
op h
h ave</w>
T -
чи сто
су де</w>
те кти
к т-
вол ну
це лый</w>
ро ванию</w>
ра ции</w>
ра д</w>
ter s</w>
ди к
t on</w>
ig n</w>
каза лось</w>
поль зу
сторо н</w>
по те
оче видно</w>
автомоби лей</w>
а ре
под ход</w>
хо тим</w>
использо ванием</w>
мероприя тий</w>
198 9</w>
использу ют</w>
анали з</w>
необходи мость</w>
0 2</w>
вос питы
П ря
счита ю</w>
in al</w>
на дея
ar d
со сто
r y</w>
основ ные</w>
C ent
телефон у</w>
си гна
сожа лению</w>
соче та
Пред став
Ин ститу
уче том</w>
5 1</w>
тру до
G re
харак тер</w>
о фор
at ed</w>
мог ло</w>
чув ство</w>
графи и</w>
w as</w>
P o
в клад</w>
Е гип
би ологи
останов ить</w>
ва шим</w>
А .</w>
ak e</w>
самостоя тельно</w>
ни ла</w>
бли зо
полити ке</w>
теле фо
связа нные</w>
удовле тво
У о
Мо й</w>
не прият
зо н
б рас
ради о
Гру зии</w>
темпера тура</w>
вла жности</w>
атмо сфер
Од нажды</w>
ходи ла</w>
пон рави
пи ло
случай но</w>
а да
r ic
пла сти
7 2</w>
ж ом</w>
дума ли</w>
вы берите</w>
в ки</w>
5 .
эффектив ности</w>
при ем
Объ единенных</w>
ги я</w>
зи ровать</w>
государ ство</w>
Ж е
раз ве</w>
сч ёт</w>
ле жит</w>
Сан -
Goo gle</w>
вой на</w>
ска жу</w>
с пер
от куда</w>
ль ность</w>
са ми
ви н</w>
ря да</w>
К ей
o l</w>
П ен
работа ла</w>
ва тельно</w>
спа сибо</w>
университ ете</w>
президен том</w>
ig ht
Serv er</w>
щи к</w>
обстоя тель
В ан
следу ющем</w>
бе ра
С ти
п лен
малень кий</w>
ста я</w>
И С</w>
ст ря
ti c</w>
при ка
доб иться</w>
ф ур
пам ят
н ё
В место</w>
п рит
офис е</w>
мину ту</w>
ж ени
Из -за</w>
ч ность</w>
рован ного</w>
h e
й ская</w>
Ш вей
к стати</w>
уг ле
4 9</w>
S e
u di
ф ин
с ведения</w>
за канчи
грани цы</w>
пер спекти
непосред ственно</w>
Р Ф</w>
мину тах</w>
доро гу</w>
начи ная</w>
пла не</w>
раз уме
A R
ти ях</w>
сезо н</w>
бе н</w>
со ли
пен си
но доро
П от
луч шим</w>
от мен
отнош ениях</w>
Т О
СС СР</w>
А т
прош у</w>
C or
про цент
5 2</w>
oun d</w>
oo d</w>
капита ла</w>
фор ма</w>
поряд ка</w>
1 0-
ation s</w>
ни т</w>
кризи с</w>
пре мьер-
ез д</w>
as s
а х</w>
при готов
доста точ
ка меры</w>
Ф БР</w>
тив е</w>
m e
ност ях</w>
л ло
требо вания</w>
у йти</w>
стави ла</w>
сла бы
бизнес -
под ходит</w>
парт не
автомоби ль</w>
На ша</w>
Ш и
клю ч</w>
тер а</w>
о ли
ти вы</w>
ло м
финанси рования</w>
й -
од ер
наде юсь</w>
выпол ня
занима ет</w>
е мое</w>
проек ты</w>
нача льно</w>
разв ле
Y ou</w>
муни ципа
Сою за</w>
объ еди
противо ре
поря док</w>
ни ями</w>
рас ходов</w>
д ной</w>
реа ги
ко -
б ь
До ро
ро сы</w>
смыс л</w>
т ства</w>
режи м</w>
ф т</w>
специаль ные</w>
причи не</w>
в дох
та ре
form ula</w>
говор ится</w>
9 5</w>
студен тов</w>
бо ль</w>
у лы
тер я
u ro
сен тябре</w>
уча ствовать</w>
ру р
кни ге</w>
компа нию</w>
защ ите</w>
при вод
л ер
с вер
ко вой</w>
предела ми</w>
вой ну</w>
ци ф
os t</w>
че тся</w>
А мерикан
совершен ство
уста нови
контрак т</w>
а то
О соб
види м</w>
в ру
це -
М ер
за п
жела ние</w>
молоде жи</w>
Во- первых</w>
l a</w>
e р</w>
у щер
це ре
ф ар
согла со
ро н
У з
за мет
стать е</w>
ль с</w>
ком би
С Н
хо ду</w>
м э
се реб
д вой
т ности</w>
интере сно</w>
Ф рэн
Со единенных</w>
и бо</w>
ра чи
из ве
во му</w>
Л ин
Recor ds</w>
пале стин
ен ный</w>
запро с</w>
при близ
фи кси
ра н</w>
Д ва</w>
по са
обще стве</w>
ме т</w>
про яв
вто рого</w>
i l</w>
род ители</w>
дево чка</w>
щен о</w>
ш кой</w>
цион ная</w>
полож ить</w>
ма р</w>
приня тия</w>
крова ти</w>
ви нов
ми ло
ло ка
Х ан
k z</w>
ци фро
н ь
зо н</w>
ме й
у годно</w>
ма е</w>
ко миссии</w>
in t
йд ёт</w>
О ба
м ных</w>
Помни шь</w>
сою з
лет ний</w>
дека бре</w>
вели коле
дев чон
пла ты</w>
Бр ита
согла шение</w>
во р
ориен ти
Казахста не</w>
нен ави
as e</w>
с можешь</w>
обеспечи вает</w>
кор руп
Х у
рас ы</w>
о па
наход ящи
говори шь</w>
веро -
di a</w>
род ителей</w>
та лан
бы вает</w>
ра к</w>
л .</w>
вет eр</w>
a h
успеш но</w>
необходи мые</w>
М О
Ан дже
т ских</w>
клима та</w>
ви з
зада ч</w>
дь те</w>
Право защит
ре ть</w>
за стре
ж ители</w>
вме ша
мини стер
счита ть</w>
официаль но</w>
в ёл</w>
S c
мар ке
Герма ния</w>
T im
п то
Ин форма
поддержи вать</w>
эффек т</w>
ию не</w>
Де ло</w>
о собы
из раи
Со единен
т ность</w>
раз ум
раз деле</w>
Ж а
ди льник</w>
ч кой</w>
отве ча
А ли
оказа лся</w>
диа па
американ ский</w>
с ло</w>
ни кого</w>
созда нии</w>
ну ться</w>
зер ка
0 9</w>
Е Л
g irl
дав ление</w>
ча ется</w>
неф те
ви ды</w>
чу де
д ный</w>
ры в</w>
раз реш
И м
ба ре</w>
аэропор та</w>
Госпо да</w>
опера ций</w>
коне чном</w>
К ру
при нес
исключ ительно</w>
В ос
an c
а гре
за чем</w>
энер го
па х</w>
Израи ль</w>
ВВ П</w>
середи не</w>
пере мен
в виду</w>
безопас ность</w>
диа ло
д же</w>
важ ным</w>
вы та
бо вать</w>
б лу
Май к
пла н
ет у</w>
0 5</w>
2 6
pe g</w>
ar t</w>
з ин
ве ке</w>
s o</w>
ход и</w>
та н</w>
при были</w>
сред нем</w>
ль я
А Р
шта те</w>
им пор
тех ники</w>
обсу жда
защит у</w>
Д ер
сезо на</w>
финансо вого</w>
ou g
пробле му</w>
по тра
любо е</w>
чита л</w>
ва емых</w>
секун д</w>
In t
публи ка
степ ень</w>
про куро
пос т</w>
появи лся</w>
получа ет</w>
l l</w>
продолжа ет</w>
зна ния</w>
Ч ет
че ре
ку ри
0 4</w>
не шь</w>
начина ет</w>
жа ется</w>
И .</w>
Е в
olog y</w>
работ ников</w>
ок тябре</w>
модер ни
кварти ре</w>
Р ы
1 0,
парла мен
кори до
t e</w>
по каж
Кин ша
оборо ны</w>
ре зо
М аль
Коро лев
н ным</w>
ле тов</w>
зада чи</w>
израи ль
болез ни</w>
б ин
ори гина
ви дит</w>
E l
хи рур
сове ща
ру к</w>
пу га
во дой</w>
На ши</w>
мони то
ow n</w>
Г ло
20 -
ф у</w>
пар ни</w>
2 9
2 7
социаль ных</w>
ресур сы</w>
п ин
гла ва</w>
оче вид
Пари же</w>
хоте лось</w>
буду щего</w>
фор миро
большин стве</w>
Тур ции</w>
тво е</w>
и ст
Э р
ня ка</w>
из обре
Казахстан ской</w>
преду смотрен
ну лся</w>
R o
состави ли</w>
er n
H ist
послед ствия</w>
п -
лицен зи
ку ра
обла да
ша х
пре вос
отрас ли</w>
мар те</w>
жа ют</w>
ги м</w>
Скаж и</w>
янва ре</w>
ле та
девуш ку</w>
бер и</w>
принадле жит</w>
поддержи вает</w>
Европей ского</w>
кни га</w>
заме чатель
5 6</w>
П О
голо с</w>
акти ви
молоды х</w>
А ген
г л</w>
со против
ра ми
Кинша се</w>
фон довой</w>
супру же
тре тий</w>
согла с
поддерж ке</w>
бли же</w>
it y
ка я
составля л</w>
ско в
сна б
не дав
принима ет</w>
p r
ле с</w>
в ве
на счет</w>
с форми
ко вод
ща ют</w>
обуч ение</w>
христи ан
писа ть</w>
о по
Вы со
отсут ствие</w>
иты х</w>
со ра</w>
в ло
ри ск</w>
ка п
сти ле</w>
обслужи вания</w>
ли зо
до ктора</w>
ен ных</w>
американ ских</w>
Ш ве
жен ные</w>
полож ении</w>
бе ло
вши хся</w>
Мол до
до став
состоя нию</w>
ну сь</w>
кла ви
По лу
пре пара
го дами</w>
ис пан
т ными</w>
желез нодоро
дума ет</w>
адре су</w>
an g</w>
поли ция</w>
пи ско
ва тель</w>
Те бя</w>
Вес на</w>
да вайте</w>
со общества</w>
секто ре</w>
жде н</w>
анали за</w>
последо ватель
T E
па ра</w>
отде льных</w>
сло жно</w>
ле вой</w>
заме ча
причи ной</w>
ew s</w>
т с</w>
ре ц
ф она</w>
неф ть</w>
ра ка</w>
нау к</w>
ба ми</w>
ча сы</w>
о пу
за держа
ab le</w>
му зе
ер у
об мен</w>
не сет</w>
а фро
5 8</w>
ти ки</w>
ази а
н ера</w>
ос ла
встре чу</w>
О фи
ква дра
мо лит
то вой</w>
оста льных</w>
is s
беспла тно</w>
американ ской</w>
де ше
по степен
те л</w>
по ставить</w>
много чис
домаш него</w>
Ру с
не что</w>
вариан т</w>
жи ве
н ное</w>
вер ь</w>
жиз нью</w>
мероприя тия</w>
На верное</w>
5 7</w>
э р
э по
Мо жешь</w>
ноя бре</w>
ли п
n e
ка д
в шая</w>
У ве
201 7</w>
рас поря
од ному</w>
исследо ватель
в ные</w>
5 4</w>
чи лась</w>
И Т
ir e</w>
мо ду
го нь</w>
O S</w>
й ди</w>
ды ха
Ви дишь</w>
потре бу
м ки</w>
f e
л ениях</w>
фун да
ход ите</w>
счита ется</w>
при кры
начина ется</w>
мо но
заинтересо ваны</w>
Оте ц</w>
О бы
ска жи</w>
моз га</w>
И сла
о щ
Да вайте</w>
цен ных</w>
5 3</w>
перегово ров</w>
вы шла</w>
Уз бе
обла сть</w>
н г</w>
ж ка</w>
Швей ца
D -
За в
вле ка
по вед
Р од
ст я
ма т</w>
ба ш
0 6</w>
а но
Т ри
ско хозяй
раз мере</w>
ч ений</w>
край не</w>
до браться</w>
ба я</w>
По ли
успе ха</w>
Испа нии</w>
домохозяй ства</w>
реши ла</w>
в ита
большин ства</w>
O r
0 .
одо ле
зна чи
в ных</w>
t y</w>
использо вании</w>
стре ми
работа ли</w>
националь ного</w>
извест ный</w>
л ла
ко смо
защит ить</w>
И г
Си сте
ча й</w>
сче та</w>
к г</w>
u r</w>
а раб
соб люд
попа л</w>
э п
причи н</w>
дела ли</w>
Президен та</w>
из готов
ющи мся</w>
суще ствуют</w>
обо их</w>
тео рии</w>
называ ют</w>
вс ю
Благодар я</w>
Все го</w>
разработ ке</w>
p le</w>
фай лы</w>
регули рования</w>
пси хи
ди е</w>
до кто
сооб щает</w>
p o
уби ли</w>
учиты вая</w>
0 7</w>
р ь</w>
Теле фон</w>
Л ос
Интер не
поверх ности</w>
Про сти</w>
9 9</w>
0 8</w>
по шел</w>
за каза
солн це</w>
при йти</w>
го ры</w>
стату с</w>
неф тя
интер фей
N E
жерт вы</w>
ri d
Y ork</w>
не га
ма й
апре ле</w>
мы ми</w>
след ить</w>
дей ствует</w>
ради о</w>
ли ш
G e
чувству ю</w>
рова я</w>
долж ность</w>
т. д.</w>
ти нен
ва телей</w>
ц вет
тери сти
повы шение</w>
пар ти
зна мен
за служи
пой ду</w>
в скоре</w>
хоро шие</w>
раз решения</w>
ф ру
произ во
демокра тии</w>
сер ва
ле те</w>
бра та</w>
in t</w>
fil es</w>
при водит</w>
пози цию</w>
Д ень</w>
нес част
ба к
зна к</w>
глав ное</w>
всю ду</w>
сотруд ни
пла ны</w>
остро ве</w>
в клю
поз дно</w>
кар ту</w>
бер на
сти мули
собира ется</w>
ба х</w>
Зем ли</w>
получа ть</w>
полити ческие</w>
д -
ба га
Л ат
re e</w>
К .</w>
am b
ча ще</w>
фа бри
связа ны</w>
горо дах</w>
нача ль
узна л</w>
Д НК</w>
пи сь</w>
ги ми</w>
чен ных</w>
с ный</w>
действ ительности</w>
R es
от казыва
ка кое
за брать</w>
особен ности</w>
O p
Пу сть</w>
по ра</w>
мо стью</w>
смотр ите</w>
па п
ис полнитель
Д ен
воен ной</w>
заво е
Co de</w>
о чист
за ставить</w>
увелич ение</w>
Ф ер
y our</w>
ч ину</w>
заяв ление</w>
F l
высо кий</w>
по дар
за ли
в верх</w>
ни ей</w>
жи й</w>
у т</w>
сер тифика
ён ных</w>
ули цы</w>
актив но</w>
18 7
уверен а</w>
ви я</w>
функ циони
ре т</w>
режи ма</w>
ме три
ма не</w>
В иде
я н</w>
съ е
Хри ста</w>
З ак
K Z
те му</w>
Р О
цере мо
перегово ры</w>
да ния</w>
дире ктора</w>
Э С</w>
Ма ри
ин де
ста лки
говор ите</w>
го н</w>
к нуть</w>
ti ons</w>
кампа нии</w>
Сред и</w>
Австра лии</w>
0 300</w>
ш ой</w>
С о</w>
сту ди
осад ков</w>
те ле</w>
ap h
о ка
- таки</w>
россий ских</w>
Intern ational</w>
an s</w>
итель ная</w>
срав ни
но вом</w>
коро лев
осно вании</w>
ми нима
смотре л</w>
заме тил</w>
се стра</w>
осуществ ления</w>
зе ме
вед ений</w>
ко вых</w>
Груп па</w>
то сти</w>
достиг ну
бюдж ет
О б</w>
Лос -
много е</w>
университ ет</w>
дру гу</w>
следу ющее</w>
пла на</w>
зда нии</w>
с ных</w>
писто лет</w>
оста нется</w>
лен ным</w>
пред почита
матери аль
u p</w>
внутрен них</w>
u st
четыре х</w>
фи на
т ится</w>
ми ся</w>
мет ро</w>
Бли ж
ите р</w>
чи сты
прекрас но</w>
фон да</w>
ou p</w>
B oo
сель скохозяй
В первые</w>
кри мина
ду ши</w>
Про ек
ю ся</w>
кон ститу
ка фе</w>
дости чь</w>
A T
т .</w>
при ходит</w>
по что
то не</w>
соответ ственно</w>
деся ти</w>
связа но</w>
приро ды</w>
о сторо
воз глав
it t
пользова теля</w>
де лега
се р</w>
преду сматри
пар ке</w>
спа са
ка н</w>
от чет</w>
дево чки</w>
охра ны</w>
офор м
ма гни
ка ких</w>
Узбе киста
18 6
п р
ру я</w>
имен о
щен ный</w>
остро в</w>
сво ём</w>
at t
относ ится</w>
нов ение</w>
бю ро</w>
бо ра</w>
музы ки</w>
имен ем</w>
вы ход</w>
опы та</w>
де парта
го ри
воз гла
жа ли</w>
ou s</w>
m in
написа но</w>
использу ются</w>
У э
жа я</w>
друго му</w>
с хва
лож ить</w>
со вет</w>
стол кну
монито рин
1 50</w>
опти ми
f t</w>
ж ном</w>
ц у
ф и</w>
стен ы</w>
ию ле</w>
d e
ь ера</w>
бе лые</w>
миллиар дов</w>
гото ва</w>
фир мы</w>
пи ро
интере сы</w>
y m
каж дую</w>
зада ча</w>
ж ным</w>
авгу сте</w>
мину ты</w>
одеж ды</w>
боль ницу</w>
бан ков</w>
жи е</w>
до мов</w>
но си
великоле п
пар ней</w>
лё г
пере во
Бан ка</w>
пыта юсь</w>
gi f</w>
террито ри
ста и
предо ставить</w>
кон цу</w>
кварти ру</w>
Б ю
в ного</w>
Правозащит ный</w>
повто ря
на ции</w>
Иису са</w>
ol l
id e
Э й</w>
Со вет</w>
ко на</w>
en s
ошиб ки</w>
дру гая</w>
вс кая</w>
ли не</w>
тель ного</w>
орга ны</w>
вы зывает</w>
фи и</w>
ла н</w>
т ской</w>
ника кой</w>
ле са</w>
жа ла</w>
Г он
убий ца</w>
про сь
мо му</w>
Г ран
к ен
тен си
сотрудниче стве</w>
шин ство</w>
i al</w>
чув ства</w>
приобре т
й ный</w>
з мом</w>
горо дов</w>
Брази лии</w>
Com m
. ru</w>
источ ников</w>
и ди
еже год
Гла ва</w>
an a</w>
фи ли
ос на
k as
тре во
то ли
револю ции</w>
Зо ло
реж ис
ши т</w>
ше б
an y</w>
е ти
Сан кт-
л ится</w>
груп пой</w>
выбо ра</w>
во сть</w>
про ведение</w>
com m
тель ным</w>
о писы
созда вать</w>
с ные</w>
5 9</w>
Л и</w>
служ ить</w>
По мимо</w>
факти чески</w>
нов а</w>
послед ней</w>
но с</w>
И ме
i p</w>
ф ра
ма то
выпу щен</w>
комп ен
да н</w>
Прав да</w>
завтра к</w>
поддерж ка</w>
у голов
пример у</w>
по кло
распростра нен
верну лась</w>
Афри ке</w>
маши н</w>
купи л</w>
чен ные</w>
сов ме
де лом</w>
оказа ться</w>
до стой
харак теристи
близ ко</w>
Ин те
от лично</w>
одеж ду</w>
Да й</w>
хозяй ств</w>
пам ять</w>
сот ни</w>
Джор дж</w>
кро вать</w>
бир жи</w>
т ща
комфор тно</w>
е писко
ве с</w>
уда р</w>
за рубе
воло с</w>
бере мен
Кон ститу
и на</w>
В ин
вы ходит</w>
д ка</w>
в ёр
чер той</w>
и дут</w>
челове ку</w>
б ка</w>
те мно
появи лась</w>
лич ные</w>
ши р
пунк т</w>
пре зен
вед ите</w>
те лю</w>
к ем
выбо ры</w>
спосо бом</w>
обла стях</w>
ро т</w>
на ка
ци ви
плане ты</w>
ло н</w>
использо вал</w>
за пол
ле су</w>
Фран ция</w>
ст ям</w>
муж а</w>
вз ор
моло же</w>
S k
тво им</w>
ал кого
о собо
мо ё</w>
голо вы</w>
га з</w>
n ot</w>
служ ба</w>
en c
дру же
л га
информа цией</w>
восполь зоваться</w>
Фин лян
каза х
управ лять</w>
куро р
По нима
ши на</w>
вы хода</w>
об е</w>
л э
ж дет</w>
вы игра
жи ву
.... ....
наси лия</w>
до ходов</w>
дела ешь</w>
жен ный</w>
следу ющего</w>
коман де</w>
право защит
настоя щего</w>
ли бера
о хот
мл р
Сол н
эле ментов</w>
i on
э пи
ли т</w>
и ла</w>
Дей ств
специаль но</w>
до му</w>
высо кого</w>
ст ить</w>
представ ление</w>
ми т</w>
а м
А д
широ ко</w>
ша ют</w>
интеллек туаль
г ну
та ун
масшта б
СП И
as h
за пис
вани ях</w>
М И
клу ба</w>
во -
станов ятся</w>
ли ю</w>
ке рами
ро н</w>
обществен ного</w>
скоро сть</w>
ля ли</w>
К ы
не ожи
Г де</w>
ни цей</w>
вши йся</w>
вы жи
цен три
законо да
дру ж
са д</w>
инстру ментов</w>
дополнитель ные</w>
т ка
об лег
ду мы
J oh
разнообраз и
бу х
7 .
про с
насла жда
ве ц</w>
благо прият
Ген ри</w>
зо ну</w>
бр ь</w>
En g
па па</w>
un d
развива ющихся</w>
образо ватель
ща яся</w>
Цер кви</w>
комму ни
Т ран
руковод ством</w>
опреде ления</w>
за ла</w>
ба ты
ti ve</w>
M o
систе мой</w>
да ст</w>
198 8</w>
бюдж ета</w>
ру ба
авто р
У слуги</w>
яз ви
свобо ду</w>
d uc
развити и</w>
на сле
метра х</w>
ч ок</w>
говори м</w>
че л</w>
Пере д</w>
про доволь
пред поч
важ ных</w>
ou se</w>
магази не</w>
о хо
кур се</w>
ва не</w>
1 1
европей ских</w>
посте ли</w>
вер ить</w>
в ный</w>
стаби льности</w>
послед него</w>
клю чи</w>
из у
во семь</w>
ве й</w>
Что -то</w>
ров ка</w>
ин фек
мигра н
ль ному</w>
раз ъ
нару жи</w>
се ление</w>
предло жил</w>
ви но
удовле твор
объ яснить</w>
Националь ного</w>
К А
Воз ь
кон тинен
ис к
те ми</w>
супруже ские</w>
пусти л</w>
C A
раз би
рабо той</w>
интере сов</w>
во к
er n</w>
об работки</w>
лож ения</w>
д нем</w>
Международ ный</w>
Ди ре
сня ть</w>
с хе
ра но</w>
моло деж
ин струк
ин дей
гу мани
В А
S u
па дает</w>
BB Code</w>
щен ных</w>
ар мян
оказа лись</w>
Хо чу</w>
экономи ке</w>
мо н</w>
ля ция</w>
за гряз
O ff
февра ле</w>
в ь</w>
ле д
ч ением</w>
по является</w>
пор та
ле ц</w>
ity .com</w>
фан та
ф аль
умер ла</w>
раз рабаты
про бу
жи д
об мена</w>
та мож
ш око
кор пу
точ ку</w>
род ствен
коро ля</w>
en ti
at a</w>
филь ме</w>
т т</w>
лаборато рии</w>
благо сло
ov e</w>
ро з
пере ди</w>
Санкт- Петербур
успе х</w>
ма ло
худо же
ста ди
н рави
y s
ан ге
ен ные</w>
гово р</w>
автомати чески</w>
По й
прав ления</w>
нако п
мето ды</w>
выход ные</w>
не которое</w>
Действ ительно</w>
b er</w>
созда л</w>
предела х</w>
нали чие</w>
м ное</w>
Ва ши</w>
ил лю
зна ний</w>
Но вый</w>
транспор та</w>
веду щих</w>
пес ню</w>
встре титься</w>
ВИ Ч</w>
а парта
en n
рай он</w>
мо ти
д ных</w>
Про бле
офи це
p ar
ac h</w>
мене дж
вер ы</w>
в .</w>
предлож ить</w>
конфлик та</w>
При н
потеря л</w>
извест ных</w>
из ви
gam esc
1 000</w>
ужи н</w>
е ц</w>
girl gamesc
girlgamesc ity.com</w>
серьез но</w>
раз личи
Шта тов</w>
музы ку</w>
дво р
га ра
н ений</w>
дипло мати
Ру ковод
слуша ть</w>
подчер кнул</w>
ли ще</w>
8 .
цен а</w>
тор гово
Н и</w>
финансо вые</w>
произ ве
кто -нибудь</w>
млр д.</w>
ко ло</w>
Па киста
an k</w>
составля ли</w>
вани ями</w>
увелич ить</w>
тар ь</w>
по е
л ита
руковод ство</w>
о зер
обра з</w>
ба бу
дума ют</w>
В з
а т</w>
al ly</w>
хва тает</w>
про зра
не далеко</w>
про с</w>
глав ной</w>
вы чис
важ ды</w>
Нью-Йор к</w>
у тра
ми ром</w>
B ro
о гонь</w>
прош ли</w>
прода ж</w>
за ку
встре че</w>
ста н</w>
предоставля ет</w>
кур са</w>
представля ют</w>
клиен та</w>
экономи ческий</w>
лиде ров</w>
ву шек</w>
суб ъек
си лой</w>
мини мум</w>
м ные</w>
Д ар
ay s</w>
смо три</w>
провер ки</w>
де тям</w>
занима ется</w>
ви це-
ж де</w>
il e</w>
юще му</w>
ше сти</w>
сред него</w>
мест ности</w>
лю сь</w>
источ ник</w>
ана лити
ша ется</w>
го ре
Ч у
T V</w>
поис к</w>
удо сто
Чи ка
м г
шо к</w>
соответству ющих</w>
женщ ину</w>
198 7</w>
рас че
жд ению</w>
воз обнов
ши ли</w>
любы е</w>
Слу ша
Глав ная</w>
изобра жения</w>
измен ение</w>
бы вший</w>
тр ите</w>
вне зап
че м-то</w>
возра ста</w>
О че
al e</w>
об ходи
мисси с</w>
ци и
M A
п и</w>
обо сно
клас се</w>
С ар
ре цеп
приве ло</w>
ин тенси
дела ю</w>
вер е</w>
бума г</w>
В .</w>
таун ши
зо вут</w>
бро сить</w>
бро сил</w>
СН Г</w>
единствен ным</w>
топли ва</w>
Т ру
коро ле
гла ве</w>
Белару сь</w>
друз ьями</w>
Та кие</w>
отде ла</w>
Уч иты
ic h
8 5</w>
солда т</w>
са нк
бе ско
жер тво
бе жен
В у
шен ы</w>
подвер га
пес ня</w>
во вле
проек ти
К ур
Ва ше</w>
l and</w>
эле менты</w>
за явля
пак ет</w>
бере гу</w>
компьютер а</w>
дела м</w>
у то
лож ение</w>
кни г</w>
де бю
серь ёз
получа ют</w>
десяти ле
ве сти
обще е</w>
газ еты</w>
жа ться</w>
боль шее</w>
ком у
Мо я</w>
взя ли</w>
восстанов ления</w>
ви ли</w>
Пер вая</w>
низ у</w>
пи ще
от цом</w>
Пря мо</w>
l ine</w>
сы па
ред ко</w>
ни н</w>
лы ми</w>
В ар
полови ну</w>
директо ров</w>
ин форми
И Н
ou ld</w>
n ow</w>
спе ци
По -
су ти</w>
ск воз
обвин ения</w>
ul t
Вре мя</w>
Боль шинство</w>
ту га
мо гу
О коло</w>
писа л</w>
корен ных</w>
ка кая</w>
пи и</w>
прилож ения</w>
ком итета</w>
интерне т-
Про дук
жа ль</w>
бес плат
единствен ное</w>
y s</w>
поис ка</w>
C D</w>
ступи ла</w>
у важ
A ir
д ве
W il
Е щё</w>
ком мента
ш лю
администра ции</w>
сер де
па м</w>
ви р
198 6</w>
об щи
марке тин
эффектив ность</w>
рован ная</w>
с ко</w>
сре де</w>
се те
л ите</w>
обви ня
С Е</w>
э н</w>
вне д
спо мина
пар нем</w>
Учиты вая</w>
A w
ограни чи
Бр ю
9 7
8 6</w>
Ми ха
бан ки</w>
доку мент</w>
вы яв
вто ром</w>
a th
R A
подоб ных</w>
ин вали
А на
на бор</w>
мене дже
глубо ко</w>
Кон гре
официаль ный</w>
or s</w>
er -
пой ма
оста лся</w>
дро б
вечер а</w>
но мере</w>
й ским</w>
бе лый</w>
каки х
S Q
ш но</w>
провер я
у на</w>
раз бира
объ яс
об станов
б рен
жден ы</w>
миро вого</w>
W e
до ми
g u
Г ей
.j peg</w>
нен но</w>
на всегда</w>
кух не</w>
Челове к</w>
Министер ства</w>
рг ы
облига ций</w>
вид ят</w>
Т ри</w>
Пред седа
у те
мест ные</w>
помни шь</w>
пе тен
ста м</w>
не бе
на пит
и сти
жи га
двига ться</w>
выпу ска</w>
G en
ро бо
при чины</w>
собствен ные</w>
приня то</w>
Лос- Андже
рав ен
ста рый</w>
п лит
вопро су</w>
созда нию</w>
инвести ции</w>
Го сти
щ ений</w>
д ные</w>
ш пи
и гру
моро жен
ме сто
раз мера</w>
в ит
ба зо
с ё
Па па</w>
Вер хов
у зе
жерт в</w>
хо чется</w>
ф ом</w>
де текти
u x</w>
встре ча</w>
Д жен
яв но</w>
ag es</w>
прид ётся</w>
му жи
да вать</w>
em ent</w>
тради цион
р ю
хва тит</w>
S m
у язви
с се
с м</w>
хоро шее</w>
уча сток</w>
пла ту</w>
к ци
н ского</w>
Изви ните</w>
контек сте</w>
Е й</w>
музы кан
oo l</w>
функ циональ
ду шу</w>
С пи
F i</w>
моз г</w>
показа л</w>
Р ан
Пра ви
по жела
м ми</w>
ка л</w>
пре одоле
настоя щему</w>
стан ция</w>
ди цио
n er</w>
туа лет</w>
зо на</w>
скоро сти</w>
добав ить</w>
приблиз ительно</w>
тюрь му</w>
гу берна
т ство</w>
ме ло
пар тия</w>
му т</w>
Ч ёр
реги онах</w>
US D</w>
би т</w>
таунши па</w>
за писы
вы рази
не достаточно</w>
I X</w>
ста нови
ван ного</w>
I m
послед ствии</w>
198 0</w>
раз обра
сла бо
процес сов</w>
чув ствовал</w>
позволя ют</w>
наход иться</w>
н ную</w>
инфра структуры</w>
Ко лу
по ощ
по зади</w>
on g
стро м</w>
сле жи
клас с</w>
от а</w>
Дру гие</w>
провин ции</w>
па ри
ны не</w>
возь ми</w>
вер ю</w>
важ ное</w>
участ ники</w>
со еди
си дел</w>
измен я
дочер и</w>
де пута
- 1</w>
Особ енно</w>
ргы з
люби л</w>
щи ка</w>
благо да
6 00</w>
. org</w>
же л
ва ющий</w>
сегодняш ний</w>
с кри
подро ст
сре ду</w>
сказа но</w>
у спо
б ку</w>
E uro
обла дает</w>
С ка
про явля
ги ган
Т ем
Бе з</w>
понима ете</w>
оконча ния</w>
м бле
про стой</w>
нача лось</w>
ста ри
мона сты
выстав ки</w>
Не обходи
о х
D is
сою з</w>
ri p
у страи
ли е</w>
об уча
м ный</w>
поко ления</w>
наро дов</w>
ми стера</w>
бо я
ц ы
198 5</w>
да йте</w>
ol d</w>
про ник
не в
кварти ры</w>
P ol
по стра
каждо е</w>
си с</w>
распростран ения</w>
об ита
ня л</w>
де вушек</w>
ко жи</w>
представ итель
пациен тов</w>
С т
В месте</w>
програм ми
Конвен ции</w>
E S
экономи ческие</w>
контро лем</w>
гумани тар
воро та</w>
воз ро
влия ния</w>
l oo
об мен
ча т</w>
ли зи
ка меру</w>
имен а</w>
пиш ет</w>
во спомина
ста нут</w>
На селение</w>
St udi
сла б
догово ра</w>
Мо ж
тек ст</w>
рас па
ком петен
по дав
до вать</w>
собствен ных</w>
потря са
ду х</w>
юще гося</w>
сто ла</w>
от туда</w>
энерги ю</w>
представ лены</w>
к ер
it ed</w>
соответ ствует</w>
ня т</w>
аэропор т</w>
науч ных</w>
раст ет</w>
пона доб
ки н</w>
ут ен
смо гла</w>
лен ную</w>
л с</w>
ю го-
ност и
ка ет</w>
производ ителей</w>
ai r</w>
слыша ли</w>
прош ла</w>
полити ческого</w>
норма льно</w>
техниче ской</w>
о ча
собствен ный</w>
но ри
лу й</w>
ду ш</w>
мен и</w>
Те ха
контроли ровать</w>
использо вали</w>
дол ю</w>
э волю
спор т</w>
До полнитель
p d
противо полож
пере дать</w>
д рав
буду чи</w>
уверен ы</w>
спис ка</w>
ска н
появи лись</w>
поня тно</w>
призна ть</w>
по вез
Ка пита
a i</w>
услу гам</w>
Т е</w>
о го</w>
слу жил</w>
усили й</w>
Те х
ни ям</w>
г нуть</w>
Бож ь
Пре жде</w>
тре х
вне др
чи нов
об ма
ре кор
рас считы
B i
197 3</w>
процеду ры</w>
t w
e. kz</w>
цен ности</w>
ва шему</w>
сторо на</w>
у ти
мето д</w>
крас ный</w>
догово р</w>
Алексан др</w>
само лет</w>
пу ль
но сят</w>
а не</w>
T e
су мас
стра нам</w>
са ли
к ет
Т ро
2 4
мест ить</w>
Во л
Б рай
ни ках</w>
эта же</w>
современ ной</w>
дол ь</w>
вто рых</w>
брас ы
6 6</w>
про демонстри
потер и</w>
высо ким</w>
под чин
пар ка</w>
жен ой</w>
игро ков</w>
kas e.kz</w>
Вен е
ри кан
бу ква
Нор ве
Ц Р
ai l</w>
со циали
иг нори
е к</w>
до ля</w>
осуществ ля
ко вые</w>
стра ницы</w>
сса мбле
соб лю
лич ности</w>
выз вать</w>
ле ген
ва ющей</w>
Цен тр</w>
Не льзя</w>
Афри ки</w>
оста навли
О бе
www. kase.kz</w>
у точ
потенциа л</w>
мета л
дис ку
вы пи
ар ти
Де вуш
сер вера</w>
ро ско
щи хся</w>
член ами</w>
сро ка</w>
прибы ль</w>
част ей</w>
при ся
назна чения</w>
на оборот</w>
жа р
верх у</w>
т. е.</w>
социаль ного</w>
современ ных</w>
Меж ду</w>
с наружи</w>
Н Ы
2 3,
ти фици
принадле жности</w>
парт неров</w>
Свя того</w>
1 1,
по ведение</w>
Луч ше</w>
со пер
экспер тов</w>
Шта ты</w>
показыва ют</w>
на циона
кварти ра</w>
га ле
w e</w>
сдела ет</w>
ре ц</w>
прове ден
ля ю</w>
F ran
ход ь
рабо чей</w>
1 2,
I V</w>
ша л</w>
ме сторо
ti on
ic h</w>
ти ва</w>
л кой</w>
S up
созда н</w>
се ло
Во обще-то</w>
про цве
муз ей</w>
лич ных</w>
9 2</w>
че го
т ите</w>
во йти</w>
an ge</w>
тр ёх</w>
сто н</w>
обществен ных</w>
а стро
пла тить</w>
кар тин
m ar
ь ев</w>
раз решение</w>
с выше</w>
ap p
уров нем</w>
по гло
интере сах</w>
заме д
ры но
на шими</w>
журна ла</w>
внеш ней</w>
подоб ные</w>
за су
за вод</w>
вез ти</w>
w ill</w>
ti t
ic s</w>
скор б
но мина
яй ца</w>
республи ки</w>
ност ям</w>
на след
а вари
Л ей
g .
рай онах</w>
в ской</w>
Азербайджа на</w>
тво ем</w>
расши рения</w>
Р Е
психо логи
про д
благо твор
бе к
вы раз
C r
номе ров</w>
англи йском</w>
сиг нал</w>
поль зоваться</w>
ре формы</w>
ad e</w>
попро сил</w>
по хи
л ера</w>
ж ку</w>
би ли</w>
сквоз ь</w>
оста лись</w>
им пера
in d</w>
полага ю</w>
не сен
за ми</w>
Ира н</w>
И К
Евро па</w>
хо ждение</w>
суб бо
позд нее</w>
пе чен
интегра ции</w>
вы играл</w>
Ира ке</w>
работа ю</w>
i m</w>
ech n
по шли</w>
ито гам</w>
Э кономи
9 6</w>
спро сить</w>
про шед
участи ем</w>
оказа лось</w>
боро ться</w>
Кон ферен
А каде
ре пута
помни те</w>
Росси ей</w>
m on
откры тия</w>
дополнитель ных</w>
представ ления</w>
ду ра
Ре б
Л ени
сти ра
от ча
обязатель ств</w>
Gr oup</w>
практи ке</w>
Го л
та на</w>
став ка</w>
Бы л</w>
is e</w>
пере ве
Л ит
or ig
про шел</w>
стран но</w>
ка ждая</w>
По д</w>
угро зу</w>
рит ери
ограни чения</w>
выпол нять</w>
198 4</w>
тер мина
8 00</w>
ли ст
На ча
ми ль</w>
вре мен</w>
ы м</w>
с ная</w>
мет р</w>
международ ные</w>
Х ор
u al</w>
E m
не бе</w>
К ни
пред ъ
ти но
из де
капита ли
6 3</w>
жда л</w>
при дет</w>
по ги
ду ше
ча ют</w>
увелич ения</w>
ребён ка</w>
поль зо
нен ы</w>
lo c
ь ет
оста ются</w>
it s</w>
позна коми
жа н
ги дро
По зво
ic k
собствен ного</w>
r ing
за был</w>
9 .
то рии</w>
при ятно</w>
воен ные</w>
мо то
То ма
воро т</w>
науч но-
ш ля
ту ра
5 0
ради ка
вос пита
Не сколько</w>
за стря
Мо ло
Ко то
фон д</w>
се веро-
по ст
п o
Ира на</w>
A t
постро ить</w>
сто ле</w>
6 7</w>
став ку</w>
ман ти
това ры</w>
ствен ную</w>
фо ку
сле ды</w>
ня ться</w>
за га
д важды</w>
мест ного</w>
вол шеб
SQ L</w>
ш ут
то вых</w>
про кля
мальчи ка</w>
N e
вя з
пись мен
стоя л</w>
не избе
Б ри
э ль</w>
Бо гу</w>
Б ор
DV D</w>
у молча
по ставля
ти лась</w>
посмо тре
от кло
з ить</w>
акти вов</w>
у держи
мыс ль</w>
а ку
На чи
og r
сни жение</w>
со вой</w>
бра ть
L L</w>
тя ну
постепен но</w>
простран ство</w>
пад ение</w>
казах стан
вос принима
уч ё
здоро во</w>
допол нение</w>
s ystem</w>
p a
С О
it ters</w>
en d</w>
d en</w>
по думала</w>
во обра
ст но</w>
осуществ ляется</w>
наблюд ения</w>
выро с</w>
у во
ро к-
поез д</w>
откры л</w>
Республи ке</w>
ск ло
беско не
ли ла</w>
близо сти</w>
пробле мой</w>
при ехал</w>
ид ёт</w>
част ных</w>
сообщи ли</w>
малень кая</w>
ве дом
Чика го</w>
хоро шая</w>
су щ
силь нее</w>
на против</w>
важ ней
ба зу</w>
B ar
глав ного</w>
так си</w>
писа ние</w>
куль те
в доль</w>
r a</w>
2 50</w>
по шла</w>
ме стом</w>
долж ности</w>
беспо кой
у бор
приор ит
- d
стра нице</w>
официаль ном</w>
М .</w>
простран ства</w>
демон стра
учре ждений</w>
ка ра
голо сов</w>
ци пли
об щий</w>
за пас
8 0
вы р
ж ную</w>
тан це
объ ясни
лег че</w>
бо ли</w>
Ла й
комплек с</w>
is t</w>
с ного</w>
от ъ
с кла
С каза
6 1</w>
шко ла</w>
к са
щ ением</w>
т ли
пло ть</w>
b ut</w>
улуч шения</w>
поз ити
поезд ки</w>
нача лась</w>
p g</w>
S -
совме сти
пра ши
обяза тельства</w>
высо кие</w>
дожд ь</w>
Би бли
H ar
о свобод
аф рикан
qu e</w>
нало гов</w>
ь ер</w>
ос мо
образ у
л ле</w>
структу ру</w>
приве дет</w>
кар то
з в
С те
фай ла</w>
соответству ющие</w>
объек т</w>
еру сали
досто ин
R O
Americ an</w>
материа л</w>
камен ь</w>
em itters</w>
тив ное</w>
те сти
мо ги
У да
созда ет</w>
особ о</w>
законода тельства</w>
sc re
Ни чего</w>
E N
теле фона</w>
осно вания</w>
Ха у
ви га
B ul
ни как</w>
ак цио
Кы ргыз
ста дии</w>
пере чис
Дж ер
звез ды</w>
вопро са</w>
появ ится</w>
бе га
2 5,
прове ли</w>
наз вал</w>
P ub
умолча нию</w>
убий стве</w>
най дете</w>
про дви
независи мости</w>
дь я
вы ле
Т О</w>
198 2</w>
председа тель</w>
опы том</w>
три бу
оте че
на считы
си дит</w>
руковод ства</w>
ре м</w>
про дю
американ ского</w>
А Н
потре бо
пись ма</w>
глаза ми</w>
пя ти
не су
комплек са</w>
стоя т</w>
ка кая
ви т</w>
э фи
мор ской</w>
ле чение</w>
ка кое</w>
голо вой</w>
Правитель ство</w>
6 2</w>
автобу с</w>
игра ют</w>
ре форм</w>
взаимо действия</w>
С им
а ла</w>
В ну
is h</w>
лидер ы</w>
ба й
Б ру
en s</w>
гра н
Фи лип
обе д</w>
Ю НЕ
ti v
цион ную</w>
не большие</w>
ядер ного</w>
разо ча
приня ла</w>
до мом</w>
г ей
Хри сто
утвержда ет</w>
сти му
правитель ством</w>
навер няка</w>
вы игры
шен а</w>
ч иться</w>
полу чит</w>
требо ваниям</w>
и ди</w>
дево чек</w>
T ran
посе тить</w>
сло ма
плани руется</w>
оке ан
эта пе</w>
L ond
An d
5- 0
в до
197 9</w>
ш тра
ри ли</w>
Бар село
люб ят</w>
ком пози
глав ных</w>
тив ным</w>
бе ли</w>
рын ки</w>
за ло
вши еся</w>
устрой ств</w>
уничто жить</w>
м ить</w>
n o</w>
удив ительно</w>
ли це</w>
А .
u l</w>
u b</w>
ре е
ня ются</w>
не сли</w>
ак туаль
Боль шой</w>
н ский</w>
Ка ра
по все
любы х</w>
рестора не</w>
музы ка</w>
м ёр
Чар ли</w>
w ay</w>
обнару жили</w>
какие -то</w>
изве стен</w>
до н</w>
состоя лась</w>
какое -то</w>
заяв ления</w>
2 2,
фут боль
под ви
пе т
общ их</w>
крупней ших</w>
настоя щей</w>
вер у</w>
б ки</w>
Гло ба
ми ли</w>
На и
при держи
потенциа ла</w>
превос ход
ва тели</w>
ходи ло</w>
способ ствовать</w>
руб лей</w>
ге р</w>
И ерусали
198 3</w>
пор т
к ритери
фо в</w>
Ц И
сосредо то
луч шая</w>
дис ципли
авто но
струк тура</w>
недвижи мости</w>
еди но
ту рец
Ко ман
R us
F r
угро зы</w>
оказа лась</w>
коро ль</w>
исследо вание</w>
голо са</w>
верс ите
региональ ных</w>
объек ты</w>
интер нет</w>
198 1</w>
спосо бен</w>
Цер ков
ст ва
е два</w>
включа ют</w>
ста рые</w>
р э
в ходя
6 8</w>
ш ины</w>
со ору
за плани
И де
служ бу</w>
пол ное</w>
9 8</w>
ча ми</w>
и р
жи в</w>
вс пы
На конец</w>
ва юсь</w>
экономи ка</w>
чест но</w>
жу сь</w>
ген ети
у видела</w>
вер у
прош ло</w>
верси ю</w>
Lond on</w>
сти ческой</w>
моло дой</w>
мас са
По доб
G P
хи и</w>
дол га</w>
здоров ье</w>
цент ром</w>
само лё
отве тил</w>
V i
стави ло</w>
Е НИ
Го род</w>
по всюду</w>
стро ить</w>
лан ти
ис пор
росси йской</w>
продук т</w>
показа тели</w>
ва емый</w>
О бра
P er
196 0</w>
сдела но</w>
м ра
Ре ги
Mus ic</w>
ь ян
чер то
требо ваний</w>
сти ль</w>
лле р</w>
инду стри
зако ны</w>
сто лом</w>
Ин ди
ти ло</w>
работ ка</w>
та бле
кни те</w>
побе ду</w>
н ка</w>
д иться</w>
а ни
И м</w>
ще л
фе р</w>
b i
ст ями</w>
рован ным</w>
Амери ка</w>
попы тки</w>
Бе ль
возмож ным</w>
На де
1 2-
стра х</w>
дере во</w>
С тро
пре сси
Гар ри</w>
связ ей</w>
россий ского</w>
эксплуата ции</w>
фунда мента
у стра
ис к</w>
Колу мби
ти ру
назна чен</w>
ю р
составля ют</w>
2 3
чи лись</w>
ходь бы</w>
отве чает</w>
од ни</w>
лет него</w>
X V
зи м
за ранее</w>
выпу ск
каждо му</w>
ди ск</w>
дву сторон
выполни ть</w>
Бе зопас
2 4,
чу ва
относя тся</w>
c o</w>
ту ристи
ству ющих</w>
получ ите</w>
сво е
пе ть</w>
ли ст</w>
кон фи
клет ки</w>
F i
эк спо
ри ска</w>
бело рус
вы ше
да ется</w>
цен ные</w>
слу ши
при ближа
карьер у</w>
вод ить</w>
персона ла</w>
спокой но</w>
програм много</w>
вя тся</w>
части чно</w>
ген о
хо й</w>
тель ная</w>
ка нал</w>
Hist ory</w>
верну лись</w>
экс кур
Зем ле</w>
1 3,
дво ре</w>
сде лки</w>
са ду</w>
мо ём</w>
k a</w>
ров ку</w>
осно вы
телеви зор</w>
зна мени
I P</w>
ц -
фа культе
показа ли</w>
жд ением</w>
фон до
г ности
когда -то</w>
у ль
ва ку
сом ненно</w>
с вин
доступ ны</w>
ви но</w>
t al
сту дии</w>
резо лю
приш ёл</w>
понима ть</w>
о гро
игра х</w>
Ни дер
про йдет</w>
за ча
Ка м
ос ен
кон центра
город ской</w>
СК О</w>
S ec
8 1</w>
се ссии</w>
в нес
f i
er y</w>
f l
I P
при чем</w>
вой ска</w>
пыта лась</w>
по явля
основ ным</w>
пят ницу</w>
пода рок</w>
л ениями</w>
Ве ро
содержа ние</w>
сдела ю</w>
описа ние</w>
зор а</w>
дол г</w>
д ного</w>
А м
p e</w>
цен е</w>
глу би
прош лое</w>
па л</w>
мето дов</w>
Росси ю</w>
L if
спро сил</w>
дан ная</w>
Фи ль
Моск ва</w>
чен ный</w>
собира лся</w>
по вест
в ста
попро бовать</w>
потреб ления</w>
ля я</w>
из вле
доро гой</w>
дета ли</w>
да я</w>
Министер ство</w>
сель ского</w>
ре ти
ко ра
доказа тель
террито рию</w>
собра ть</w>
orig inal</w>
эффектив но</w>
цве ты</w>
R em
сери я</w>
международ ным</w>
ка кого</w>
примен ение</w>
важ ный</w>
По дроб
надле жа
са мо</w>
высо ких</w>
Ч ем</w>
14 ,
начина ют</w>
лей б
за мок</w>
Ка з
ш вед
чрезвычай но</w>
та ция</w>
пребы вания</w>
et t
Суще ствует</w>
194 5</w>
экономи ку</w>
профес сор</w>
7 6</w>
вы год
финан сов</w>
О то
сер ве
Т ан
Ста р
сред ней</w>
за клю
учре ждения</w>
сопрово жда
празд но
на шему</w>
тен ни
при нести</w>
клу бе</w>
инду стрии</w>
у про
спон ден
Ф ото
Па три
пла нете</w>
доказа ть</w>
иск рен
з ла</w>
- ка</w>
струк тур
содержа ния</w>
да ты</w>
ва емые</w>
показа ния</w>
та -
обнов ления</w>
о пуст
воз действия</w>
al s</w>
в низу</w>
существо вания</w>
наз вать</w>
следо вать</w>
професси она
по прав
С об
ч ник</w>
не прави
li ke</w>
0 1
способ ны</w>
созда на</w>
же ле
граждан ского</w>
вер са
челове чества</w>
сни зи
под лин
о во
и сте
важ ные</w>
уг лу</w>
инвесто ров</w>
То чно</w>
со хранения</w>
предостав ления</w>
Гре ции</w>
чисто е</w>
сумас шед
составля ла</w>
вез де</w>
ic a</w>
то вари
прове ла</w>
эп изо
по думать</w>
ко де
Украи на</w>
ю щаяся</w>
с фор
по ла</w>
функ ций</w>
слож ности</w>
ри ла</w>
й дут</w>
П итер</w>
th e-
пожа р
органи з
использо ваться</w>
рас смотр
под разуме
малень кой</w>
ри м
Р оди
ра ун
огром ный</w>
фо не</w>
ли ф
итель ную</w>
а ссо
Па ра
V ol
прилож ений</w>
пол ную</w>
до в
Оче видно</w>
I D
обслужи вание</w>
уве дом
ри ско
расши ря
гра ду
я бло
мя ч</w>
бу дьте</w>
ти ями</w>
ру ке</w>
ре шать</w>
за гру
Не у
S A
сер вер</w>
четы р
инте гри
криз ис
коне ц
име ла</w>
впечат ление</w>
боль ницы</w>
су ме
наш ёл</w>
Та кое</w>
Европей ский</w>
раз ы
осно вана</w>
органи зова
в ходят</w>
тив ная</w>
т кой</w>
пад ения</w>
Ш ар
д жи</w>
МВ Ф</w>
у ра
изобра жение</w>
Э лек
in ter
B er
рабо чие</w>
огром ное</w>
кух ня</w>
Ка та
прово дит</w>
зда ний</w>
довери я</w>
c ol
197 7</w>
вс ём</w>
капита н</w>
в ка
де ли</w>
20 ,
по ведения</w>
й о
вра ща
под ряд</w>
мо не
1, 5</w>
у худ
взя ла</w>
па ти
Фи нан
Т ен
r us
тель ность</w>
вы яснить</w>
посред и</w>
с се</w>
на ве
Ч ем
поис ках</w>
п .</w>
ба ка</w>
спорт смен
ни кому</w>
Дж о</w>
is h
не ра
Рожде ство</w>
упа л</w>
о пер
пред ше
поч те</w>
С ити</w>
Бю ро</w>
ou t
цен у</w>
тяже ло</w>
тив но</w>
секун ду</w>
пане ли</w>
зна ко
зем пля
От кро
за бира
R ep
7 7</w>
обе их</w>
6 9</w>
слуша й</w>
фру к
т иту
си м</w>
подо зр
Про шу</w>
рын ках</w>
высо кую</w>
возмож ных</w>
Правитель ства</w>
i i</w>
е мую</w>
защи щать</w>
b le</w>
Пар ень</w>
ti me</w>
та ря</w>
сом не
пол ного</w>
печа ти</w>
ре чи</w>
принци пы</w>
восстанов ить</w>
Л ан
малень кие</w>
цион ное</w>
то рами</w>
озна ком
ст ро</w>
лиде р</w>
A g
убед ить</w>
вели чай
реали зо
компьютер е</w>
ази ат
вир туаль
стен е</w>
дела ем</w>
А ссоциа
M et
щи на</w>
терро ристи
ада п
тер п
до ви
форми рования</w>
не правильно</w>
возду хе</w>
ти ра
сообщ ений</w>
окон чатель
уни версите
ули цу</w>
са мую</w>
г ры
о ном</w>
конец -то</w>
ин ци
Э сто
приш ло</w>
пол у</w>
ж дут</w>
ска ми</w>
нару шения</w>
кон вер
Международ ного</w>
un d</w>
услыша ть</w>
ри на</w>
le y</w>
про ро
мен те</w>
ли цу</w>
- s
тя х</w>
л ениям</w>
доказа тельства</w>
В Е
стол к
а та</w>
ЦР У</w>
посы ла
поня ла</w>
по кон
кон гре
кита й
каби нете</w>
важ ную</w>
ot s</w>
подготов ке</w>
un g
у видите</w>
т ков</w>
Са м
Обы чно</w>
Б ей
th e
упомя ну
та ли</w>
при сла
при ви
остро вов</w>
орга н</w>
лю бую</w>
лли н
Дэ вид</w>
теку щего</w>
не по
Исполь зу
Pl ay
эк земпля
рын ков</w>
п ление</w>
наблю дать</w>
ен ной</w>
Япо ния</w>
ли ния</w>
республи кан
бы вшего</w>
Д О
женщи ной</w>
ар гу
res s
ogr aph
oc k
am il
е -
язы ках</w>
опера ционной</w>
ван ную</w>
бес провод
In s
ра сти</w>
пыта лись</w>
о е</w>
написа ть</w>
ня ют</w>
ищ ет</w>
ду р
направ ления</w>
мер но</w>
ль да</w>
Бе ло
осно ван</w>
дальней шем</w>
го сти</w>
гла вы</w>
Хо л
Нидер лан
Зав тра</w>
надца ть</w>
за муж</w>
197 0</w>
потреб ности</w>
обра титься</w>
Та джи
N o</w>
F re
чь и</w>
ти ка
д ки</w>
горо ду</w>
Ни когда</w>
на -
Сво бо
2 6,
подтвер жда
Ин дия</w>
И Р
наличи и</w>
на стройки</w>
p or
отлича ется</w>
заня ться</w>
высо ко</w>
ac t
8 3</w>
вы зов</w>
важ ность</w>
Джей мс</w>
lo w
пыта ются</w>
пра вой</w>
ез ды</w>
щи ки</w>
сек с</w>
з ме
приме чатель
н ными</w>
en sh
личе ство</w>
дан ное</w>
С ю
ang u
он лайн</w>
кварта ле</w>
за гля
вечерин ку</w>
M y</w>
про ле
жен у</w>
взрослы х</w>
слыша ла</w>
воскре сен
жив ёт</w>
К ры
Испа но
ф ес
обеща л</w>
спе ц
по жертво
8 8</w>
се ктор</w>
практи ки</w>
от печа
опреде лён
лага ю</w>
двадца ть</w>
ар мя
располо жены</w>
при ходят</w>
на пол
ен ного</w>
un g</w>
служ б</w>
gam ep
С тре
Програм ма</w>
ic k</w>
при зыва
организа циями</w>
види мся</w>
15 ,
фа на
государствен ные</w>
вле н</w>
Ш ан
фро н
реги онов</w>
ве личи
ван ге
Дж она</w>
избав иться</w>
ван ным</w>
Во й
ствен ными</w>
ка фе
t ain
ви ну</w>
сохра ни
се тей</w>
ti m
са ха
про ка
по забо
бр ю
Э ли
цион ным</w>
вери л</w>
Па у
Ио ан
. gif</w>
ствен ном</w>
рабо ти
пре тен
дерь мо</w>
получ ение</w>
заме н</w>
d o</w>
S ou
различ ными</w>
о чи
к ции</w>
пол ном</w>
име ются</w>
Восто ке</w>
Ви дите</w>
0 000</w>
дви ж
во все</w>
по де
па ке
фак ты</w>
объе ма</w>
коман ди
в ряд</w>
зако ном</w>
re m
материа ла</w>
oun d
L a</w>
буква льно</w>
Уо л
pd f</w>
ar ds</w>
H er
9 7</w>
кого -нибудь</w>
е мости</w>
ве дут</w>
кон вен
вто рое</w>
вла д
в ное</w>
автомоби ля</w>
Ни кто</w>
объек та</w>
ни ческих</w>
гра д
чер ты</w>
моло до
ме ль
ло вой</w>
ли к</w>
сфер ы</w>
массо вой</w>
вы ясни
в люби
больш ом</w>
Слу ж
Пар ла
Афгани стане</w>
S oci
M S</w>
хоро шей</w>
повер ить</w>
в ка</w>
Чар ль
our n
en g
форма те</w>
Та кой</w>
миро вых</w>
круп ные</w>
указыва ет</w>
рен а</w>
рекомен да
ar i
7 8</w>
техни ческих</w>
слу жит</w>
поня тия</w>
охва ты
Мож ете</w>
ья н</w>
чи на</w>
il d
ь -
рас слаб
Изви ни</w>
чер т</w>
луч шего</w>
кон тей
заседа нии</w>
да т
Па ло
Моск вы</w>
пе сен</w>
экспор та</w>
оз ера</w>
m o
ущер б</w>
тель ное</w>
Э м
побе ды</w>
Ком п
R E
поч ты</w>
от ы</w>
ку со
люби шь</w>
ла т</w>
кух ни</w>
зву к</w>
за полни
t e
По л</w>
197 8</w>
на ряду</w>
шко л</w>
ч о</w>
дерев не</w>
дере вя
но г</w>
П обе
член а</w>
дав ления</w>
да р</w>
O n
сообщ ить</w>
разгово р</w>
щен ные</w>
убед иться</w>
кораб ля</w>
похо ж</w>
на груз
7 1</w>
до пуска
16 ,
созда ли</w>
про дать</w>
пожи лых</w>
инстру менты</w>
и ду</w>
значитель ной</w>
Л Ь
удоволь ствие</w>
тив у</w>
прекрас ный</w>
за ра
за ключения</w>
го дом</w>
филь мов</w>
уме реть</w>
осуществ лять</w>
замест итель</w>
а по
продук та</w>
продолж ительность</w>
g et</w>
ру ками</w>
д ро</w>
St re
позво нить</w>
зву чит</w>
ic t
A b
фа ми
кон серва
е ды</w>
На стоя
А зи
простран стве</w>
E d
15 -
тр ь</w>
по ступил</w>
ost .com</w>
отде л</w>
выгля деть</w>
Д он
С эм</w>
a k</w>
ша ги</w>
у бы
опас ность</w>
все ленной</w>
вер то
Националь ный</w>
196 7</w>
у шел</w>
собствен ную</w>
на пи
крат ко
керами ческие</w>
до мини
щ ины</w>
сцен е</w>
пра вам</w>
понима ние</w>
пере йти</w>
вы во
8 2</w>
7 4</w>
ч ья</w>
ч ками</w>
зака з
г ей</w>
проис хождения</w>
распростран ение</w>
полови не</w>
опреде ление</w>
об щая</w>
необходи мых</w>
196 9</w>
приро де</w>
блю да</w>
обо зна
избра н</w>
Лондо н</w>
9 3</w>
характер а</w>
квали фици
ш ер
род ной</w>
посмо три
на тура
кажды м</w>
ЮНЕ СКО</w>
ver y</w>
обществен ности</w>
производ стве</w>
вку с</w>
A C
ло го
Ми ро
чер ный</w>
му льти
С .</w>
гос пита
Г О
Вашинг тон</w>
ir st</w>
результа том</w>
приве ли</w>
мо ле
я х
по знаком
дан ными</w>
Таджи киста
Ком итета</w>
di tion</w>
197 5</w>
ши ла</w>
ро манти
лен ное</w>
л лы</w>
Шве ции</w>
Х ва
че б
хи е</w>
мини -
Ха й
8 9</w>
ли нию</w>
зи но</w>
2 1,
связа н</w>
ни н
а бо
Но вая</w>
V er
убе жи
ста рых</w>
провод ится</w>
плохо й</w>
ме ча
дис кримина
сум мы</w>
реш ением</w>
бра л</w>
пу зы
по мимо</w>
агре сси
С ве
рекомен дации</w>
пропа ган
под ва
откры т</w>
об ща
вы бран
Д эн
эмо циональ
современ ного</w>
искус ство</w>
И бо</w>
Господ и</w>
197 6</w>
обязан ности</w>
лагер ь</w>
поки нуть</w>
дости г</w>
си д
опла чи
состо ится</w>
с зади</w>
доро г</w>
Офи циаль
l a
im g.
свя зыва
пред ска
N or
1 20</w>
нару шение</w>
в лек
о ти
ду ше</w>
Но вой</w>
Л ор
ti es</w>
ядер ной</w>
расследо вание</w>
ра ство
причи нам</w>
пра ж
M P
послед ствий</w>
Фло ри
хоро шим</w>
те мы</w>
иде ю</w>
выстав ка</w>
img. gamep
img.gamep ost.com</w>
су дов</w>
без работи
тради ции</w>
непре ры
лен но</w>
сы р
состави ло</w>
по ставил</w>
лет них</w>
S P
понадоб ится</w>
довери е</w>
граждан ской</w>
197 1</w>
отказа ться</w>
ни на</w>
затра т</w>
В ся</w>
b as
S .</w>
ту рой</w>
служ бе</w>
направ ление</w>
воз действие</w>
Ж ан
числен ности</w>
пол но</w>
веще ств</w>
цен ностей</w>
торго вых</w>
обнару жил</w>
тор же
ми -
валю ты</w>
Бо гом</w>
пунк та</w>
за пер
Лю бо
Запад ной</w>
пре образо
пере вод</w>
э лит
цве тов</w>
суще ственно</w>
игра ли</w>
де кла
вну трь</w>
Л О
W ar
цент ров</w>
оф иса</w>
на стаи
креди то
I f</w>
сме ша
производ ительности</w>
з вание</w>
авто р</w>
напря мую</w>
еже годно</w>
ОБ СЕ</w>
расшир ение</w>
тюрь мы</w>
собира ешься</w>
ро зо
остав ши
M er
ста рой</w>
общ ую</w>
побереж ье</w>
ру ющих</w>
бере т</w>
Lin ux</w>
ру ем</w>
Нико ла
am es</w>
N et
7 3</w>
ль -
По лож
ev er</w>
8 7</w>
зад ницу</w>
держ ится</w>
scre ensh
I C
продолж ить</w>
ко л</w>
жен ности</w>
А да
ти шь</w>
ли зация</w>
s erv
доро га</w>
с би
Международ ной</w>
Ва н</w>
v is
M or
треть его</w>
из дели
та цию</w>
р к</w>
помо г</w>
вар ь</w>
со обще
реаль но</w>
лич ной</w>
воен ного</w>
си га
с ке
ок не</w>
кар т</w>
емы ми</w>
ov er</w>
верну сь</w>
o o</w>
карти ну</w>
ка лен
ассоциа ции</w>
Ар ген
al i
фи л
понима ния</w>
мен ять</w>
вопро сом</w>
англи йский</w>
P e
финанси рование</w>
принци пов</w>
импери и</w>
действи и</w>
вой ск</w>
прожи вания</w>
при чин
жи ли
пенси он
костю м</w>
в переди</w>
S E
щ ить</w>
состоя лся</w>
секре тарь</w>
опуст ится</w>
опера цию</w>
У станов
- m
сезо не</w>
ку ю
энергети ки</w>
учеб ных</w>
при зы
y c
ch ange</w>
раст ений</w>
представ итель</w>
от дать</w>
V is
че е</w>
с кро
Националь ной</w>
э ки
Необходи мо</w>
успо ко
рабо чего</w>
ката ло
диа гности
Ита лия</w>
со мнения</w>
at h</w>
учре жд
семей ные</w>
при з</w>
наси ло
П ит
Con t
чув ств
ры ба
гру ди</w>
Га з
in c
201 5-0
ступа ет</w>
пред стоя
от дох
но выми</w>
ь ем</w>
широ кий</w>
жур нал</w>
со общество</w>
е л</w>
девуш кой</w>
смотри т</w>
рез ко</w>
оди ноч
пра ведли
ж ность</w>
соба ка</w>
доба вил</w>
вто рая</w>
Систе ма</w>
О круг</w>
Арм ения</w>
числен ность</w>
нен а</w>
Ка ри
Г ан
сим пто
разме щения</w>
наркоти ков</w>
клиен т</w>
p os
8 4</w>
требу ют</w>
вероят ность</w>
Ж из
уч иться</w>
муниципа лит
борь бу</w>
Все м</w>
sp ring
путеше ствие</w>
услови и</w>
воз бу
влия ет</w>
Исто рия</w>
сни жения</w>
пе в
выстав ке</w>
определен ных</w>
обстоятель ствах</w>
националь ные</w>
кило метров</w>
посо ль
ко лен
Бу дет</w>
a ir
солн ца</w>
се г
пар ко
us e</w>
10 .
сум ма</w>
пи ц
lis h
я -
ту н
пара лле
девя ть</w>
С ем
смотр ю</w>
из бран
2 7,
регуляр но</w>
по кол
кар та</w>
ка бе
зво нок</w>
проек те</w>
Спе циаль
С Е
Дол жно</w>
Ap ple</w>
ф ф
оке ана</w>
ла з
внезап но</w>
про бе
нужда ется</w>
ду ш
до не
Управ ление</w>
Международ ная</w>
197 4</w>
те ори
по га
загруз ки</w>
в кус
О х</w>
международ ном</w>
колле дже</w>
вза им
Соединен ные</w>
с ье</w>
с держи
ден циаль
M ag
организа цию</w>
и дей</w>
внутрен него</w>
уча ствовал</w>
улуч шить</w>
Швейца рии</w>
A ss
со ж
сен а
процве та
иг рок</w>
дер а</w>
От лично</w>
ut e</w>
A .</w>
at es</w>
про меж
ис лам
дела ла</w>
Шта тах</w>
Мо сков
n a</w>
иде ологи
Ф ри
от вра
каби нет</w>
зо к</w>
Сою з</w>
по гру
откры тие</w>
га лакти
а ва
Неу жели</w>
B u
ст ся</w>
сла в
послед няя</w>
находи лся</w>
за рабаты
дицио нер</w>
воз ме
вен ти
Ф у
Сек ре
L ive</w>
син гл</w>
вс помина
on y</w>
ча х</w>
уби т</w>
про пу
перво нача
не м
до р
Пер вое</w>
ar e
C .</w>
а ро
Де во
197 2</w>
ходи шь</w>
ri v
конкурен то
А ссамбле
т ром</w>
пыта ясь</w>
помога ть</w>
перспекти вы</w>
ближай шие</w>
9 4</w>
собы тие</w>
предприя тие</w>
луч шей</w>
компен са
акаде ми
Lif e</w>
ст ной</w>
оцен ку</w>
ни цах</w>
гео графи
Ста н
R ev
по я
во время</w>
Майк л</w>
тво ему</w>
расстоя нии</w>
борь ба</w>
Joh n</w>
се ми</w>
во рачи
сбо ра</w>
ра да</w>
ко мисси
жен ность</w>
выс шего</w>
помни л</w>
обсу ждения</w>
кон фигу
А стана</w>
А х
мест ной</w>
Ис следо
I B
от слежи
и с</w>
жи вых</w>
Церков ь</w>
жен ной</w>
роди лась</w>
предотвра тить</w>
и ной</w>
чи я</w>
у дар
то кси
прода жу</w>
кана лы</w>
евре ев</w>
A u
9 1</w>
хран ение</w>
существу ющих</w>
Г рей
у ско
существо вание</w>
оружи ем</w>
объяви л</w>
посе ща
упа ков
выбра л</w>
Слуша й</w>
Пре мьер-
oc k</w>
196 8</w>
ти пи
потребу ется</w>
ка кую
инци ден
заболе ваний</w>
во ли</w>
собра ния</w>
председа теля</w>
ответ ить</w>
нес -
9 6.
тен и</w>
син те
производ ству</w>
определен ные</w>
вы пить</w>
тре й
стро й</w>
специ фи
рабо то
Великобрита ния</w>
ri st
право су
потреб ителей</w>
кров ью</w>
вы ска
A M
ре льс</w>
мет ра</w>
ж ем</w>
Лат вии</w>
мето ди
институ т</w>
скаж ем</w>
докумен та</w>
es e</w>
Wi -
C an
по ехать</w>
клад би
Пу тин</w>
P ow
D r
стандар тов</w>
й ду</w>
зи н</w>
дю й
дизай н</w>
вы играть</w>
Чет ы
Уве рен</w>
Сто ит</w>
0- е</w>
сред ство</w>
па тен
изуч ения</w>
за быть</w>
Робер т</w>
Ре зульта
b u
D LL</w>
17 ,
комби на
У ил
Пари ж</w>
хо океан
обсу дить</w>
ка ли
да ль</w>
Про из
am m
по бо
н a
д с</w>
Бу ша</w>
националь ный</w>
об шир
малень ких</w>
ле ги
глоба льной</w>
внутрен ней</w>
в последствии</w>
перспек тиве</w>
Чем пи
С ту
фак торов</w>
рели гии</w>
парамет ры</w>
окру г</w>
на писан
ж ду</w>
ен ь
вы йдет</w>
вы дви
аген т</w>
В чера</w>
Бо лга
4 0
спи ной</w>
раз ве
не извест
деятель ностью</w>
чет ко</w>
си лами</w>
звез да</w>
ге н</w>
Пор туга
преимуще ства</w>
затра ты</w>
дне стро
Й .</w>
wor k</w>
P et
справ иться</w>
Д аль
фотографи ю</w>
запа да</w>
I S</w>
сест ры</w>
ко вого</w>
же к</w>
обра баты
W al
Int el</w>
ужа сно</w>
ите лю</w>
десяти летия</w>
M in
ста тью</w>
ка кую</w>
Г О</w>
ти пов</w>
государствен ный</w>
На йти</w>
d es</w>
ска з
дальней шего</w>
ве ж
ха я</w>
сти л</w>
проис ходя
при каза
дра го
H ol
продолжа ют</w>
пре мии</w>
ля тор</w>
я ние</w>
привле чь</w>
в ход</w>
al ign</w>
еже дне
пля же</w>
оцен ить</w>
международ ный</w>
й ных</w>
Со зда
Про вер
сла д
оказыва ется</w>
ви нова
M y
раз ры
опреде ля
M e</w>
ну лась</w>
за йти</w>
A N
спро са</w>
магази на</w>
газ ете</w>
ь и</w>
с ход
ли ны</w>
за вода</w>
Наде юсь</w>
spring 96.
spring96. org</w>
om e
ча рд</w>
сотруд ники</w>
моле ку
места ми</w>
of f
кем -то</w>
кар те</w>
во зна
лен д</w>
каж у
глоба льного</w>
ро жде
ра ско
откры то</w>
н ра
выбро сов</w>
Ф ак
S ol
L ove</w>
техниче ского</w>
о р</w>
три дца
те ров</w>
подписа л</w>
ло б
руковод итель</w>
провед ении</w>
гори зон
во пло
аэропор ту</w>
подоб ное</w>
пассажи ров</w>
вери т</w>
В .
от зы
лич ный</w>
Си рии</w>
не вероят
на ступ
дере ва</w>
В ьет
довер я
Пол ити
повы сить</w>
вы шли</w>
в стро
боль шими</w>
Ком итет</w>
коль цо</w>
смотри м</w>
повез ло</w>
лет ней</w>
Фран ци
s ite</w>
надеж ды</w>
ва йся</w>
Ла тин
произо йдет</w>
институ та</w>
запад ной</w>
вол но
вдох нов
Следу ет</w>
Пало мар</w>
показа тель</w>
очеред и</w>
за ключение</w>
П ис
d is
став ьте</w>
при ко
к o
ис ла
вер ши
челове ческого</w>
поло жил</w>
меня ется</w>
у ка
состави ла</w>
пти ц</w>
подчер ки
Ско лько</w>
ec tion</w>
I D</w>
раз ор
плани рует</w>
га л</w>
Х э
пло х
занима лся</w>
организо вать</w>
18 ,
шен ных</w>
уни верса
re t
ча лся</w>
ви зу
19 ,
теат р</w>
восто чной</w>
актив ности</w>
si on</w>
тво ё</w>
при су
не одно
бух гал
По каза
заставля ет</w>
вы ве
Проек т</w>
ком итет</w>
ко т
бассей на</w>
плю с</w>
информа ционных</w>
u k
En ter
ступи т</w>
само му</w>
пря мой</w>
посет ителей</w>
от ходов</w>
ж ное</w>
в зо
ён ные</w>
у голо
сут ки</w>
оч ков</w>
ко к
иты й</w>
зака з</w>
Э л
ь ям</w>
ти к</w>
заня тости</w>
ё нок</w>
ри н</w>
пусти ли</w>
моде лей</w>
Вен г
церемо нии</w>
стра ной</w>
социаль ные</w>
пе н</w>
ма сси
кру г
би лет</w>
а з
Финлян дии</w>
th ing</w>
созна ния</w>
итель ство</w>
до га
С ли
th ere</w>
In v
об би</w>
празд ник</w>
поня ли</w>
законо в</w>
D el
я ния</w>
призна ние</w>
закон чил</w>
встре тил</w>
Бе л
су ть</w>
име ете</w>
име ем</w>
Off ice</w>
- Гру
по ш
за х</w>
сро ки</w>
ре к</w>
прилож ение</w>
пла та</w>
ве тер</w>
Продук ции</w>
че й
пробле мами</w>
полови на</w>
гово ри</w>
ак цен
Ан гли
отве ты</w>
о с</w>
л ёт</w>
ди ль
возника ет</w>
ро де</w>
лен ном</w>
Пробле ма</w>
су верен
оцен ке</w>
счаст ью</w>
потреб ностей</w>
жи ву</w>
Де мо
Ва шего</w>
tic s</w>
ста ет</w>
с су
рова лся</w>
попа ла</w>
пози ция</w>
Н ем
усло в
съ ем
пере до
ка ме
все мир
пра вом</w>
напомина ет</w>
зе р</w>
заседа ния</w>
ез жает</w>
грани цу</w>
визи он
тор говой</w>
по э
ва ти
муж ем</w>
же лу
Хау тен</w>
тща тельно</w>
ли ней
ла тино
реш ении</w>
показа телей</w>
закон чится</w>
беспла тный</w>
e k
ру д
исправ ить</w>
защит а</w>
Влади мир</w>
хоро шего</w>
торгов ле</w>
мест ный</w>
Та кая</w>
b ur
rig ht</w>
S im
ля цию</w>
ль ский</w>
о крест
е ве</w>
Ха утен
ста ну</w>
во куп
p s</w>
золо то</w>
Н К
смыс ла</w>
оши бок</w>
вы бор
х -
про сил</w>
мо ди
до хода</w>
бор ту</w>
аль ной</w>
Фон д</w>
n et</w>
послед ним</w>
неве льд</w>
культур ных</w>
Дже к
Man ag
ти ровал</w>
Хаутен -Гру
Хаутен-Гру невельд</w>
Олимпи йских</w>
Ге рельс</w>
2, 5</w>
ч ью</w>
тури стов</w>
т ского</w>
фор му
сокра щения</w>
обеспе чению</w>
дья во
ск ет
про ще</w>
корпора ции</w>
ва мпи
Д ю
щи еся</w>
сокра щение</w>
созна ние</w>
предпоч т
подоб ного</w>
в ъ
Т А</w>
По ч
о -
включен ы</w>
рекоменду ется</w>
ожида ния</w>
заня л</w>
ван ное</w>
сче те</w>
послед нюю</w>
выступ ления</w>
ви с</w>
Д ве</w>
А х</w>
on d</w>
позд рав
обра щения</w>
ча ю</w>
американ ские</w>
пода льше</w>
акаде мии</w>
ф ен
ст -
вери шь</w>
Информа ция</w>
Wi- Fi</w>
мень шин
з ю
объ едини
не пода
os e</w>
lis h</w>
не вин
жа х</w>
хра нить</w>
у ме</w>
процес сы</w>
ощу щение</w>
остави ла</w>
Фон да</w>
сло м</w>
рован ное</w>
оли мпи
дей ствуют</w>
д нём</w>
гово ря
S T
ди лся</w>
sh ip</w>
g re
те ст</w>
пре да
гра ф</w>
E v
остави ли</w>
вопро сах</w>
Ве сь</w>
представля ли</w>
лик ви
к ли</w>
бра к</w>
чи ком</w>
недоста точ
А ла
Во прос</w>
вне сти</w>
ба зи
М еди
За кон</w>
for d</w>
a u</w>
ю ге</w>
постро ен</w>
получа ется</w>
Боль шо
мини стром</w>
медицин ской</w>
иден тифика
F in
у шла</w>
ново стей</w>
ве чно</w>
Реб ята</w>
я и
юще еся</w>
сы ла
гово ра</w>
Ри чард</w>
Боль ше</w>
el s</w>
эта ж</w>
сте ре
оцен ка</w>
re l
ш тей
ре зиден
ми нера
D ef
с на</w>
ру кой</w>
на ра
Ско ро</w>
P C
по ток</w>
по неде
за работ
Калифор нии</w>
уб ь
неприят ности</w>
рассматри вать</w>
раз ница</w>
контроли ру
искус ств</w>
прекра тить</w>
кто ром</w>
ключе вых</w>
со ром</w>
механиз м</w>
и и</w>
ure s</w>
фра г
т ские</w>
разв итых</w>
про даже</w>
дво их</w>
счита л</w>
Ви р
щен ной</w>
бежен цев</w>
Гово рят</w>
у видели</w>
ожи дать</w>
оста лась</w>
о скорб
вся кий</w>
во доро
реали зу
про возгла
n ing</w>
пе ль
П ес
со действия</w>
присут ствие</w>
люб ить</w>
добро во
выпол нение</w>
Но вости</w>
цик л</w>
ди сь</w>
Хе ль
ребен ком</w>
капита л</w>
пунк тов</w>
па ть</w>
На й
пред стоит</w>
г ин
T w
эле мен
ш ос
особо е</w>
за ве
бан ке</w>
при ну
и ран
ес т</w>
ди й</w>
1 2.
персо нал</w>
ва лен
Ва шей</w>
ру ка</w>
деся т</w>
p p</w>
устойчи вого</w>
ниче ской</w>
чува к</w>
угро зой</w>
тя ми</w>
рас сказала</w>
пол ная</w>
вс лед
er a</w>
меся це</w>
клю зи
rec t
узна ли</w>
реаль ности</w>
про игры
потеря ли</w>
мно гим</w>
завер шения</w>
за бав
в ключ
бур г</w>
E R
сде лку</w>
во ря
rid ge</w>
электро энергии</w>
принима ют</w>
коле ба
под держать</w>
карти ны</w>
к ки</w>
инф ляции</w>
в ключить</w>
С от
Ан д
C ap
стен у</w>
ст ской</w>
профи лакти
опреде ляет</w>
бер г</w>
рай онов</w>
конфи денциаль
е ю</w>
h e</w>
нор маль
зв ёз
держа ться</w>
ви ден
собира ются</w>
серьез ные</w>
общ ения</w>
ут бу
с не</w>
навы ки</w>
лен ными</w>
европей ской</w>
балан с</w>
фотографи й</w>
полови ны</w>
име ешь</w>
ду ша</w>
М С
сле ва</w>
в ная</w>
агент ства</w>
М Е
тя ги
структу р</w>
оста льное</w>
источ ники</w>
зем ля</w>
вла стей</w>
бюдж ет</w>
О публико
it al</w>
U S</w>
связа ться</w>
мор ских</w>
ц ита
т ский</w>
р ный</w>
ко да</w>
каких -либо</w>
возвра щается</w>
об щаться</w>
наро ду</w>
in s</w>
em s</w>
вслед ствие</w>
ар мия</w>
А ри
2 8,
ре я</w>
конкур са</w>
конкре тных</w>
выпу ск</w>
вли ять</w>
ч ному</w>
мигран тов</w>
медицин ских</w>
конфлик т</w>
Т а</w>
le ft</w>
ми на</w>
мень шей</w>
га ется</w>
при вяза
понима ет</w>
пе ти
инстру мент</w>
в вести</w>
концер т</w>
закон чить</w>
Исполь зо
E C
ка -
ви ны</w>
Од но</w>
созда ны</w>
р ё
любов ью</w>
кон стру
Му ж
Ир ландии</w>
треть ей</w>
отде льные</w>
источ ником</w>
собра ние</w>
не та</w>
националь ном</w>
защи ща
груп пи
F or</w>
па тру
Республи ка</w>
at ur
с ное</w>
произ ведения</w>
О С</w>
у стран
состоя ли</w>
на ци
сверх у</w>
с бере
от кров
об ру
вз ло
в плоть</w>
агент ство</w>
рас смотреть</w>
какая -то</w>
Все гда</w>
Би р
се дь
конферен ция</w>
зе н</w>
ба ра
опера ция</w>
неожи дан
из насило
слу чится</w>
на печа
мета лли
йд ём</w>
3 60</w>
сте ро
смотре ли</w>
прогре сс</w>
основ у</w>
Ко миссии</w>
lo b
имуще ства</w>
Ка за
c ent
н ением</w>
z e</w>
7 9</w>
г .
го сте
сбор ной</w>
пере вод
ide o</w>
захва ты
до ходы</w>
а сси
Поз же</w>
con t
r o</w>
M c
соба к</w>
нов о</w>
Д оста
Мо гу</w>
А рави
яв ление</w>
теат ра</w>
согласи я</w>
под нять</w>
па три
язы ков</w>
ше ль
парла мента</w>
нача лся</w>
Ю жная</w>
ча ли</w>
единствен ной</w>
в ку</w>
за дол
ез де</w>
директо ром</w>
screensh ots</w>
э коно
ча м</w>
ро сту</w>
жела ния</w>
ва емого</w>
A P
экра не</w>
спро с</w>
Ка й
К лю
Д ек
2 2
ющи мися</w>
спе ди
со держи
раз дра
пой дет</w>
по ни
ор ке
ку чу</w>
кро ви
С ла
r at
193 9</w>
расска зывает</w>
пи л</w>
но ж</w>
аль ный</w>
i f</w>
со й</w>
официаль ным</w>
ка ни
ка мера</w>
возна гра
по- настоящему</w>
горо дом</w>
болез нь</w>
по бы
меч ты</w>
дела х</w>
ван ными</w>
c e
C oun
ящи к</w>
отказа лся</w>
одино ких</w>
спа л</w>
разде л</w>
ж ными</w>
челове ческой</w>
об щие</w>
е дет</w>
до льше</w>
тив ную</w>
со крати
син хро
прав е</w>
Ро у
по сле
заня ть</w>
уче та</w>
сти ли</w>
R ad
е ров</w>
глав ная</w>
азиа тов</w>
Сто ро
Де парта
er g
центра льной</w>
какой -либо</w>
да ю</w>
Со един
Кто -нибудь</w>
Ви ль
i -
удосто вер
труд ности</w>
приорит ет
ле то</w>
ин спе
действи ю</w>
бед ных</w>
бак тери
О сно
учен ых</w>
равно ве
присоедини ться</w>
о сво
досто примечатель
Са м</w>
специаль ных</w>
с му
посла л</w>
поги б</w>
исполни лось</w>
В стре
loo king</w>
постав ки</w>
милли оны</w>
вра гов</w>
m ore</w>
та ж</w>
свобод но</w>
про ходят</w>
не про
ло вуш
количе ством</w>
восто ке</w>
Ш о
посо би
до вал</w>
Эк спер
ё м
уров нях</w>
стре мя
Вашинг тоне</w>
к ет</w>
ан т</w>
роско ш
ра ду
орга нами</w>
му дро
мо шен
ка зино</w>
из -
до говори
вра ч</w>
у чет
вы ру
ба ев</w>
Э К
ab out</w>
мас сы</w>
копи й</w>
.j pg</w>
р ю</w>
г ка</w>
e e</w>
эки па
стра ниц</w>
ска жет</w>
огром ные</w>
ль те</w>
кому -то</w>
все -таки</w>
Comp any</w>
у скор
социаль но-
сереб ря
кур сы</w>
запа х</w>
д ная</w>
б ет</w>
Эк с
In d
участ ке</w>
расследо вания</w>
о чки</w>
ава рии</w>
n ew</w>
сю р
прави лам</w>
ближай шее</w>
а тра
Да йте</w>
укреп ления</w>
ба ра</w>
част ного</w>
стан ь</w>
идеаль но</w>
за блу
ен т</w>
R ob
194 4</w>
многочис ленные</w>
ж ок</w>
D es
напад ения</w>
жен ного</w>
Поли ция</w>
Капита н</w>
итель ными</w>
г еди
Ка вка
р ных</w>
ну тся</w>
де ль</w>
e p</w>
я ко
следо вательно</w>
tr an
ува жа
му же
Ш ко
не ром</w>
мусуль ман
ска ни
независи мость</w>
гос под
-- --
чего -то</w>
сек сом</w>
подоб но</w>
P D
F il
у праж
тро пи
катего ри
выра щи
Пло ща
П ан
Да лее</w>
пор тре
на це
жерт ва</w>
балан си
I T
удоб но</w>
огра б
мо ст</w>
максима льно</w>
ка толи
Ма лень
Кана де</w>
р ные</w>
облига ции</w>
Р И
чет вёр
ошиб ка</w>
н ном</w>
ко ш
виз ита</w>
В ра
er t</w>
ша яся</w>
те ть</w>
ва кци
уда стся</w>
скаж ите</w>
ска жешь</w>
красо ты</w>
компьюте ров</w>
ж ник</w>
г г</w>
Ру мы
Вы берите</w>
жа ются</w>
bo ard</w>
A v
отправи лся</w>
ми ли
кро во
г ло</w>
Па ла
F e
со вокуп
сле гка</w>
ря с
разобра ться</w>
публика ции</w>
измер ения</w>
д ит
Евро пу</w>
Бу ду
Аль -
er al</w>
ор ди
Ко ло
Ди а
Безопас ности</w>
n ews</w>
ск лон
работ ке</w>
мыш и</w>
до но
тро е</w>
то ро
отчет ности</w>
на знач
Компа нии</w>
фун тов</w>
студи йный</w>
осла б
компани ями</w>
Груп пы</w>
ic es</w>
соедин ения</w>
oug h</w>
не сомненно</w>
за т
С чита
По лагаю</w>
ён ный</w>
эле мент</w>
стать я</w>
са ло
Тво и</w>
S w
ог ня</w>
объясня ет</w>
кру гло
за м</w>
тео рети
се ла</w>
ба рь
За щ
ш ите</w>
v ers
s ia</w>
соба ки</w>
вы вод</w>
О преде
ите том</w>
государ ством</w>
Ту а
Ph one</w>
Al l</w>
опла ты</w>
at er</w>
реб ят</w>
мигра ции</w>
заня тия</w>
ж их</w>
больш его</w>
com p
получ ится</w>
полити ческий</w>
й ское</w>
акцио неров</w>
re st
шос се</w>
управ лению</w>
рас хо
за труд
ow n
при ем</w>
но утбу
кри ста
p ort</w>
ши ф
управ лением</w>
плани рования</w>
кандида тов</w>
t a</w>
ходи м</w>
транспор ти
про чем</w>
ви ца</w>
мёр т
O ne</w>
при вез
преде лы</w>
обла ка</w>
лли ву
Ш от
В скоре</w>
подписа ть</w>
зо в
Дже к</w>
ка ком</w>
вы те
аль но</w>
j ect</w>
рова лись</w>
зе лё
Т А
С э
От прав
смер тью</w>
све то
госпо дин</w>
О бо
S ci
технологи я</w>
семей ства</w>
посмотри м</w>
подва ле</w>
низ ким</w>
ер е</w>
би леты</w>
совер шил</w>
ра й</w>
ку по
конкурен ции</w>
ери и</w>
до про
ча ла</w>
при сво
покуп ки</w>
позво нил</w>
организа цией</w>
но гу</w>
ги й</w>
С дела
у ходит</w>
мощ ности</w>
к т</w>
е мом</w>
приня ты</w>
предостав ление</w>
кра тно</w>
за креп
ч не
ра циональ
партне рами</w>
закры ть</w>
а де
ро во
предоставля ется</w>
возвра щения</w>
Про фес
Мо и</w>
P al
. pdf</w>
ро жда
семь ей</w>
национа ли
лич ность</w>
a x
кратко сро
ear ch</w>
ко во</w>
а зербайджа
да го
Мэ ри</w>
1 1-
чу ю</w>
ра ды</w>
пре сти
маги стра
структу ри
о ни
каки м-то</w>
захва тить</w>
Из мен
француз ский</w>
сле д</w>
выступа ет</w>
бур ге</w>
Боль шая</w>
F ac
полож ительно</w>
поки нул</w>
о забо
не плохо</w>
По луч
Зем ля</w>
свобод ной</w>
порт фе
H ouse</w>
това р</w>
ка ком
инди ка
Молдо ва</w>
эта п</w>
с права</w>
представля ть</w>
лиде ром</w>
инжен ер
избира телей</w>
ж ителя</w>
до ли</w>
ак цион
ству ющие</w>
с пу
пери оди
ново сть</w>
ки р
ка мер</w>
жден а</w>
on lin
попро бу
Р А</w>
or d
с ном</w>
отправ ля
кто ров</w>
m a</w>
у са</w>
откры тым</w>
ва теля</w>
По до
Ми р</w>
ро ванием</w>
приве л</w>
да ёт</w>
ron t</w>
жи вой</w>
виру с</w>
бе й
Ц Б</w>
ti n</w>
се сть</w>
ку да
колле дж</w>
вынуж дены</w>
Пер во
et s</w>
макси маль
ры бы</w>
принци п</w>
отсут ствия</w>
обяза ны</w>
ы ска
ад ца
ста рого</w>
интересу ет</w>
ря де</w>
раз мыш
направ ля
музе я</w>
де фи
По ло
Го ло
ad a</w>
ю но
тя тся</w>
при ехали</w>
заболе вания</w>
вен адца
уверен ность</w>
преступ ление</w>
попа ли</w>
итель ном</w>
Т они</w>
e k</w>
у бира
свобод ного</w>
нача лом</w>
лет ряс
и щу
дол л</w>
ati ve</w>
- b
сред ствами</w>
специали сты</w>
перен ос
el d</w>
7 00</w>
ру ющие</w>
за лож
мощ ь</w>
го в
Су дя</w>
Прав ления</w>
ю н
холод ной</w>
о пе
до клад</w>
J av
в хода</w>
Органи зация</w>
Д мит
h as</w>
очеред ной</w>
м ла
вед ении</w>
эпи де
уго л</w>
пер ви
определен но</w>
Р ен
Нью-Йор ка</w>
превы шает</w>
мониторин га</w>
добы чи</w>
л ени
собствен ность</w>
запла тить</w>
голо ва</w>
Д ра
под зем
вод ных</w>
С мер
Р им
Помни те</w>
сокра тить</w>
реш ению</w>
Са удо
спут нико
од ы</w>
м бу
грузови к</w>
сфе рах</w>
о ст
лест нице</w>
конкур с</w>
T o
J ourn
установ лен</w>
различи я</w>
государ ства
M ac
экспор т</w>
тру бку</w>
север е</w>
ку сок</w>
источ ника</w>
благодар ить</w>
те чении</w>
по сад
люд ях</w>
во шли</w>
ар мию</w>
Я н
У ай
Од ним</w>
приня тие</w>
отправи л</w>
ко али
вар д</w>
мини стров</w>
Ка ждая</w>
чи стой</w>
тури зма</w>
об лож
кле ток</w>
каж ите</w>
дерев ни</w>
воскресен ье</w>
вед ь
бо го
сами х</w>
долго е</w>
Зе лен
X IX</w>
работа ющих</w>
погиб ли</w>
ко рей
значитель ные</w>
бер у</w>
филь мы</w>
тя брь</w>
х нет</w>
ря ть</w>
поверх ность</w>
пере ехал</w>
отве та</w>
оказа ния</w>
за мени
M ot
представ ителями</w>
Т В</w>
s m
стрем ится</w>
мен ту</w>
зада чей</w>
ги м
s el
у слышал</w>
со едини
со действие</w>
с х
приобре сти</w>
владе лец</w>
Во- вторых</w>
сами м</w>
стои ло</w>
по кой
необходи мы</w>
лидер а</w>
кра я</w>
коман д</w>
вер не
авто рит
Л И
a h</w>
коман дой</w>
вше гося</w>
То ки
преимуще ство</w>
откры та</w>
грани ц</w>
гля ды
г с</w>
ис ключа
име ющих</w>
есте ственно</w>
включа ть</w>
озер о</w>
a j
0 5
та ль
ст ные</w>
откры тый</w>
способ ствует</w>
со образ
ри ей</w>
побед ить</w>
значитель ное</w>
вше йся</w>
настоя щим</w>
зача стую</w>
хоро ших</w>
прин цес
преступ лений</w>
наблюда ется</w>
де фици
в ити
Х ей
W eb
муж ей</w>
бо юсь</w>
помо гут</w>
Калифор ния</w>
Е ре
фестива ль</w>
рас се
нару ш
мн ений</w>
в ным</w>
боль но</w>
Ско рее</w>
Ма сса
восстанов ление</w>
C re
послед стви
реги он</w>
ня ли</w>
на верху</w>
Програм мы</w>
я ще
тра геди
аль ных</w>
И е
принима л</w>
поч ки</w>
обяза н</w>
ди на</w>
Хот ите</w>
Норве гии</w>
P C</w>
стар ший</w>
сооб ща
пи щи</w>
вынуж ден</w>
вос прия
Гон кон
ха м
у ю
стра ницу</w>
стан ций</w>
граду сов</w>
благосло в
ПР О
о ре
конкур се</w>
со ли</w>
разработ ку</w>
по ва
за метить</w>
за дума
a e
T echn
ново му</w>
живо тные</w>
Но во
хи й</w>
Лу ка
ком про
количе стве</w>
ро стом</w>
лекар ства</w>
ви вален
процен та</w>
про кура
граждан ских</w>
бо я</w>
Ц ар
обес поко
ней тра
из ло
го не</w>
бизне се</w>
Мини стр</w>
ri s</w>
196 1</w>
за н
e .html</w>
a ul
ю га</w>
эк спеди
ф ф</w>
выра жение</w>
современ ные</w>
ня м</w>
на бира
ющ е</w>
холо диль
са л
Це ль</w>
l ing</w>
приве ла</w>
да та</w>
груз ин
веще ства</w>
б ля
афро американцев</w>
Свя той</w>
Доб ав
Восто ка</w>
ro p
улуч шение</w>
в -
Всемир ного</w>
пла нов</w>
лич ного</w>
з ины</w>
вол ны</w>
возмож ностью</w>
i an
A f
пра вах</w>
органи зу
миллиар да</w>
ем ле
дела ете</w>
B est</w>
эк стреми
ш вей
чи в</w>
уда лить</w>
рас а</w>
н ков</w>
жерт ву</w>
Д эй
Б ИС</w>
суб си
модерни зации</w>
матер ью</w>
корен ные</w>
зор у</w>
за прав
важ ной</w>
Послед ний</w>
Запа да</w>
у чился</w>
призна ки</w>
ни сь</w>
наркоти ки</w>
Б ос
y ll
рожде ствен
раз реша
про ст
при ступ
по ду
ошиб ку</w>
о кажется</w>
ма х
кад ров</w>
вед ёт</w>
буты лку</w>
Интер нете</w>
З вез
стаби льность</w>
отде ления</w>
ма мы</w>
контак т</w>
до р</w>
ди ска</w>
N o
точ ный</w>
ша м
природ ных</w>
иты е</w>
экспер ты</w>
то вар
ден ный</w>
гово го</w>
а д</w>
in k</w>
Eng lish</w>
тр ю
предполага ет</w>
д жен
К лу
ч ом</w>
протоко ла</w>
при мени
при вер
представ лен</w>
на жа
ме бель</w>
голосо вания</w>
e y
шан сы</w>
чув ствует</w>
ти ны</w>
ста ро
подготов ку</w>
гости ницы</w>
вырази л</w>
ro w
по стара
несу т</w>
суббо ту</w>
север ной</w>
ре ке</w>
пара метров</w>
издели й</w>
докумен та
Ад министра
так ти
ме тро
кре по
в .
li f
сцен у</w>
пунк те</w>
us in
L ine</w>
пар тий</w>
гости ной</w>
ба за</w>
та бе
пон рав
Скаж ите</w>
зи т</w>
З и
ули цах</w>
кана ла</w>
ежедне вно</w>
Х оте
реаль ной</w>
прода вать</w>
Фрэн к</w>
Ва жно</w>
d ay</w>
N ational</w>
ша бло
находящи хся</w>
З А
196 5</w>
фи я</w>
са да</w>
па у
настоя щая</w>
на счёт</w>
к ей
Ба й
L t
эк вивален
реб ёнок</w>
про вёл</w>
вер нется</w>
r u
у брать</w>
преодоле ть</w>
поддерж кой</w>
корруп ции</w>
из ъ
забра л</w>
те ма</w>
связа на</w>
Цен тра</w>
3 0-
Х ью
М уз
насле дия</w>
ко вать</w>
обнару жи
изо ли
зна ком</w>
ез дить</w>
бо же
Th e
рабо чий</w>
Дэн ни</w>
А стане</w>
секре таря</w>
представ лена</w>
повы шен
оказа ть</w>
и но
дик та
ва ющего</w>
позволи л</w>
пи во</w>
безу словно</w>
ИР БИС</w>
i th
чен ной</w>
Ф ору
Б ур
s ub
a .
ст ры</w>
по су
лицен зии</w>
дополнитель ную</w>
Инте ре
ell a</w>
поезд ку</w>
мар ки</w>
журна ле</w>
дин г</w>
ох ла
золо та</w>
ж ке</w>
до ставля
во шел</w>
бе жать</w>
Па ле
та ться</w>
спаль ни</w>
при год
ва в</w>
Та и
соба ку</w>
правитель ств</w>
отде ление</w>
вс ки</w>
вет ра</w>
V al
тер ы</w>
к .</w>
Ф акти
Б ре
те ром</w>
сло ва
ма ри
вы па
ва ции</w>
Веро ятно</w>
расши рен
Тур к
M .</w>
стра хов
ба скет
Тур ция</w>
эксплуата цию</w>
ша гом</w>
узна ла</w>
столи це</w>
се м</w>
ни ческие</w>
на бо
н ётся</w>
Латин ской</w>
ex t</w>
A L
К ристи
F C</w>
ф она
рав ни
об следо
ни ться</w>
использо ванию</w>
in o</w>
A R</w>
про яви
пожа ло
зна ние</w>
днестро в
У част
ч но-
тю ре
тель ную</w>
при ста
милли он</w>
лан дия</w>
игра ла</w>
строй ка</w>
си льный</w>
развле ка
попро сить</w>
позволи ло</w>
лю с</w>
замен ить</w>
Ин доне
тка ни</w>
раз у
на конец-то</w>
В -
по ставок</w>
пере ход</w>
лан д</w>
кон тен
держ ки</w>
ва йтесь</w>
Вы с
J .</w>
G ol
несколь кими</w>
вы вать</w>
большин ством</w>
s w
2 9,
са ни
предлага ем</w>
получи лось</w>
оставля ет</w>
догово рен
атмосфер у</w>
О с
L a
разме ром</w>
пор та</w>
Казахстан ская</w>
D ev
турни р</w>
посмо трите</w>
гор ит
ве к</w>
In st
при езжа
оказыва ет</w>
весе ло</w>
Ф ар
Акаде мии</w>
C ity</w>
фи о
жи ма
Ма шина</w>
k er</w>
X X
прогре сса</w>
за фикси
графи я</w>
бле стя
состав а</w>
ли лись</w>
институ тов</w>
аль ные</w>
Наи более</w>
S i
процеду р</w>
жен ным</w>
выступа ть</w>
возмож ные</w>
S er
располо жена</w>
опу хо
чемпиона те</w>
указа ть</w>
сотрудниче ству</w>
попыта ться</w>
п ья
возмож ное</w>
а я</w>
ar i</w>
утвержда ют</w>
сти ческих</w>
стан цию</w>
скри п
рам ки</w>
поко ление</w>
под хода</w>
не ль</w>
в o
финансо вый</w>
т ль
на вод
ж итесь</w>
высо кая</w>
e x</w>
похо жи</w>
пациен та</w>
н a</w>
ли й</w>
щи л</w>
слыша ть</w>
рован ную</w>
лё н</w>
зем летряс
до бра
бе р</w>
Са мое</w>
in -
Po int</w>
чи сто</w>
выбира ть</w>
пуска ть</w>
пе даго
ниче ство</w>
клиен там</w>
запи сей</w>
Чер т</w>
За чем</w>
et y</w>
em p
согласи лся</w>
совер ша
зи ю</w>
жи лья</w>
в кла
Ра ди
К лин
ist a</w>
ты с</w>
тру бо
секре т</w>
предлага ют</w>
ми ей</w>
соответ ствие</w>
руковод ителей</w>
рован ными</w>
ри ф
реа би
ь ко</w>
про ходил</w>
одеж да</w>
меня ет</w>
верх ней</w>
ear s</w>
ста тей</w>
При меча
По- моему</w>
Дет и</w>
B ank</w>
библиоте ки</w>
Ближ нем</w>
фотографи я</w>
покло н
пита ние</w>
боль ных</w>
Пу тина</w>
На сколько</w>
Н .</w>
тек ста</w>
рубе жом</w>
из- под</w>
бе лого</w>
аде ква
Спи сок</w>
теле визион
сов па
при но
обла дают</w>
компонен тов</w>
исче за
воспиты вались</w>
Дэ ни
M od
м ным</w>
доро го
ди стри
вос хи
акти вы</w>
Европей ской</w>
Д Е
ing -
J .
196 6</w>
стри т</w>
си ю</w>
с пло
раз вер
име я</w>
энерги я</w>
много м</w>
З ву
че стве</w>
предыду щих</w>
могу ще
коло н
эффектив ной</w>
случа и</w>
р .</w>
пи ва</w>
окон чил</w>
лагер я</w>
ден ные</w>
Четы ре</w>
Ран ьше</w>
Произ вод
у ши</w>
у рок</w>
случа я</w>
результа там</w>
нача лу</w>
ко стью</w>
вид ение</w>
l d
Ph il
ё д</w>
повы шению</w>
ен ная</w>
до пу
ва ющим</w>
16 -
ю г</w>
ограни чений</w>
из начально</w>
С .
те атра
ней ро
мг нов
карьер ы</w>
занима ются</w>
га ют</w>
Хо ло
Воз мож
Б он
следо вало</w>
пол ков
отдох нуть</w>
кон соли
Бе лый</w>
S il
шта ны</w>
участи и</w>
помога ют</w>
гражда не</w>
гна ть</w>
Стра на</w>
A ir</w>
194 1</w>
ста во
времен ной</w>
w eb
i um</w>
D av
сцен ы</w>
реза ть</w>
отве чать</w>
но й
го ра
концеп ции</w>
до казыва
воен ный</w>
взгля нуть</w>
то ру</w>
т ках</w>
прожи вающие</w>
под ни
зво нил</w>
з му</w>
жден о</w>
Пер вые</w>
М эт
G o
ти мся</w>
пере имено
мо менты</w>
испол нения</w>
o ther</w>
196 4</w>
И гра
97 8-
ниче ского</w>
лагер е</w>
кро ше
доро гая</w>
автобу се</w>
Intern et</w>
с дви
пой мать</w>
одино кие</w>
визи т</w>
На ж
uc h</w>
on -
попы тка</w>
полити ческая</w>
бо ю</w>
h is</w>
оке ан</w>
обществен ной</w>
ли лось</w>
воен но-
Начи ная</w>
снаб жения</w>
от ры
м ная</w>
закон у</w>
дума й</w>
О пера
Ви кто
b r
экра н</w>
указа нных</w>
страхо вания</w>
прием ле
обра щаться</w>
шен о</w>
чита ла</w>
у хода</w>
тре мя</w>
долж ност
Ра спо
На зар
Bl ack</w>
симво л</w>
распреде ления</w>
л эр</w>
зву ко
вось ми</w>
укра л</w>
спосо бов</w>
полити ческим</w>
внеш них</w>
Р У
Коре и</w>
т ит
све жей</w>
лей тен
буду щих</w>
адре са</w>
Р я
Дж у
S .
фар ма
столи цы</w>
реак ции</w>
публи ку
y a</w>
у блю
м o
инициа тивы</w>
цион ном</w>
ле се</w>
СП О
сим пати
Уи лья
по года</w>
ок купа
ка ль
заключен ных</w>
я щих</w>
с мяг
реаль ность</w>
при бо
ока зывать</w>
нра вятся</w>
не семейные</w>
наз вания</w>
ле ку</w>
бер т</w>
Чер но
ti s
сп ину</w>
полож ений</w>
поез де</w>
ло сти</w>
ата ки</w>
h a
спосо бы</w>
смотре ла</w>
к ера</w>
ис це
Про да
устро ить</w>
транспор тных</w>
промышлен ных</w>
про двига
прия тель</w>
вши ми</w>
анали зи
Хва тит</w>
Х ил
С три
Д ес
поддержи вают</w>
обла стей</w>
про кат</w>
правитель ственных</w>
запу ска</w>
живо тное</w>
ж ны</w>
внутрен ние</w>
Ан ге
язы ком</w>
свой ства</w>
просты х</w>
орга на</w>
интер пре
ен ным</w>
Сер гей</w>
проек том</w>
про сматри
потреб ление</w>
понрави лось</w>
бро н
Подроб нее</w>
Е ванге
194 6</w>
уби вать</w>
у глуб
д не</w>
сы ном</w>
стату са</w>
до пусти
ак три
ува жения</w>
счаст ье</w>
при был</w>
ма мой</w>
кален дар
та ла</w>
неза муж
выпусти ла</w>
встре ч</w>
Христо с</w>
сай тов</w>
отлич ный</w>
Бал ти
продук цию</w>
находи лось</w>
ли в</w>
ж ут
ж но-
гор до
аль ного</w>
el y</w>
19 -
ш ери
пользо вания</w>
под ве
нес праведли
на вига
ка ла</w>
доказатель ств</w>
Stre et</w>
служа щих</w>
при ле
необходи мым</w>
ди но
1 1.
уро ки</w>
ран же
появ ления</w>
креди тов</w>
копи и</w>
гор но
П ять</w>
Мис с</w>
Ка кой</w>
v er</w>
хра м</w>
при бли
ден ных</w>
гу б
Ми стер</w>
Г ро
B ill
точ ке</w>
структу ре</w>
ж ите</w>
j ust</w>
стратеги я</w>
предме т</w>
ищ у</w>
арен ду</w>
Ри ме</w>
приня т</w>
на рисо
ка мере</w>
за ря
би летов</w>
Ва лен
3 0,
то ре</w>
полни тельно</w>
дополнитель ной</w>
спек так
на лич
мо ими</w>
десятиле тий</w>
уголо к</w>
сты е</w>
отвер сти
ки -
за кро
дерев ьев</w>
B ri
мальчи ков</w>
м ита</w>
д ным</w>
Су д</w>
С И
Коре я</w>
Ка ро
ig n
ци ан
пожи лые</w>
бо ну
Кана ды</w>
Tim e</w>
H el
приме т</w>
за ново</w>
ду хе</w>
га зе
St ation</w>
хозяй ство</w>
т та</w>
со крови
по являются</w>
по в
муж чину</w>
Ра ди</w>
И наче</w>
an e</w>
раз га
производ ить</w>
экс клюзи
сто ле
по це
ма три
коло ни
др .</w>
де -
W in
понима ют</w>
кок тей
кладби ще</w>
запа де</w>
194 2</w>
тель ными</w>
стра ха</w>
ров ке</w>
де ба
га пу
Площа дь</w>
Девуш ка</w>
тыся че
ри сков</w>
полити ческую</w>
плат формы</w>
отра жает</w>
Хель син
ОО О</w>
ядер ных</w>
рас положение</w>
еписко п</w>
ви ча</w>
Са мый</w>
тен ь</w>
слу хи</w>
посте ль</w>
ос вещ
интер нете</w>
е да</w>
бога тых</w>
Р эй
C -
многочис ленных</w>
кар мане</w>
quo t</w>
amil y</w>
управ лении</w>
у -
прогре ется</w>
от цу</w>
обо га
гру дь</w>
Мар к</w>
st er</w>
чемпиона та</w>
пе чь</w>
конфлик тов</w>
и ных</w>
ери я</w>
встре тились</w>
Б О
c es</w>
T el
состо яв
разви вать</w>
жела ет</w>
еди ного</w>
Л ь
темно те</w>
G er
щи ком</w>
у регули
профессиональ ной</w>
поло тен
ня тся</w>
Филь м</w>
Кре м
S O
Ex p
ско пи
посмо три</w>
двига тель</w>
Л ар
g en
си ле</w>
под стре
лёг кий</w>
Л А
у чи
су э
стандар ты</w>
спас ения</w>
ресур сами</w>
рас стро
подписа ли</w>
площад ью</w>
за цией</w>
дет стве</w>
вечерин ке</w>
вариан тов</w>
щен ная</w>
отпу ск</w>
иска л</w>
день гами</w>
азиа ты</w>
Н ур
Ва ми</w>
шен ко</w>
слабы й</w>
ре д</w>
науч иться</w>
ле ю</w>
Г И
финансо вую</w>
фак торы</w>
свадь бы</w>
прово да</w>
пля ж</w>
зо о
Й о
тенден ции</w>
роз ни
не со
шу юся</w>
пере хода</w>
международ ными</w>
за дать</w>
Раз вити
эффектив ного</w>
т o
стре ль
сте ром</w>
му -то</w>
в ти
C H
функ ция</w>
фестива ля</w>
сосредо точ
пи к
объедин ения</w>
низ ма</w>
надеж ду</w>
коман до
какой -нибудь</w>
к ня
при зем
п ени
ло сть</w>
ис ку
свобо де</w>
рас счита
охра не</w>
Г А
ци р
сы нов
про дав
лю бая</w>
де ви
про щения</w>
пло до
ль ской</w>
го вых</w>
вто рым</w>
Поч ти</w>
en -
согласи е</w>
радо сть</w>
отде льно</w>
меся цы</w>
С лы
onlin e-
O ut
фон дов</w>
учени ков</w>
по соб
осно вы</w>
не жели</w>
консульта н
вед ению</w>
путеше ствия</w>
отправ иться</w>
н с</w>
ми лая</w>
вы ш
протоко л</w>
насла диться</w>
мно гими</w>
жа т</w>
да ту</w>
Ex change</w>
при нес</w>
потер ять</w>
Ста тья</w>
T ur
B C</w>
суд ья</w>
разработ ка</w>
не вероятно</w>
м са</w>
Коро ле
то чек</w>
пре крати
под де
отчет ность</w>
диало га</w>
а к</w>
О де
R ed</w>
пра вос
йд я</w>
за ставил</w>
ва ющая</w>
re g
финансо вая</w>
продолжа ется</w>
при ехать</w>
нача льник</w>
дефи ц
брони рование</w>
В он</w>
6 0
тради ционных</w>
ри ев</w>
програм мное</w>
дене жных</w>
види мому</w>
взры ва</w>
Стра те
тер ми
стандар там</w>
потеря ла</w>
16 0</w>
ша р
фору ма</w>
отка з</w>
дне вной</w>
выбра ли</w>
Ира ка</w>
f ri
O R
ь тесь</w>
ход я</w>
спи т</w>
самы ми</w>
ле д</w>
Все ленной</w>
работо да
пре м
мен ы</w>
забра ли</w>
а мби
правитель ству</w>
пере д
з ло</w>
брать ев</w>
Ду ха</w>
u tion</w>
хло п
Ан ти
по раз
пе ш
ни что</w>
мужи к</w>
L ib
J o
ут рен
рас ста
де ду
восто р
w ould</w>
U N
ро к
и стре
го р</w>
el op
d o
х ан
ста ре
предлож ений</w>
о дол
нор мы</w>
ли цам</w>
ди лись</w>
ге рой</w>
выро сла</w>
Ав стрии</w>
прика з</w>
д венадца
Возь ми</w>
Ат ланти
oph yll
ро ман</w>
проис ходят</w>
про ходить</w>
коллек ции</w>
й л</w>
американ ская</w>
адвока т</w>
Пер вой</w>
196 3</w>
у полномо
тех ника</w>
ремон т</w>
рейтин г</w>
продолжа л</w>
похо жа</w>
жа н</w>
еди ной</w>
выраз ить</w>
Тома с</w>
Солн це</w>
П я
ё с</w>
треть ем</w>
сла вы</w>
оп позиции</w>
Оба ма</w>
Бу д
196 2</w>
тив ном</w>
пользова тель
обнару жения</w>
зад нем</w>
следу ют</w>
мани пу
T P</w>
L -
сдела ны</w>
отсут ствует</w>
о пира
У ров
си ло
сде лок</w>
коммер ческих</w>
верну л</w>
Ан то
чув ствовала</w>
чер ту</w>
това ра</w>
ри ка</w>
реаль ного</w>
рас смот
ма кро
индей цы</w>
По мо
- членов</w>
фоку си
полномо чий</w>
от дал</w>
мест у</w>
журнали стов</w>
грани це</w>
ву л
Факти чески</w>
студен ты</w>
диску сси
выпла ты</w>
Э нер
Поль ше</w>
Пар к</w>
op le</w>
стре лять</w>
одиноч ку</w>
g o
Ar ch
яко бы</w>
фу тов</w>
сти ки</w>
предлага ется</w>
ли ком</w>
законодатель ством</w>
ал горит
Си ль
ство вало</w>
пе л</w>
дости жение</w>
Смо три</w>
чен ным</w>
уда ления</w>
ту и
ссы лки</w>
се сси
приме ром</w>
встреча ется</w>
аппара т</w>
Т ра
участ ка</w>
при во
д зю
внед рения</w>
Франци ско</w>
a p</w>
умень шить</w>
ac c
вто рую</w>
возмож ностями</w>
слож ных</w>
раз ум</w>
пол ным</w>
куль п
кори чне
двер ью</w>
соедин ение</w>
сни зить</w>
систе мах</w>
мя со</w>
лоша дь</w>
19 40</w>
фла г</w>
производ ится</w>
общ ины</w>
е ром</w>
О й</w>
кру то</w>
Де ла
is m</w>
S S
цик ла</w>
предме ты</w>
магази нов</w>
физи ческих</w>
справедли вости</w>
гаран тии</w>
С пас
Ма рия</w>
H ig
я ро
уч ителя</w>
о кра
не определен
муниципалит ет</w>
лежа т</w>
Бы ла</w>
спаль не</w>
ку ча</w>
ак тё
p er</w>
ха ть</w>
рак ет
опреде ляется</w>
до говор
ва ль
Ев рази
ра диа
от у</w>
мат ч</w>
в ную</w>
а ле</w>
Сер би
С А
Н иг
Ме две
wh ich</w>
филосо фии</w>
не которым</w>
ля т</w>
ка над
ба на
ю жной</w>
сту п</w>
стоя ние</w>
сви дание</w>
испыта ния</w>
жа й</w>
ophyll um</w>
уров ней</w>
су до
россий ские</w>
премьер- министра</w>
к нов
важ нее</w>
eb ook</w>
ри ски</w>
расстоя ние</w>
по дать</w>
откры той</w>
му сор
Сли шком</w>
P ri
ре ме
распоря жении</w>
Ра з</w>
l in</w>
э ваку
производ ительность</w>
обстоя тельства</w>
иден ти
доступ на</w>
Л ен
US B</w>
эф фици
че р</w>
став ь</w>
сдела ем</w>
отды х</w>
о со
наси лие</w>
к a
доста ть</w>
Послед ние</w>
це ден
покупа ть</w>
осуществ ить</w>
online- game</w>
g o</w>
проис ходило</w>
побереж ья</w>
осуществ ление</w>
извест ные</w>
Север ная</w>
Н Д
Б из
при носит</w>
карти на</w>
й о</w>
Ки п
tain ment</w>
H ow</w>
разно гла
кого -либо</w>
близ и</w>
куль туре</w>
го л
П ы
usin ess</w>
сыгра ть</w>
совмест ной</w>
право вой</w>
по близости</w>
парков ка</w>
объе ме</w>
каж и</w>
Ма т
Вьет на
Ве га
сцена рий</w>
он лай
молоды е</w>
досту пен</w>
с мени
под ключения</w>
незамуж ние</w>
не совершен
совер шить</w>
реаби лита
прави льный</w>
бо ли
бер ут</w>
Луч ший</w>
h am</w>
I -
реаль ном</w>
кварта л</w>
l er</w>
Cl ub</w>
м 2</w>
ку ли
долла ра</w>
Э ми</w>
Совет ского</w>
физи ческой</w>
потреб итель
не измен
зерка ло</w>
вс помнить</w>
вс кры
аль ян
Токи о</w>
Основ ные</w>
is ch
I P-
учен ые</w>
пред положить</w>
об зор</w>
й ного</w>
выступ ление</w>
бу н
Bul b
ши шь</w>
ма ме</w>
бо ло
Хор ва
М ес
формиро вание</w>
уров ню</w>
ре шает</w>
пло хие</w>
перен е
люб ите</w>
ко миссия</w>
заканчи вается</w>
V ol</w>
жда ли</w>
Р э
c ar
Ac c
созда ют</w>
обу ви</w>
бле н</w>
Бе н</w>
X P</w>
Bl u
ро жден
попу ляции</w>
нача лись</w>
копи ю</w>
заседа ние</w>
2- 3</w>
тера пии</w>
отме чает</w>
низ кой</w>
девуш ке</w>
Г ц</w>
p ort
сколь з
ер у</w>
Бы ли</w>
юри с
сты й</w>
расшир ить</w>
за и
да -
вечерин ки</w>
Сен т-
M il
18 -
шоко ла
су ди
пти цы</w>
примен ять</w>
пода чи</w>
на ла
действи ем</w>
г o</w>
вра ча</w>
Дж ей</w>
yp e</w>
Bulb ophyllum</w>
чёр ных</w>
у э
разме ров</w>
пре ссии</w>
на ле
ма лых</w>
корре спонден
заме тили</w>
у га
род ного</w>
религиоз ных</w>
об услов
испол нение</w>
докла де</w>
вы ступил</w>
культур ного</w>
женщи не</w>
выпу щена</w>
актив ность</w>
Использо вание</w>
A .
ы ми</w>
Со здание</w>
Запа д</w>
франц у
теат ре</w>
стра ница</w>
ря ды</w>
лик вид
извест ны</w>
at or</w>
19 50</w>
циф ры</w>
еже днев
до е</w>
Ча сть</w>
П А
2 C
сти пен
с право
пробле мам</w>
ки на</w>
z z
ща ются</w>
цен ность</w>
сло жи
архитек туры</w>
Библи и</w>
lo w</w>
O n</w>
M at
сме ш
вопро се</w>
У ор
Са ра</w>
ль ского</w>
an k
S M
участ никами</w>
т. д</w>
с су</w>
раз работать</w>
изда ние</w>
золо той</w>
бир жа</w>
Вто рая</w>
o x</w>
уч ить</w>
страда ния</w>
недвижи мость</w>
международ ное</w>
бро сили</w>
Ка и
re s</w>
предъ яв
познаком иться</w>
награ ду</w>
лод ке</w>
гон ки</w>
ор а</w>
заня т</w>
деся тки</w>
вер тика
астро но
T ri
I E
подвер г
H ot</w>
чен ного</w>
само лёт</w>
пре цеден
по хит
Университ ета</w>
Но вые</w>
n i
при им
пак ета</w>
коммуника ций</w>
ко вы</w>
вы ходить</w>
Ра нее</w>
О жи
К ер
програм мой</w>
краси вая</w>
ди ло</w>
го вые</w>
По ня
чемпиона т</w>
у став
рекла мы</w>
ле со
изде лия</w>
зада ние</w>
годо в
бро си
Л Е
экспер т</w>
состоя лось</w>
во шла</w>
Син гапу
Дж ули
C D
я ться</w>
тео рия</w>
кры ше</w>
использо ваны</w>
жен е</w>
же б
Ка кие</w>
у ехал</w>
за ле
Bill board</w>
3 4
сум ку</w>
собра лись</w>
раз да
он у</w>
t -
A D
194 8</w>
член ам</w>
с бы
под пис
ма стер</w>
грани цей</w>
По со
Дан ные</w>
Да ни
s u
ort h</w>
су дить</w>
сосе дей</w>
про чих</w>
откры вает</w>
инвести ционных</w>
Ч ува
Tim es</w>
Lt d</w>
свидетель ствует</w>
подроб но</w>
зву ка</w>
заме ша
дизай на</w>
профессиональ ных</w>
л з</w>
афро американцы</w>
Г К
язы чные</w>
воспомина ния</w>
Крас ный</w>
Институ та</w>
региональ ного</w>
пля жа</w>
осуществ ляет</w>
необходи ма</w>
мас ло</w>
воен но
Ц и
t o
e ar</w>
ц кий</w>
у ку
с бор</w>
па роль</w>
от ста
ме м</w>
кораб ле</w>
дерев ья</w>
Испа ния</w>
Воз раст
or g
L E
чу дови
Ха ма
S am
улы ба
провод ятся</w>
призна ния</w>
партнер ства</w>
официаль ных</w>
маши ной</w>
й ка</w>
Х ра
сня л</w>
по ку
об щим</w>
на хо
заказа ть</w>
ве ков</w>
По пробу
Институ т</w>
al es</w>
P ort
ш вили</w>
проек ту</w>
но г
науч ной</w>
жи лье</w>
держа л</w>
вра га</w>
И ва
Би лл</w>
D .</w>
ч ко</w>
удоб ства</w>
уве ли
кам ни</w>
из ну
годо вых</w>
вы шло</w>
воспиты вали</w>
воору женных</w>
Journ al</w>
со обра
в клад
20 20</w>
те сно</w>
рен е
подразде ления</w>
жу т</w>
департа мента</w>
бир же
s up
тер пи
при способ
пра вы</w>
заня тий</w>
Н ПО</w>
m od
ic ation</w>
ша гов</w>
ч ны</w>
оте лей</w>
от рав
неожидан но</w>
жени лся</w>
гне з
За кона</w>
bo x</w>
195 8</w>
убий цы</w>
ст .</w>
объ ем
Председа тель</w>
Един ственный</w>
or a</w>
j o
em ber</w>
част ной</w>
футбо л</w>
упа ла</w>
до е
д ное</w>
ве е</w>
бе зна
Ри чар
um m
физи ки</w>
прош лый</w>
просты е</w>
оста вался</w>
люби мый</w>
in f
h ist
предотвра щения</w>
нор м</w>
институ циональ
ве сной</w>
ве ли</w>
i Phone</w>
с пуска
непода леку</w>
Э тим</w>
Не зависи
К П
Вели кой</w>
un e</w>
r is
8 7
3 D</w>
равен ства</w>
Го лу
y le</w>
ф ит
при зывает</w>
Иг ра</w>
Генера льный</w>
Бу ш</w>
не вест
механиз мов</w>
Ф И
- p
экра на</w>
трен ер</w>
рыно чной</w>
дости гли</w>
С ад
Понима ешь</w>
Дж ес
Азербайджа н</w>
су дя</w>
применя ется</w>
н цы</w>
зо ром</w>
аресто ван</w>
Й е
Ви ди
Ба ку</w>
and s</w>
фак тором</w>
со ль</w>
систе мати
секун ды</w>
пу тей</w>
прокуро ра</w>
ду ха</w>
восто ка</w>
Я сно</w>
экспер ти
по иско
мла ден
зу бы</w>
Э рик</w>
Наж мите</w>
ру йте</w>
пуст ите</w>
из бы
гри п
б род
s .
счаст ья</w>
обы чных</w>
ли це
европей ские</w>
г реб
высо те</w>
До ма</w>
Га м
P i
прово ци
мо на</w>
дело вых</w>
у шли</w>
провод ят</w>
мужчи ной</w>
ль го
вс кую</w>
194 7</w>
ц уз
результа та</w>
рассмот рения</w>
за то
вы жить</w>
In c</w>
ч ёт</w>
Кри с</w>
Su ite</w>
фор д</w>
учиты вать</w>
т кну
собира етесь</w>
ве са</w>
вариан ты</w>
отпеча тки</w>
ка нали
к ла</w>
город ского</w>
vi ew</w>
Ins tit
ш тор
хоро шую</w>
пер ёд</w>
види мо</w>
Г лу
пользова тель</w>
ло жил</w>
тер мин</w>
сти ческого</w>
пре мию</w>
посе тил</w>
пи я</w>
н o
дефици т</w>
Мекси ке</w>
эпо хи</w>
на сы
купи ла</w>
Т И
Оба мы</w>
Бу дь</w>
удоволь ствием</w>
тив ными</w>
произ вести</w>
от личи
номе рах</w>
ап те
Рабо та</w>
четыр ёх</w>
ч ков</w>
счита ем</w>
промышлен ность</w>
мест ным</w>
выгля дят</w>
Я в
Газ про
узна ет</w>
табли це</w>
произ водит</w>
рус ский</w>
ре ферен
жи лых</w>
ви к</w>
Хельсин ки</w>
Фи ла
рен ы</w>
Лос-Андже лесе</w>
проис ше
настро ение</w>
менедже р</w>
медицин ского</w>
ко ди
ж ити
вступ ления</w>
бур жу
Ф ун
По стоян
шен ный</w>
слу га</w>
с мар
пользова тели</w>
освобод ить</w>
жиз не
встре тить</w>
М ит
щел кните</w>
суще ствовать</w>
ста х</w>
сни м
каса ющиеся</w>
го рах</w>
К вар
шоко лад
храни ли
установ лены</w>
пред ставил</w>
з ь</w>
ша ри
при вати
Эсто нии</w>
нару шений</w>
мор ского</w>
ли лась</w>
земе ль</w>
женщи нами</w>
возь му</w>
Са мо
С оби
Ко миссия</w>
Возраст ной</w>
5 0-
фика ция</w>
не вер
л ках</w>
Дополнитель ные</w>
N ov
холо дильник</w>
с ны</w>
ре ку</w>
разме щение</w>
оцен кам</w>
кажу тся</w>
жа нт</w>
го на</w>
Университ ет</w>
s ol
An g
стек ла</w>
позволи ли</w>
настро ении</w>
до н
V ista</w>
хле б</w>
по шёл</w>
жерт вой</w>
дет ской</w>
Р ез
Бер лине</w>
ar m
ству йте</w>
получи шь</w>
низ м</w>
не большая</w>
быстро го</w>
ту ф
ситуа циях</w>
игро ка</w>
за пустить</w>
М К
ar a</w>
совмест ных</w>
с хо
поме щения</w>
подо ждать</w>
ж на</w>
И дите</w>
B as
194 3</w>
ти сь</w>
счита ли</w>
постоян ного</w>
по меня
ко вый</w>
диа лог</w>
во е
Ч Е
Фран цуз
ча ло</w>
принци пе</w>
нач нется</w>
га на</w>
вед я</w>
Дру гими</w>
Амери ку</w>
H y
сек са</w>
реш ет
обра тной</w>
аспек ты</w>
А ви
V ideo</w>
KZ 2C
ш ками</w>
угро за</w>
уваж ение</w>
у видишь</w>
сосе ди</w>
попы тке</w>
значитель ный</w>
болез ней</w>
ь десят</w>
цо в
у сь</w>
у совершенство
сте й
си н</w>
поез да</w>
подготов ка</w>
и рак
вы ставо
аль -
Т ар
Б рен
Pub lish
сро чно</w>
лож ь</w>
бе лье</w>
СТ В
2 1-
у ехать</w>
ста рая</w>
присут ствии</w>
немец кий</w>
лоша ди</w>
изобре т
R om
195 9</w>
195 6</w>
ст ный</w>
отче ты</w>
о дея
в близи</w>
бло к</w>
Поль зова
От ца</w>
W ar</w>
чай ник</w>
ули ки</w>
смеша нных</w>
послед нем</w>
охра ни
кафе д
Жиз нь</w>
я л</w>
чт ения</w>
ря ет</w>
помо гли</w>
дав лением</w>
веб- сайте</w>
аген та</w>
Ира к</w>
Джор джа</w>
00 00
экра ном</w>
точ ности</w>
прес сы</w>
под ра
in e
с кульп
при мере</w>
предме тов</w>
обра щение</w>
направ ленных</w>
Не давно</w>
четвер г</w>
поде литься</w>
откры ты</w>
кана ле</w>
Т ей
Ан дер
на став
цент ры</w>
ха ми</w>
ха м</w>
строитель стве</w>
председа телем</w>
орди ни
опа са
не большое</w>
за н</w>
гра б
выпу ске</w>
вод итель</w>
бер ку
Э того</w>
Джей н</w>
oo d
пере ехала</w>
обеспечи вают</w>
ген дер
раст ения</w>
п се
не бес
на кло
завер ши
гости ниц</w>
Ре сто
ub e</w>
P an
H P</w>
си лах</w>
Ра зу
S ing
полно цен
поддержа ния</w>
а ки
С тив
О бла
М ного</w>
ш -
тро ну
рас су
пользова телям</w>
0 4
работа ем</w>
груп по
ак се
у ле
расположен ный</w>
под писы
гаранти ровать</w>
Турк мени
Д ис
lo ve</w>
h el
C S
следу ющую</w>
пер а</w>
механиз мы</w>
вла стью</w>
М ей
19 17</w>
у кры
се вер</w>
У би
сто летия</w>
ры б
от вез
ор б
бо тин
en a</w>
тру д</w>
ны -
к в.
зр ителей</w>
чрез мер
предска зу
не -
бо сс</w>
библиоте ке</w>
Кар л</w>
B ur
техни ческие</w>
с ми
н o</w>
ме ти
вер и</w>
аресто ваны</w>
193 3</w>
с ходить</w>
ры ва</w>
поме щение</w>
по го
куль тур</w>
вы ки
Венг рии</w>
V ir
шко лах</w>
нен о</w>
интеллектуаль ной</w>
и ми
довер ять</w>
держ ка</w>
во ле</w>
form ation</w>
челове ческих</w>
фир ма</w>
понрав ится</w>
плани ру
на нес
зада чу</w>
С А</w>
c re
C o</w>
торго вый</w>
табли цы</w>
ста рей
определен ной</w>
медици ны</w>
ли ний</w>
заключ ении</w>
По смотри</w>
оконча тельно</w>
ле вых</w>
Мар тин</w>
Г э
angu age</w>
P- L</w>
соответству ющей</w>
распростра няется</w>
площад ке</w>
моби льных</w>
f re
те т</w>
согла сен</w>
работа ешь</w>
произо йти</w>
надея ться</w>
й ной</w>
интерфей с</w>
живе м</w>
ди ско
призна ков</w>
полице йских</w>
направ лены</w>
тво ём</w>
про сит</w>
посмотре л</w>
клады вать</w>
ва емой</w>
бю ро
треть их</w>
суще ства</w>
сло й</w>
производ ственных</w>
привле чения</w>
пе шком</w>
ля тся</w>
кли на
Р С</w>
пиш ите</w>
корре кти
зи мой</w>
Пет ро
И ор
n ey</w>
то сть</w>
тек сто
представля ется</w>
наркоти ками</w>
м но</w>
ите тов</w>
Л И</w>
um e</w>
щен ного</w>
ствен ность</w>
собира лась</w>
за хочет</w>
го мо
аген тов</w>
Чемпи она
Кла рк</w>
ik e</w>
рус ском</w>
приходи л</w>
побе да</w>
п ки</w>
не больших</w>
Х ен
w ell</w>
G ame</w>
ре ка</w>
площад ка</w>
на гре
консульта ции</w>
име ющие</w>
до мен
детекти в</w>
ill a</w>
шу т</w>
собира ть</w>
пригла сил</w>
отвра т
на прави
люби ла</w>
ликви дации</w>
кра са
готов ить</w>
ги пер
O f</w>
L u
случа ется</w>
слу жеб
реаль ные</w>
рас строй
разнообрази я</w>
про бо
выро сли</w>
ва ешься</w>
актив ное</w>
администра ция</w>
um b
S ystem</w>
2 5-
чер но
ф ри
то вые</w>
свобод ное</w>
лит а</w>
игро ки</w>
вок зала</w>
балан са</w>
Л ис
Ка раба
Един ственное</w>
стро ки</w>
современ ном</w>
мальчи ки</w>
логи я</w>
М М
14 -
ё р</w>
чер та</w>
че мо
ска х</w>
сиг нали
свадь бу</w>
прогу лки</w>
пер ча
и поте
вы годы</w>
бе ль
форма т</w>
то вый</w>
стоя ла</w>
отправи ли</w>
зелен ый</w>
запад ных</w>
I F
экономи ческое</w>
стратеги ю</w>
си льные</w>
расту т</w>
про слуши
не ба</w>
ло ги</w>
жа л
ба н</w>
б би</w>
Конститу ции</w>
Воз враща
ст ного</w>
спа с</w>
си жу</w>
оши бо
звез д</w>
з вен
владе ет</w>
ба м</w>
Ю го-
Ч или</w>
т ками</w>
сообщи ла</w>
ре конструкции</w>
прав де</w>
получен ные</w>
по че
пере ход
му д
ль ника</w>
вы шед
d u</w>
стои мостью</w>
собствен ным</w>
род ителями</w>
напит ки</w>
мя са</w>
запре щено</w>
фарма це
парт нера</w>
обы чный</w>
но вей
ко па
быст рый</w>
Лю бой</w>
Ко со
a x</w>
счита ете</w>
полити кой</w>
ме ша
истори ческих</w>
О тели</w>
M an</w>
понеде льник</w>
У видимся</w>
Израи ле</w>
чен ность</w>
к ция</w>
га стро
in i</w>
199 0-х</w>
ра на</w>
ра ко
объ единен
любо пы
извест на</w>
за работать</w>
бли ж
О Э
Wil li
Par k</w>
A ut
го ре</w>
газ ета</w>
в во
Го лливу
ur y</w>
er r
рассказыва л</w>
н e</w>
ли цами</w>
зло употреб
Сле до
Май к</w>
itt le</w>
те ме</w>
с жа
прожи вает</w>
д ку</w>
Про то
це лую</w>
прав ды</w>
пра вед
откры том</w>
освобо ждения</w>
кир пи
вя т</w>
Интерне т-
on ic</w>
li c</w>
ш ю
телевид ение</w>
стек ло</w>
ком мен
и ном</w>
дела ми</w>
во обще-то</w>
Г рин
ч ники</w>
успе хом</w>
со держится</w>
оста ётся</w>
науч ные</w>
законодатель ство</w>
д рай
груп пами</w>
бра узе
Теха с</w>
Г али
Би лли</w>
Ma c</w>
Cor por
17 -
ф -
сегодняш него</w>
по теп
дж ун
государ ств
в ступа
О л
На с</w>
Г -
счастли в</w>
н но</w>
за была</w>
бы е</w>
бра том</w>
Эн др
Rem ix</w>
тя жё
се ро
се ан
lob al</w>
характеристи ки</w>
ти ям</w>
спа ла</w>
раз ными</w>
пусты не</w>
отно си
А эро
........ ........
экономи ческим</w>
постро ена</w>
ко сме
доб ро</w>
дево чку</w>
д ди</w>
выра жения</w>
англи йского</w>
195 7</w>
прит воря
капита на</w>
вну три
а ду</w>
состави т</w>
собствен ное</w>
затра ги
Поль ши</w>
я щие</w>
центра льного</w>
теп ло</w>
сдела н</w>
ры ми</w>
принадлежа т</w>
за я
вз но
бы вших</w>
wor ld</w>
уча ствует</w>
сва деб
рус ских</w>
па то
оши ба
ни щ
конкре тные</w>
безработи цы</w>
эк стра
хо го</w>
фаль ши
профессиональ ного</w>
полице йский</w>
по- другому</w>
не о
нач нет</w>
на зывать</w>
ме кси
бло н
IS O</w>
I A</w>
храни лище</w>
судь ба</w>
смот рят</w>
ожи в
наказа ния</w>
извест ного</w>
из а</w>
У тром</w>
турни ре</w>
сотрудни чать</w>
сло вом</w>
обу вь</w>
да ма</w>
апарта менты</w>
J ap
уби вает</w>
торгово го</w>
табле тки</w>
сыгра л</w>
суще ство</w>
сохран ение</w>
воз му
Джи мми</w>
серви с</w>
россий ский</w>
расска жу</w>
оп пози
обнару жить</w>
необходи мое</w>
А ра
фур гон</w>
то вого</w>
си льным</w>
си дела</w>
реали зацию</w>
развед ки</w>
р ение</w>
практи ка</w>
адвока та</w>
Ст эн
19 18</w>
установ ления</w>
появи лось</w>
подтвер дил</w>
по благодарить</w>
отлича ются</w>
от ре
опублико вал</w>
но гами</w>
наз вали</w>
муз ее</w>
е вой</w>
Вене суэ
ou s
ec tr
X X</w>
профес сора</w>
пробле ме</w>
предупре ждения</w>
не лега
м ни</w>
времен ного</w>
Сло ва
Види мо</w>
эк замен
ш ко</w>
та ин
оста не
короб ку</w>
Сол не
ti f
электро нных</w>
чувству ешь</w>
спек тр</w>
реак ция</w>
игра ю</w>
дви жу
га вай
боль ной</w>
y r
Cent er</w>
шен ные</w>
цион ными</w>
си й</w>
опас но</w>
мас ла</w>
ир ланд
E M
худож ников</w>
стре ля
е мость</w>
досто вер
вру чную</w>
Чува к</w>
С -
Го сти</w>
b ack</w>
судь и</w>
премьер- министр</w>
останов ка</w>
кры ль
в че
бра ка</w>
ту берку
лич ная</w>
вмеша тельства</w>
способ на</w>
рас писа
мер з
клас сов</w>
c or
Ch ar
объе мов</w>
бро сила</w>
а три
Сот руд
Аль бом</w>
сто не</w>
реали зова
ит ен
жили щ
д ё
го ст
туа лете</w>
су л
пре р
отче тов</w>
мо сков
да ться</w>
в a
Ad v
принима я</w>
поря до
ожи дает</w>
мест ном</w>
за ба
достиг ла</w>
Эд ди</w>
Испано язычные</w>
Из вест
управ ляет</w>
про ходили</w>
едини ц</w>
гото вил</w>
I sl
хо к
х рен
сра жа
ри са</w>
пусти ла</w>
промышлен ного</w>
от деле</w>
латино американцы</w>
живо пис
га зов</w>
восто к</w>
ro om</w>
та ют</w>
мощ ность</w>
д нее</w>
внутрен ний</w>
Со вер
at ure</w>
B el
х ен
услу гами</w>
с сом</w>
прогре сси
диапа зону</w>
дела ется</w>
бар ди
актив ных</w>
М ы
х лад
соблюд ения</w>
пол часа</w>
осен ью</w>
колле джа</w>
иско па
за блоки
аль ная</w>
шту ка</w>
у воль
ссы ла
й скую</w>
инструк ции</w>
из луч
из ба
же чь</w>
ди в
убий ств</w>
присо един
парла мент</w>
компьютер ы</w>
дискримина ции</w>
Пор а</w>
ar s</w>
P L
Americ a</w>
част ные</w>
снима ть</w>
само лета</w>
при лага
неодно кратно</w>
ма лого</w>
зи на</w>
бра тья</w>
С тран
Кита ем</w>
Ин вести
Вар ша
титу л</w>
террито рий</w>
ст ных</w>
со ро
сери ю</w>
по сту
луч шую</w>
контак ты</w>
ко эффици
ист ину</w>
выступа л</w>
вер ят</w>
уч итель</w>
стеро и
общ ение</w>
любы м</w>
ищу т</w>
изуча ть</w>
зарубе жных</w>
Ге ор
стер и
содержа т</w>
по бу
ново к</w>
мо ря
г- н</w>
ad y</w>
A -
0 7
эле ган
рова ло</w>
рова лась</w>
ро вок</w>
разру ш
встреча ться</w>
архитек тур
Х А
К ля
S al
IB M</w>
умира ет</w>
след ствие</w>
ак ку
С тен
1 3-
эксперимен та
ра ш
пере вода</w>
оста н
нало ги</w>
исход я</w>
дума ем</w>
встре тился</w>
внима тельно</w>
Ко л
моло ка</w>
изобра жений</w>
D N
стави м</w>
ст ка</w>
ль ям</w>
за голов
те лом</w>
сыр ья</w>
промышлен ной</w>
ме шок</w>
крова тью</w>
извест ной</w>
дет ства</w>
пози ций</w>
ологи и</w>
мо нии</w>
бом бы</w>
бое вых</w>
а ка
ше ю</w>
пре ры
парт нё
ль но-
контак тов</w>
женщи нам</w>
дре ве
процен т</w>
объяви ла</w>
о писан
куль тура</w>
К ем
193 5</w>
эффектив ным</w>
радо сти</w>
празд ни
обра тить</w>
ней ших</w>
на сто
в стать</w>
ша р</w>
точ ной</w>
со тен</w>
произо шед
прода л</w>
пар тию</w>
ну лись</w>
нач нут</w>
кли мати
Р им</w>
Ви д</w>
ell o</w>
E r
сы лки</w>
специаль ный</w>
слы шу</w>
предоставля ть</w>
кра ю</w>
кани ку
ба таре
Му зы
Джер си</w>
худож ник</w>
уг лом</w>
предусматри вает</w>
ве тера
Мак си
l ang</w>
195 3</w>
са бо
па р</w>
националь ным</w>
напад ение</w>
жде б
государствен ным</w>
Лондо на</w>
Глав ное</w>
bas ed</w>
сто ло
соответству ющего</w>
пом ним</w>
о пере
влия нием</w>
автомоби ли</w>
Эн ди</w>
О писание</w>
Болга рии</w>
193 6</w>
част ях</w>
опера торов</w>
обязан ностей</w>
объ явля
ни рование</w>
малень кую</w>
изуч ить</w>
Ц ве
Сло во</w>
у реа
свиде телей</w>
появ ление</w>
по чи
официаль ного</w>
лич ное</w>
д ном</w>
восполь зова
Enter tainment</w>
195 1</w>
19 20</w>
экономи кой</w>
со цио
полови ной</w>
обы чной</w>
направ лений</w>
имуще ство</w>
вели кий</w>
ар ы</w>
ада пти
Дру гой</w>
указыва ют</w>
постро ил</w>
по годы</w>
перво начально</w>
обеспечи вать</w>
жи н</w>
вре д</w>
бла го</w>
К А</w>
Бо жи
т a
сти ка</w>
реали зация</w>
радо стью</w>
право охрани
отче та</w>
на имен
кандида та</w>
выс шей</w>
юриди ческих</w>
фер ме
то -
потреб ность</w>
ново стях</w>
лу р
жд ёт</w>
до ставки</w>
ви зор</w>
а ван
фи кса
сни мки</w>
номе ром</w>
Ре комен
Обще ства</w>
ра т</w>
основ ного</w>
оз доров
ней ший</w>
лекар ство</w>
лад ить</w>
жи сь</w>
возраст ному</w>
И мя</w>
З АО</w>
B al
свобо да</w>
р ти
под вод
ли зма</w>
кур сов</w>
вклю чен</w>
C amb
3 3
лод ки</w>
времен ное</w>
C at
у регулирования</w>
с сы</w>
присут ствует</w>
лод ку</w>
докумен те</w>
ген ери
вме ши
ве ла</w>
h ere</w>
холод но</w>
сто го</w>
против ном</w>
нес и</w>
город ских</w>
возвра щаться</w>
P ok
широ ко
то ка</w>
квали фикации</w>
дву м</w>
глоба льных</w>
га м
Ассоциа ции</w>
3, 5</w>
схе мы</w>
скры ть</w>
референ ду
ра ны</w>
огро мной</w>
ма л</w>
у рав
собира емся</w>
про сить</w>
про й
принима ли</w>
наслажда ться</w>
завтра ш
вопро сами</w>
верши не</w>
Н Р</w>
I s</w>
F rom</w>
194 9</w>
сторон них</w>
со действовать</w>
прош ёл</w>
паль цев</w>
бра ли</w>
проф сою
от ставку</w>
множе ства</w>
ло чки</w>
взры в</w>
Кон стан
Д И
k ing
al so</w>
сфе р</w>
ме даль</w>
беспо ряд
ac t</w>
B re
существу ющие</w>
полномо чия</w>
нуж ды</w>
написа ла</w>
мо ста</w>
малень кого</w>
в зи
в ени
Ме сто</w>
А ЭС</w>
195 2</w>
рестора на</w>
поч ка</w>
осно вал</w>
дума йте</w>
Э мили</w>
r al</w>
фондо вая</w>
су дно</w>
содержа ть</w>
со бесе
са н</w>
осно вой</w>
ме че
заяв ки</w>
ту пи
наказа ние</w>
глу по
Сан- Франциско</w>
К Б</w>
Д литель
O x
ше сти
занима л</w>
высо ком</w>
выз вал</w>
уби ла</w>
стрем ление</w>
соб лаз
повре ждения</w>
обвин ение</w>
конку ри
встреча ются</w>
ч .</w>
офице р</w>
ни куда</w>
най ду</w>
исче з</w>
т я</w>
посе щения</w>
от ступ
наз ван</w>
ма му</w>
кор мить</w>
д нях</w>
в шаяся</w>
МИ Д</w>
Ко личество</w>
y l
рекомен до
ниж ней</w>
кух ню</w>
клиен ты</w>
глуби не</w>
беспо лез
П люс</w>
Дума ете</w>
le t</w>
id ae</w>
Pr o</w>
цело ст
при ехала</w>
пожало вать</w>
ки и</w>
Су пер
Н А</w>
tr y</w>
si an</w>
T o</w>
O b
р ной</w>
прош лым</w>
осве дом
жи шь</w>
ва ющее</w>
О се
str uc
on es</w>
согла шений</w>
сни жению</w>
ран у</w>
пре ем
возник новения</w>
бур г
або нен
Е ди
i j
сред них</w>
рекоменду ем</w>
распреде лилось</w>
навер х</w>
ми лый</w>
лаборато рию</w>
за тяну
времен ные</w>
бан кро
М юн
ча со
успе л</w>
слож ные</w>
рус ские</w>
не которыми</w>
ли зм</w>
и -
внеш него</w>
бан ком</w>
Ф ред
Ко у
Ан на</w>
подготов ить</w>
не мало</w>
маш ин
Б ак
d er
R eg
ущер ба</w>
турни ра</w>
поез док</w>
не знаком
министер ства</w>
ко ном</w>
ко жу</w>
жа ю</w>
ван ном</w>
Р ок
З во
широ кого</w>
ше йся</w>
фи ни
слуша йте</w>
пыта ться</w>
практи ку
ж ды</w>
ди ен
ва телем</w>
Чарль з</w>
Ж ур
разработа н</w>
прово дил</w>
по ми
но чной</w>
а лю
Да нии</w>
Di rect
18 0</w>
ист ины</w>
жа й
ви ла</w>
благо род
Кор пора
Азербайджа не</w>
g er</w>
I R
талан тли
сти ческие</w>
синхро ни
сигна ла</w>
останов иться</w>
ми ло</w>
мекси кан
Сказа л</w>
Ази ат
e .com</w>
эй н</w>
серд цем</w>
с ным</w>
пи щу</w>
вечерин ка</w>
в ступил</w>
ар хе
Сы н</w>
установ лено</w>
попро сила</w>
откры ли</w>
направ ленные</w>
ле чеб
ин г</w>
во лю</w>
владель цев</w>
бор т</w>
be en</w>
ющ у
ству я</w>
ста нешь</w>
рус ского</w>
прогно зи
не чего</w>
ла на</w>
готов ность</w>
выпол няет</w>
От ме
улы б
ссы лку</w>
проек тах</w>
полити ков</w>
За нима
ти хо</w>
принес ла</w>
Al b
пра вами</w>
на та</w>
миро твор
Зем лю</w>
Алек с</w>
E .</w>
D re
рабо в</w>
под ключ
ме мо
истре б
генера льный</w>
вра чей</w>
вра ждеб
Ман х
К им</w>
Гру зия</w>
соответ ствовать</w>
рус ской</w>
режис сё
продолж ение</w>
представ ителя</w>
в ча
Б уда
р ка</w>
не хва
мест ными</w>
г ет
Си эт
es -
шта б-
ра ть</w>
получа т</w>
до нос
О кон
Г .</w>
ic ations</w>
S of
характер изу
услови ям</w>
уда ра</w>
сред не
популяр ных</w>
по грани
пар ню</w>
определен ный</w>
из м</w>
д ную</w>
акцион ер
M S
эн д</w>
ц и</w>
фестива ле</w>
укреп ление</w>
разви ваться</w>
пото ка</w>
партне ром</w>
измени лось</w>
Па вел</w>
Ка мен
p age</w>
h ad</w>
ющу юся</w>
ши ри
х во
про пове
про движения</w>
при гово
от мет
оста льным</w>
корот кий</w>
кораб ли</w>
М ет
on a</w>
H ome</w>
0 3
с ите</w>
про чим</w>
образ ец</w>
изуч ение</w>
Ч ис
Солн ца</w>
Ав стри
ступ ен
оста ток</w>
массо вого</w>
краси вый</w>
занима лись</w>
би ли
аксе ссу
Ре чь</w>
Ма дри
p re
is s</w>
с мир
извест ным</w>
заслужи вает</w>
ду ет</w>
Университ ете</w>
Ва л
l iv
ent al</w>
am s</w>
успе хов</w>
сти ции</w>
ли ка</w>
стро го</w>
про вали
постав щиков</w>
показа ла</w>
основ ная</w>
о ранже
независи мых</w>
моло ко</w>
ми но
лен ность</w>
ез жать</w>
боль ший</w>
our ces</w>
уб иты</w>
си ден
развер ты
мисси ю</w>
благодар ность</w>
Сер ь
Ни ж
p ol
U K</w>
J e
ше ст
точ ная</w>
ры бу</w>
отча ян
кто ры</w>
возобнов ля
Е же
R el
рестора нов</w>
обез ья
на но
коми сса
за с
гости нице</w>
th er
юрис дик
резолю ции</w>
просты м</w>
предо ставило</w>
ку ру
да ло</w>
в лю
в замен</w>
Г ит
G .
установи л</w>
ти пы</w>
тель ности</w>
пов стан
кноп ки</w>
договори лись</w>
Националь ная</w>
Ко рее</w>
l ook</w>
T our</w>
H e</w>
B -
компонен ты</w>
дан ную</w>
d ll</w>
Ex pl
уда рил</w>
со т</w>
долгосро чной</w>
движ ется</w>
Бес пла
уча ствовали</w>
с прави
при ходить</w>
н ская</w>
координа ции</w>
истори ей</w>
важ ная</w>
Генера льного</w>
Га за</w>
R ock</w>
201 4-
1 30</w>
шам пан
у пор
торгов ля</w>
обще жити
ен ное</w>
гено ци
ано ни
а ра
эн ди</w>
ствен ности</w>
ст ре</w>
соглас ны</w>
йд ёшь</w>
запа сов</w>
дета лей</w>
де ро
голь фа</w>
Бо б</w>
Б э
ul l</w>
шу м</w>
транс форма
пригла шение</w>
по влия
дела я</w>
де поз
выпусти л</w>
восста навли
бри га
Ш у
Ал ла
In di
An d</w>
согла ша
сле й</w>
предлага ю</w>
по чувствовать</w>
по пытался</w>
нара щи
литера туры</w>
корпора тивного</w>
заяви ла</w>
заво де</w>
живу щих</w>
2. 0</w>
19 29</w>
целе сообраз
у езжа
Т ы
fil e</w>
P O
Mer c
5 5
сове то
ка ран
за были</w>
за будь</w>
дво рец</w>
гра ф
H .</w>
ш ё
ству ю</w>
откры тых</w>
ну не</w>
ло р
извест ная</w>
жен ная</w>
ди ф
Теле визор</w>
С мит</w>
цион но-
сче тов</w>
син г
на со
джен тль
К ос
C las
транспор т</w>
па но
жизнен но</w>
бло ка</w>
От дай</w>
Глав ный</w>
b el
сохра нять</w>
под писан
впечат ля
ак т</w>
t re
сфор мули
собствен ном</w>
пле вать</w>
останов ки</w>
опти ма
международ ная</w>
ко опера
за повед
да на</w>
То м
ri c</w>
шко ль
тра тить</w>
охра ня
огром ную</w>
ма нов</w>
зи а
жда ла</w>
Ше л
Брю ссе
раз меры</w>
плохо е</w>
от вле
в шее</w>
Всемир ной</w>
M ob
услови ями</w>
та ны</w>
же р</w>
бо л</w>
ба ка
Corpor ation</w>
энергети ческой</w>
чи вать</w>
цен о
серьез ных</w>
преду пред
ознаком иться</w>
вос т</w>
а лы</w>
математи ки</w>
ка кого-то</w>
гавай цы</w>
ва емся</w>
у влека
современ ный</w>
с мена</w>
ров но</w>
нер ы</w>
настоя щем</w>
забо титься</w>
У ра
О га
e um</w>
Camb ridge</w>
распростра ни
про сыпа
пожа луй</w>
переда че</w>
ме га
коммуника ции</w>
W W
D E
ри ст</w>
отсут ствии</w>
матер ин
внеш ний</w>
Мин несо
Комп ью
ing ton</w>
Aw ards</w>
т ному</w>
су н
пользу ются</w>
ос вя
окружа ющую</w>
ма стера</w>
г нул</w>
Сте фа
Пис а
Демо крати
C as
стре лял</w>
подъ ем
награ ды</w>
молоды м</w>
ис пове
зем но
з ме</w>
1- 2</w>
ц ити
у мо
со ров</w>
пу стой</w>
не види
моде ли
каком -то</w>
за пуска
По сла
R .</w>
195 4</w>
страш но</w>
сани тар
противо стоять</w>
преимуще ственно</w>
перевоз ки</w>
кана лов</w>
гра фа</w>
вре да</w>
внеш не
Ре шение</w>
В ТО</w>
хоро шем</w>
провер ку</w>
про б
переда чу</w>
и ду
зна ки</w>
Роди лся</w>
Про дол
Мно го
lo v
P S
швей цар
сочета нии</w>
сай ты</w>
ен ность</w>
гу р
П .</w>
Кон диционер</w>
увелич ению</w>
стре мл
Жен щина</w>
чу ж
точ ные</w>
по ставили</w>
по следующие</w>
да ра</w>
Май ами</w>
ot t
d es
руковод ителя</w>
про читать</w>
ви дами</w>
al ity</w>
We b</w>
St e
M ix</w>
- Я</w>
тор мо
при бе
превра тить</w>
ма ля
Уи льям</w>
Жан р</w>
ir l</w>
ь ях</w>
участ ник</w>
тор т</w>
сове ты</w>
перево зок</w>
пере вести</w>
мя те
лоша дей</w>
за клина
гол ланд
важ ны</w>
бы вшей</w>
Кни га</w>
Гости ница</w>
f er
en se</w>
F ront</w>
ши н</w>
хра ма</w>
уничто жения</w>
ре пети
нен ные</w>
настро ить</w>
завер шить</w>
долла р</w>
Стан дар
rip t</w>
h er</w>
195 5</w>
сбе жать</w>
ма ра</w>
м ю
вызыва ют</w>
По смотрите</w>
ОЭ СР</w>
Fac ebook</w>
тан цу
ру ющий</w>
бу мага
Н Е</w>
Егип те</w>
d on</w>
эффек ты</w>
фак тор</w>
ра ция</w>
провед ению</w>
покаж у</w>
партнер ы</w>
ли во</w>
консу льти
защи той</w>
дет ских</w>
гряз и</w>
Ха м
Результа ты</w>
w ays</w>
контро лю</w>
заработ ной</w>
за вод
дет ский</w>
демократи ческих</w>
выбо ре</w>
возвра щение</w>
в ведения</w>
T M
участ никам</w>
ство ва
свя того</w>
рас пол
показа но</w>
о в
мага зины</w>
доказа тельство</w>
ауди тории</w>
C R
тер пе
счита ешь</w>
судь бы</w>
показа лось</w>
пере смот
находи лась</w>
инфек ции</w>
девчон ка</w>
армя н</w>
Косо во</w>
широ кой</w>
тру дом</w>
собра л</w>
ро с</w>
приз вал</w>
нужда ются</w>
на ходит</w>
к э
и ные</w>
жа ние</w>
гово е</w>
север а</w>
показа ться</w>
пере у
лет няя</w>
ко стей</w>
игра ешь</w>
за хочешь</w>
Исла м
Бы ть</w>
чита ли</w>
центра льных</w>
ти хий</w>
под креп
пе л
обеспе чении</w>
кита йской</w>
зр ение</w>
выс ших</w>
беспровод ной</w>
Элек тро
Ф О
Кото рый</w>
Кар ло
Буда пеш
wh o</w>
Aw ard</w>
3 7
193 2</w>
ка ют</w>
бак сов</w>
О ска
Алексан дра</w>
сто ю</w>
попу ля
поезд ка</w>
по сти
официаль ной</w>
П А</w>
Нем ного</w>
Миро вой</w>
тра фи
стоя ли</w>
объяв ления</w>
мо р</w>
клиен тами</w>
дж ин
вы воду</w>
m us
g ood</w>
St r
т итесь</w>
о не
мусуль ман</w>
лек ции</w>
ключе вые</w>
две рей</w>
выпу щенный</w>
С прин
Ал лах</w>
St ar</w>
193 4</w>
кру га</w>
дли ной</w>
вы ходят</w>
влю блен</w>
Ча сто</w>
Генера льной</w>
шту к</w>
руко во
подо би
плохо го</w>
костю ме</w>
Се мей
Ба ш
yst ems</w>
чув ствуют</w>
фору м</w>
полу го
под ры
л ков</w>
изну три</w>
запа д</w>
банков ского</w>
ograph y</w>
G -
B ud
A P</w>
фир м</w>
успеш ной</w>
указа но</w>
су дом</w>
сле дов</w>
катего рия</w>
ера р
ен а
да ча</w>
ви ков</w>
С реди
Брази лия</w>
Б Р
хва та
сер а</w>
правосу дия</w>
пора жение</w>
она ми</w>
име ло</w>
жа ми</w>
в шую</w>
Т Е
Ле том</w>
Б А
es si
экспо зи
хи мии</w>
ска ть</w>
реализо вать</w>
ра -
пей за
копи рование</w>
зу б
заинтересо ван</w>
а р</w>
При нима
sk i</w>
pl ay</w>
Gr and</w>
3 5
чи ками</w>
у кло
ре структури
псе вдо
пря мых</w>
предме том</w>
направ о</w>
надеж да</w>
кля нусь</w>
актив ного</w>
Уби й
PD F</w>
2 1
федера ции</w>
у шёл</w>
вне сен
h ig
эпо ху</w>
фло та</w>
со мнений</w>
ра сто
нале во</w>
ко вая</w>
авто ра</w>
Ш ей
Ки еве</w>
Да й
Д е</w>
lif e</w>
цифро вой</w>
предло жили</w>
поли цией</w>
о тор
лиза цию</w>
короб ки</w>
какие -либо</w>
дура ц
С С</w>
Муз ей</w>
Во ро
ВО З</w>
t ri
ec h</w>
L im
ён ной</w>
ха жи
у вле
тра ги
си льной</w>
региональ ной</w>
пра че
настоя щие</w>
действу ющих</w>
гар мони
бы вают</w>
Егип ет</w>
R os
C al
циви лизации</w>
стратеги ческих</w>
совмест ного</w>
пол года</w>
поис ки</w>
живе шь</w>
благо получи
И .
z a</w>
s .html</w>
on ly</w>
eg a</w>
спи не</w>
сбе жал</w>
нару жу</w>
ланд ша
колле г</w>
кни сь</w>
за куп
Ресто ран</w>
От де
част ный</w>
с ведений</w>
пригла ша
пора жения</w>
подчер кну
подоб ный</w>
пись ме</w>
образ и
насе лён
насе ком
луч шем</w>
Вну три</w>
n o
Ro y
яв ления</w>
торго вые</w>
по ляр
моз ги</w>
крас ной</w>
бом бу</w>
ауди то
атмо сфере</w>
Ц вет</w>
Интере сно</w>
Д ву
b re
Ch ina</w>
кита йских</w>
бо г</w>
Про цес
er ing</w>
ш ину</w>
пер выми</w>
до ставить</w>
высо кое</w>
Бо й
P ap
A V
произво ди
присут ствия</w>
помо гла</w>
пло т
казыва ется</w>
изуча л</w>
выгля дишь</w>
бу ль
Ван ная</w>
m at
эта па</w>
убежи ще</w>
соответству ют</w>
рай он
кругло су
генера л</w>
Э ту</w>
Од но
О ри
Г р
тра ха
па тро
ос лож
навы ков</w>
за моро
государ ствами</w>
вы вести</w>
Ок ей</w>
Ан дре
re n</w>
G l
си льное</w>
рели з</w>
итель ностью</w>
Запа де</w>
B ir
B en
Ar t</w>
19 14</w>
ниче ства</w>
кры шу</w>
иде ей</w>
и ное</w>
При днестров
Л ет
i ti
тру п</w>
т но-
крас ного</w>
клави а
желез ной</w>
выбра ться</w>
Егип та</w>
Ду х</w>
т. к.</w>
спо ры</w>
нало га</w>
краси вые</w>
Са н</w>
Пра кти
Па в
От сюда</w>
И ю
ф ет
точ ное</w>
скаж ете</w>
профес сором</w>
непри ятно</w>
из о</w>
гра ни</w>
владель ца</w>
а трибу
Верхов ного</w>
il d</w>
Sch ool</w>
фор мой</w>
у виде
с баланси
ри ску
произ ведение</w>
при хо
мето да</w>
дра ма</w>
ди стан
гаранти рует</w>
D ar
приви леги
при чину</w>
плане ту</w>
п ш
нен ных</w>
морожен ое</w>
любо му</w>
ло р</w>
европей ского</w>
в ь
w ant</w>
проте ста</w>
л ло</w>
кампа нию</w>
ди сков</w>
гра д</w>
ве ди</w>
в ход
бо га</w>
Фо то</w>
та лки
со ном</w>
ри м</w>
при дут</w>
пере кры
наход яще
иты м</w>
иг рой</w>
где -нибудь</w>
Фото графии</w>
Кана да</w>
al -
E -
то вая</w>
строитель ных</w>
с си</w>
с клады
расска зывать</w>
различ ным</w>
разговари вать</w>
по ви
кре дит</w>
из би
глу пы
в вода</w>
экономи ческая</w>
распреде ление</w>
обо й
за ть</w>
С обра
Лени н
Ис полнитель
чт o</w>
це ликом</w>
тор гу
тер мо
при ю
презен тации</w>
об я
взгля ды</w>
ба з</w>
На у
Soci ety</w>
Dav id</w>
чен ная</w>
пой дем</w>
обсу дили</w>
ни ческий</w>
направ ить</w>
О пять</w>
требо ваниями</w>
по воро
нало г</w>
дя дя</w>
гале ре
ви рус
Фила дель
Н Б
М оби
экономи ческую</w>
чи шь</w>
постоян ной</w>
полага ется</w>
подня ться</w>
пере работки</w>
включен а</w>
бом барди
К эро
В прочем</w>
В Ы
поня тие</w>
запас ы</w>
То мми</w>
Ли шь</w>
шка фу</w>
сопротив ление</w>
опо зда
му ля
метал лур
ли ди
дже р</w>
гер ман
Узбекиста н</w>
Сю да</w>
Гра ждан
U l
си я
ры ба</w>
разгово ра</w>
плате жей</w>
переда л</w>
н ке</w>
конферен ц-
каса ющихся</w>
госпо да</w>
горя чей</w>
возглав ля
Бра ун</w>
k n
сери ал</w>
г реш
бло г</w>
Зе ландии</w>
p ub
od y</w>
подар ки</w>
ме д</w>
луч шему</w>
карьер е</w>
Ё то</w>
ч о
террори змом</w>
ста кан</w>
соблю дать</w>
сла ва</w>
ры з
рекоменда ций</w>
опас ных</w>
обнов ление</w>
к сов</w>
зада ния</w>
веща х</w>
Ф рон
s ome</w>
ш ор
профессиональ ный</w>
присо еди
прес се</w>
нрави лось</w>
крас ные</w>
возника ют</w>
ав стра
Тех нологи
Санкт-Петербур ге</w>
p res
A n</w>
сче ту</w>
потенциаль ных</w>
подо р
органи зма</w>
наличи я</w>
взаимо действие</w>
Пар т
M ed
убий цу</w>
круп ный</w>
заполни ть</w>
до на</w>
двадца ти</w>
го стям</w>
ассо рти
Шот ландии</w>
Длитель ность</w>
9 00</w>
сло жной</w>
кандида т</w>
использу ем</w>
дви жении</w>
встреча лись</w>
ви ль
С разу</w>
Р оби
ИТ -
19 19</w>
цеп и</w>
си он
работа ете</w>
постро или</w>
п p
мен тами</w>
л e
дво р</w>
аль ное</w>
Сто к
О ба</w>
Ass oci
чисто го</w>
француз ском</w>
смотри шь</w>
региональ ные</w>
пере хва
из ма</w>
звез до
Ш ер
Пес ня</w>
8 8
0- 0
смар т
руковод ители</w>
ро ва</w>
предпринима телей</w>
пе щер
готов ности</w>
выпусти ли</w>
в перёд</w>
За т
финансо вым</w>
соб ран
сель ских</w>
приобре тен
пригла сить</w>
обсу ждать</w>
инвали дов</w>
ви не</w>
веду щий</w>
Ко гда
сте ров</w>
соревно вания</w>
заня ты</w>
бассей не</w>
Х од
Ру ки</w>
О бу
wh en</w>
республи ке</w>
приобрет ения</w>
объяв ление</w>
Th is</w>
танце вать</w>
стра на
сопротив ления</w>
при меры</w>
по мест
инициа тиве</w>
и шься</w>
вы ставля
Op en
тя ж
спор тивных</w>
рок ко</w>
обще ством</w>
начина ть</w>
из гна
британ ской</w>
L e</w>
си ро
рассматри вается</w>
л ками</w>
использо вала</w>
Об щая</w>
tic al</w>
193 7</w>
у су
гру зов</w>
высо ты</w>
К -
Ви ктор</w>
er o</w>
e h
ть я
трас са</w>
террори зма</w>
сти ческий</w>
сне г</w>
реб я
про ходя
природ ного</w>
при несли</w>
одер жи
на имено
M al
пло ским</w>
откры ла</w>
необходи м</w>
д ром</w>
Че ч
Но мер</w>
Иоан на</w>
m s</w>
чу до</w>
сторо нами</w>
обе да</w>
бек ю</w>
О Т
О .</w>
сты х</w>
прибы тия</w>
ни чем</w>
насе лением</w>
му ч
ме диа
s ing
ra z
сти ля</w>
разви вается</w>
настоя тельно</w>
вид ения</w>
B S</w>
чемпи он</w>
рей с</w>
полез но</w>
м ка</w>
ли ки</w>
кре сло</w>
колле ги</w>
ит ь
испыта ний</w>
Узбекиста на</w>
фармаце вти
телевид ения</w>
от тен
обстоятель ств</w>
называ ет</w>
масшта бе</w>
кораб лей</w>
вто ри
банков ских</w>
ба бо
Представ ьте</w>
я чей
с ную</w>
ма -
ка ри
Во обще</w>
se e</w>
ar c
ю ж
ст ских</w>
со мни
приня тии</w>
подтвер дить</w>
подру га</w>
малы ш</w>
име н</w>
внедр ение</w>
Стри т</w>
W e</w>
эмо ции</w>
ше й
трав мы</w>
разуме ется</w>
ко не</w>
соответству ющим</w>
си дели</w>
свя той</w>
по х
перен ес
отмен ить</w>
определен ного</w>
мен тах</w>
использу йте</w>
за ма
Д ви
ю стиции</w>
работ ку</w>
поступа ть</w>
на пуга
мир ного</w>
ко та</w>
До ку
ac e
террори стов</w>
сдела ют</w>
не доволь
иностран ной</w>
избе гать</w>
в ведите</w>
О ль
di t</w>
I T</w>
Col l
19 22</w>
специаль ности</w>
слож нее</w>
позволя т</w>
подтвер ждает</w>
до мах</w>
ар тери
Со вмест
Же лез
s ec
эволю ции</w>
х ри
фен о
ф рак
по следующих</w>
обсу ждение</w>
неизбе жно</w>
информа ционной</w>
з вали</w>
Ие го
s er
0 2
чист ить</w>
пу лю</w>
пожа р</w>
дзю до</w>
вы двига
Каж дое</w>
th ey</w>
an o</w>
ти хоокеан
соли дар
со чин
прожи вание</w>
паль цы</w>
какую -то</w>
е дем</w>
домохозяй ство</w>
бир же</w>
С У
тран з
одеж де</w>
н ском</w>
маршру т</w>
ле л</w>
ко фей
Соби ра
Ско тт</w>
Г де
Бель гии</w>
А В
st er
P R
хозя ин</w>
влюб лена</w>
Соб а
Миха ил</w>
Ги б
on al</w>
K ar
способ а</w>
рас позна
наси ль
кос вен
зво нить</w>
бе жал</w>
Шан ха
Смо трите</w>
Н обе
Зав тра
Би блиоте
U p</w>
ш тур
функ цию</w>
ти не</w>
писа тель</w>
мон д</w>
з a
В неш
K n
B M
ша т
челове ке</w>
утвер ждение</w>
увеличи вается</w>
при мут</w>
ку зи</w>
кред ита
е ма</w>
д e
во ин
Пер у</w>
М С</w>
Доста точно</w>
F -
19 30</w>
ч ках</w>
сей ф</w>
про ника
ма дам</w>
жен ное</w>
Д верь</w>
v ol
T O
P art
Me dia</w>
19 24</w>
части ц</w>
фак тов</w>
тради ционной</w>
ре ль
приз ра
при м
препара тов</w>
воз вы
Се зон</w>
Ма ма</w>
Ва й
Бр э
. 1</w>
тем пы</w>
солда ты</w>
саха ра</w>
работ ники</w>
прие ма</w>
позволи ла</w>
из го
запро су</w>
дости гает</w>
важ на</w>
бо к
o g</w>
Un ited</w>
трен а
раз решить</w>
прекрас ная</w>
иностран ные</w>
ал ма
Х ер
k now</w>
шен ной</w>
сти ческая</w>
свобод ных</w>
по цело
оча рова
ок си
обра тился</w>
на бора</w>
лич ным</w>
ино плане
из датель
заинтересо ван
выступ ить</w>
вче раш
ё й</w>
удовлетво рения</w>
тре уго
пассажи р
му сор</w>
19 25</w>
улуч шению</w>
сига ре
револю ция</w>
распреде лился</w>
компани ям</w>
диску ссии</w>
а с</w>
Эндр ю</w>
Ка кая</w>
Бе ре
com e</w>
Par is</w>
190 7</w>
1 10</w>
хо вен
необходи мой</w>
называ ли</w>
ми нали
зависи мость</w>
Согла шения</w>
Ото пление</w>
Вели кий</w>
ep h
d i</w>
W est
H ost
G N
су ро
ста рай
развити ем</w>
объе мы</w>
ка й
беспокой ство</w>
безопас но</w>
австра ли
авиа ции</w>
На род
Же ла
c el
0 9
тради ционные</w>
рекор д</w>
р итуа
отка за</w>
м би</w>
квадра тных</w>
ини ции
инвесто ры</w>
изда ния</w>
ж ениями</w>
Ни же</w>
Вер но</w>
st e
Def end
экономи и</w>
университ ет
тра к
персо наж
ност ро
друз ьям</w>
газе тах</w>
высоко каче
встреча лся</w>
То л
что -либо</w>
утвер ждения</w>
упа ко
треть е</w>
сти т</w>
собира лись</w>
против ника</w>
примен ить</w>
ма тов</w>
куль туру</w>
зво нки</w>
д л</w>
Т имо
S ony</w>
H um
судь бу</w>
сред неве
слу читься</w>
си ри
ма ли</w>
м ён</w>
з ве
D ig
Ch amp
Bl ue</w>
т ти</w>
сла в</w>
одинако во</w>
необходи мую</w>
ли ги</w>
испол нении</w>
жи вым</w>
вя зыва
выпол нении</w>
Саудо вской</w>
Коро че</w>
Коман да</w>
ю би
ща ю</w>
сотруд ник</w>
систе мами</w>
наме рен</w>
кр ю
гла вой</w>
Не ф
Н .
d a</w>
произ ведений</w>
музы ке</w>
ма та</w>
й ные</w>
ба л</w>
d el</w>
L .</w>
хва тило</w>
физи ческого</w>
рован ном</w>
воспринима ется</w>
Афгани стана</w>
тенден ция</w>
счита я</w>
репута цию</w>
р ного</w>
процент ные</w>
про пор
поступ ить</w>
корпора тивных</w>
ба к</w>
Р эй</w>
З им
Ав гу
эле мента</w>
тру бы</w>
ро зы
ран них</w>
парамет р</w>
обо соб
в двое</w>
а прав
Чу в
ens is</w>
S un</w>
три н</w>
ре с</w>
пре одол
моно поли
контрак та</w>
до полнительно</w>
го сла
От вет</w>
ber g</w>
4, 5</w>
3 000</w>
це лое</w>
сторо ной</w>
ры ноч
разру шить</w>
разработ чиков</w>
пале ц</w>
обра щении</w>
мат че</w>
малень ким</w>
компен си
Дан ный</w>
wh at</w>
P .</w>
I r
си ний</w>
сери ала</w>
пла в
пи ани
пере рабаты
парт нер</w>
много числен
механиз ма</w>
ку ла
беремен ности</w>
бе г
Но вого</w>
or n</w>
эффектив ных</w>
хо дами</w>
точ ных</w>
писа ли</w>
объем лю
нефте газо
кредит ной</w>
компьютер ных</w>
Буду чи</w>
i x
3 1,
193 8</w>
ф ле
установ ка</w>
разработа на</w>
охра на</w>
образ а</w>
корпу са</w>
к в.</w>
З драв
Бе зу
Ам стер
a g</w>
In f
чу сь</w>
террито рия</w>
пом ни</w>
нес- центр</w>
на строй
лен ности</w>
исти не</w>
буты лки</w>
Бру кли
c a</w>
C E
язы ки</w>
ст ная</w>
соответ ствия</w>
смен ы</w>
симпто мы</w>
око н</w>
В нима
d r
T op</w>
ю гу</w>
судеб ного</w>
срав нении</w>
рее стра</w>
описа ния</w>
молодо го</w>
ку куру
короб ке</w>
за думы
бере га</w>
бе зо
Э ль
С и</w>
На ше</w>
А дам</w>
om an</w>
X -
Play Station</w>
I s
сте кля
само лете</w>
од них</w>
культур ной</w>
кру гу</w>
жд ён</w>
в вод
Дол жен</w>
Дек ла
is ion</w>
ю вели
ш ится</w>
хоро ш</w>
х ак
тридца ть</w>
сти н</w>
специали ст</w>
правитель стве</w>
по тол
основ ными</w>
мэ ра</w>
зем ле
делега ции</w>
ви цы</w>
ассо ции
Афри ка</w>
ic ial</w>
при стра
президен ту</w>
пло хая</w>
обы чные</w>
м ную</w>
глав ную</w>
вы й
бри лли
Руковод ство</w>
Ко роль</w>
tis h</w>
ol a</w>
S l
H al
E dition</w>
эфи ре</w>
ша ла</w>
цер к
укреп лению</w>
раз рыв</w>
при говор</w>
практи ку</w>
най дены</w>
мероприя тие</w>
г ени
ви лл</w>
аре ст</w>
Щ е
Австра лия</w>
om b
Y ou
ю ри</w>
эн ту
х вост</w>
утвер жден
у на
получен ных</w>
побе дил</w>
нен ный</w>
использу ете</w>
интере сам</w>
ди ване</w>
двига теля</w>
гото во</w>
го вый</w>
вла стями</w>
арен е</w>
Па л
ч ье</w>
ст ес
особо го</w>
миро вом</w>
корре к
ищ ете</w>
испол ня
импор та</w>
закон чилась</w>
баш ни</w>
Пар ни</w>
am a</w>
ч на</w>
рас суд
пен га
началь ника</w>
лл ера</w>
лич ную</w>
конструк ция</w>
за слу
банков ской</w>
а ри
Х эн
Рожде ства</w>
По се
il i
судеб ных</w>
се строй</w>
программи рования</w>
принци пи
попа дает</w>
ди ле
встре тила</w>
беспоко ит</w>
ато мной</w>
Кен не
in to</w>
ev er
0 8
случа ю</w>
по хва
общи н</w>
нау ка</w>
надеж де</w>
вели кой</w>
Ки р
Али ева</w>
T .
уда ется</w>
точ кой</w>
те рак
пре ссо
наход итесь</w>
молит вы</w>
ко ка
знако мы</w>
Ц А</w>
k e
Expl or
- t
угро з</w>
т o</w>
располага ется</w>
навер но</w>
ка на</w>
заме тила</w>
вра г</w>
Фор му
Г ви
it ch
ip p
ящи ке</w>
уч ителей</w>
ступи ло</w>
спортсмен ов</w>
приготов ления</w>
ко жа</w>
Аб ха
at ing</w>
ant s</w>
ч кам</w>
приме ров</w>
пол тора</w>
мыш ления</w>
меди а</w>
заяви ли</w>
вся кого</w>
бере г</w>
Таи лан
Дире ктор</w>
or i
произо шла</w>
предостав лении</w>
по ехал</w>
огром ная</w>
научно- исследователь
ла уреа
воен ную</w>
в шем</w>
бан ко
ар бит
Т били
Следо вательно</w>
L O
тель ном</w>
сор ти
прово д</w>
по- видимому</w>
за бро
дело вой</w>
да вал</w>
С тю
Но мера</w>
симво лов</w>
пу ли</w>
п ления</w>
запре т</w>
дра мати
гим на
аппара та</w>
На уч
Де текти
F irst</w>
ха х</w>
согласи лись</w>
полити ческое</w>
Э лиза
С ью
O rig
19 00</w>
поч ту</w>
мерт вых</w>
и лся</w>
б ра</w>
Тру дно</w>
С ме
М .
Большо е</w>
Б обби</w>
0 6
сред ством</w>
ры бо
пь ес
при хода</w>
под готови
п ка</w>
мон та
мо заи
ка кими</w>
зву ки</w>
шан сов</w>
у держать</w>
ог не
из ыска
до пустить</w>
Сей ф</w>
С ак
Ме д
d ev
тари ата</w>
та лся</w>
сто е</w>
подтвер ждение</w>
ито ги</w>
докла да</w>
го но
Сти вен</w>
Вир джи
Бо же
сталки ваются</w>
образователь ных</w>
количе ству</w>
зад нице</w>
за й</w>
длитель ного</w>
дан ному</w>
д ря
Об разо
ЕЛ Ь
- f
созда ла</w>
при парко
по влиять</w>
кам ня</w>
гара ж</w>
3 6
ужи на
со вые</w>
рассмотр ение</w>
Чет вер
Ф ла
С тив</w>
J ust</w>
A S</w>
5 000</w>
челове чество</w>
пла нах</w>
отче те</w>
доступ ных</w>
дерев ню</w>
Полож и</w>
Медве де
Им пери
f irst</w>
F ound
участ ником</w>
университе тов</w>
та вли
разде лить</w>
останови лся</w>
Евро союза</w>
Анд рей</w>
lin es</w>
чу се
спи ра
свиде тельства</w>
прокуро р</w>
прав у</w>
по страда
нау ке</w>
ло гов</w>
закон чилось</w>
вели кого</w>
англи ча
9 8,
скон чался</w>
реаль ных</w>
ре пор
пла тель
мест е
ки не
жен ными</w>
ве дется</w>
Ч ита
ран ду
про мы
пото м
мас са</w>
ля ем</w>
конфигу рации</w>
ur a</w>
os h
сущ ности</w>
присоедини лся</w>
от мени
образ цы</w>
най дем</w>
институ ты</w>
геро я</w>
вши мся</w>
N ews</w>
ри лся</w>
ни где</w>
бухгал тер
Д рев
M .
G al
специаль ного</w>
раз б
пле мян
ок купи
Т ю
Т э
С вет
Об служи
Л ек
Бо жий</w>
K e
экономи ческом</w>
француз ской</w>
стремя тся</w>
обла ками</w>
дефиц ита</w>
дальней шее</w>
глав ные</w>
Н О</w>
сч ё
сти к</w>
скон центри
публи чно</w>
прину д
пись мом</w>
относ иться</w>
девчон ки</w>
Интерне та</w>
au l</w>
у и</w>
статисти ки</w>
н си
мел ких</w>
жен иться</w>
апо сто
О ре
Sup er</w>
суд на</w>
ст ки</w>
сер вере</w>
предше ствен
под пи
отме чается</w>
народ ностей</w>
короле ва</w>
ко вым</w>
за ведения</w>
Л эн
Джон с</w>
Comm un
у слы
ть -
т ская</w>
рене бре
р ная</w>
ко ла</w>
Са мая</w>
Е вре
le x
e z
ѕ о
суще ству</w>
м ном</w>
гра вита
бе де</w>
На ч
ur r
H D</w>
топли во</w>
сдела на</w>
примен ением</w>
прид ёт</w>
о лен
мг новение</w>
з вер
Хо ть</w>
19 23</w>
треть им</w>
р та</w>
покры тия</w>
итель ства</w>
девя ти</w>
го вая</w>
вы воды</w>
ван на</w>
Пер вым</w>
Вну трен
ха н</w>
расположен ных</w>
прове дены</w>
ме ч</w>
и ным</w>
замет но</w>
д o
ген а</w>
вы вода</w>
Дан ная</w>
ag ed</w>
O c
Boo ks</w>
.0 7.
ён ного</w>
фер а</w>
све том</w>
мо ды</w>
лекар ств</w>
кред иты</w>
и ерар
Ма лай
Ко лле
Испа нцы</w>
im ages</w>
T or
D A</w>
явля лся</w>
цар ь</w>
столи к</w>
постанов лением</w>
пользу ется</w>
на зем
ки бер
ет с</w>
ди в</w>
да м
го ди
ватель ный</w>
Откро йте</w>
P S</w>
форма х</w>
фор мули
технологи ю</w>
спас ение</w>
по говорим</w>
окру жении</w>
использу емых</w>
жиз ней</w>
гре х</w>
б ью
Элек три
th em</w>
цен ам</w>
тя нуть</w>
организа циям</w>
о се
ман да
вер ите</w>
ЕНИ Е</w>
хими ческих</w>
телефо нов</w>
покры тие</w>
наде ть</w>
изъ я
С ни
О н
Аген тства</w>
свидетель ство</w>
выта щить</w>
влюби лся</w>
Та сис</w>
Н ей
Д А
19 26</w>
юриди ческой</w>
тун не
преступ ников</w>
по ма
осуществ лении</w>
интере са</w>
действи ях</w>
выз вало</w>
Э лли
Се веро-
Рай ан</w>
Лука шенко</w>
ВВ С</w>
ra m</w>
уверен ности</w>
теку щей</w>
специаль ной</w>
распол a
посла ть</w>
литера тур
за держи
до к
демонстра ции</w>
грам м</w>
го сть</w>
бит вы</w>
Маль чик</w>
э го
совеща ния</w>
са до
располa гается</w>
пробле мах</w>
площад ки</w>
но са</w>
ка кого-либо</w>
заня ла</w>
зай мет</w>
жда ют</w>
д ится</w>
Пен силь
on om
Ox ford</w>
э л</w>
регули ру
про спек
покол ений</w>
очист ки</w>
обеща ю</w>
низ кий</w>
на хождения</w>
куда -то</w>
О цен
И зу
энту зиа
прит я
пред выбор
но сил</w>
надца ти</w>
m et
O per
NE T</w>
3 8
ч ком</w>
с кре
прожи вало</w>
огром ным</w>
защи щает</w>
стен ах</w>
пут ём</w>
образо вании</w>
му ль
компьюте ром</w>
значитель ных</w>
евре и</w>
да нии</w>
буд ди
Стю ар
О пы
Золо той</w>
man y</w>
требо вание</w>
развле чений</w>
ра до</w>
правос лав
л жи</w>
замеча тельно</w>
глуб же</w>
ва емым</w>
Элиза бет</w>
На сла
Масса чусе
Ма рии</w>
раз вали
призна ет</w>
газ ет</w>
Я пон
С ъ
С пуст
Румы нии</w>
p ers
f ree</w>
серве ров</w>
Восто к</w>
B usiness</w>
2 4-
установи ли</w>
с .
разнообрази е</w>
от части</w>
ня к</w>
лен де</w>
ран ен
пере ключа
най ден</w>
наде емся</w>
добро воль
гла д
бе к</w>
Л .</w>
Джо зе
r it
M A</w>
GP S</w>
G T
D e</w>
ё х
т ре</w>
реаль ный</w>
рас смотрен
поме щении</w>
полити к</w>
объяви ли</w>
макси мум</w>
гра да</w>
благо состояния</w>
бес смыс
ан ну
администра тивных</w>
Сток голь
За кон
Б .</w>
Арави и</w>
срав нения</w>
ра цию</w>
произо шел</w>
постра дав
онлай н-
несовершен но
надея лся</w>
ма ны</w>
за лог</w>
Реги ональ
Понима ете</w>
Ка кое</w>
ult ure</w>
Inv est
стрем иться</w>
получ ении</w>
по кер</w>
Ради о</w>
M em
. l
су дей</w>
располага ет</w>
пыта ешься</w>
про све
ко логи
и ро
аресто вали</w>
Дэ н</w>
Б ёр
c я</w>
P .
M O
ц ера</w>
ти ка</w>
пла тят</w>
отъ емле
отме ча
органи зм</w>
зи л</w>
застре лил</w>
за се
Совер шен
Ли бо</w>
Конферен ции</w>
Квар ти
C O</w>
19 28</w>
про информи
президен тских</w>
п или</w>
образо ванию</w>
мо менту</w>
лег ких</w>
л o
исследо вании</w>
Под готов
Y our</w>
ше ль</w>
чисты й</w>
хирур ги
точ ного</w>
собра нии</w>
се ром</w>
при ё
подрост ков</w>
по чет
отрас лей</w>
ли ну</w>
коло нии</w>
выигра ла</w>
воен ным</w>
Основ ной</w>
Где -то</w>
I N</w>
ён ным</w>
про голосо
пресс- конференции</w>
о ку
напа л</w>
краси во</w>
игро вой</w>
заинтересо ванных</w>
en ds</w>
U T
19 21</w>
теори ю</w>
стре ляли</w>
созда но</w>
приро до
ма лей
диа гно
гара же</w>
вся ких</w>
вос хит
би ла</w>
ба раба
Ле ди</w>
Г Б</w>
Б ек
c at
та кому</w>
но сом</w>
му н
ме шь</w>
е мы</w>
ТО О</w>
К ле
b et
190 5</w>
филь мах</w>
тести рования</w>
ре гла
конвен ции</w>
изо ляции</w>
га ли</w>
выбо ром</w>
Откро й</w>
id d
G o</w>
стра ницах</w>
со тво
с пусти
под да
по сту</w>
парламен тских</w>
крас ная</w>
зам ка</w>
Сто и
Джор джи
А рен
S ub
D ie</w>
чи ке</w>
сре да</w>
приро да</w>
по т</w>
п ренебре
отлич ная</w>
измени л</w>
ак тов</w>
Уров ень</w>
указа ния</w>
угро жает</w>
инте рак
еди не</w>
Э ф
эм п
ло па
кон тр
интерес ных</w>
ин три
зали ва</w>
докто ром</w>
демократи ческой</w>
ак ка
Туа лет</w>
Ста мбу
w ar
C A</w>
3- 4</w>
я щ
ци кло
успеш ного</w>
у ло
сочета ние</w>
са р
приня та</w>
Ассамбле и</w>
www. t
Defend ers</w>
B S
уме ет</w>
статисти чески</w>
про ва
переда ча</w>
низ кие</w>
евро зоны</w>
вычис литель
высо кими</w>
бо ится</w>
fe ed</w>
W at
произо шли</w>
по чувствовал</w>
паль то</w>
официаль ные</w>
ненави сти</w>
мероприя тиях</w>
им пуль
да к</w>
го ру</w>
бом ба</w>
американ ским</w>
Ф ит
Республи кан
под ходят</w>
обществен ные</w>
ме бели</w>
ма я
купо н</w>
волну йся</w>
в ского</w>
un t
D eb
спосо бами</w>
рова лось</w>
прода жа</w>
про ч
по ля
обстанов ке</w>
не важно</w>
нач нем</w>
м эр</w>
г ги</w>
а да</w>
4 7
чув ствовали</w>
с фотографи
род ителям</w>
приро ду</w>
посла ние</w>
пло ти</w>
объяв лено</w>
ль ф</w>
ку с</w>
истори ческого</w>
волну ет</w>
а -
Завтра к</w>
Де ре
Gre at</w>
худож ника</w>
федера льного</w>
при сматри
подоб ной</w>
не большую</w>
мини му
зая вок</w>
выстре л</w>
вс плы
вой н</w>
Ме то
y ing</w>
uc k
b us</w>
C N
C .
эк ст
умер ли</w>
тив ность</w>
та р</w>
та ли
ошиб ке</w>
на помнить</w>
кры ши</w>
занима ют</w>
за им
арен ды</w>
ad ing</w>
Euro pe</w>
D ec
ш ной</w>
фору ме</w>
у видит</w>
современ ным</w>
са ды</w>
про чего</w>
потенциаль но</w>
отме тила</w>
коммер ческой</w>
занима юсь</w>
да но</w>
да мы</w>
возник ла</w>
бю лле
У верен
C P</w>
переда ч</w>
от ло
от клю
ле сов</w>
каж ет</w>
гу ли
вра чи</w>
Н П
Вы бор</w>
стратеги й</w>
отме чено</w>
ни с</w>
иннова ций</w>
е ги
государствен ными</w>
выз вали</w>
Прави ла</w>
Па вло
Л У
Studi o</w>
ца ра
пока зывать</w>
муж ской</w>
краси вой</w>
каз ни</w>
зи й</w>
зака за</w>
доро го</w>
де ц</w>
С уда
На йдите</w>
А ли</w>
tw are</w>
a ut
Po d</w>
тран сли
сообщи ло</w>
рас ка
про ли
полни ть</w>
жде м</w>
гля дя</w>
г ений</w>
восста нови
Израи лем</w>
s y
ag o</w>
H ot
- Да</w>
сто на</w>
соответству ющий</w>
охран у</w>
млад ший</w>
кор м
го дам</w>
вер я
Сы на</w>
Ога йо</w>
Д он</w>
Д .</w>
i tion</w>
A C</w>
ч ника</w>
ц кого</w>
с бро
разгово ры</w>
помни т</w>
говари ва
П ак
Г У</w>
А ле
un c
re d</w>
Serv ices</w>
че ш
теку щий</w>
судеб ной</w>
солне чной</w>
не стаби
на пар
вы сказа
вто ро
все объемлю
Соедин ённых</w>
Подоб ные</w>
u a</w>
193 1</w>
т. п.</w>
сфер у</w>
приказа л</w>
преимуще ств</w>
ле вые</w>
ис пуга
е де
гово м</w>
генера ла</w>
А нали
t ra
Sp ec
4 5
уника льный</w>
призна л</w>
одино честве</w>
на дое
люб ителей</w>
кам ней</w>
до лине</w>
Э ле
ri a</w>
Rad io</w>
щ ите</w>
со ставить</w>
смен у</w>
промеж уточ
катастро фы</w>
за ду
жё л
докумен тации</w>
Л Ю
З О
en e</w>
A T</w>
попро сили</w>
пала ты</w>
библиоте ка</w>
бан ды</w>
Н ью</w>
Кон тро
Ко пенга
Ко де
Д и</w>
Гри н</w>
Вашинг тона</w>
id a</w>
M ad
то ном</w>
соревно ваниях</w>
са хар
о провер
о гор
кре ст</w>
использо ван</w>
и щем</w>
во льно</w>
Фак с</w>
Провер ьте</w>
Ку ль
m ail</w>
T er
оста льными</w>
не жела
мо ра</w>
измен ении</w>
а нима
а не
Пра вос
Ка спи
th r
экологи чески</w>
угле рода</w>
убий ством</w>
род ных</w>
реаги ровать</w>
покупа телей</w>
позво нила</w>
офице ров</w>
оста нутся</w>
ко фе
вод ителя</w>
в ский</w>
Би ч</w>
ai d</w>
Tran s
8 5
центра лизо
рай оны</w>
помощ ник</w>
ката ться</w>
инде кс</w>
знач ений</w>
а но</w>
Ю госла
У див
фина ле</w>
установ ке</w>
путеше ствен
пред принять</w>
па лу
опла тить</w>
маши ностро
ли ста</w>
ис чер
е с</w>
а спи
the ir</w>
х нуть</w>
сообщ ении</w>
гор ло</w>
Роу з</w>
a c</w>
фрук ты</w>
ули ц</w>
т e
спо ров</w>
кварта ла</w>
ви сит</w>
w ere</w>
T ra
цен ой</w>
сни мок</w>
небе сах</w>
направ лена</w>
гер цо
выде лить</w>
Смер ть</w>
Ле г
res p
19 13</w>
то рам</w>
по лю
нынеш него</w>
за брони
доми к</w>
до ход
бизне сом</w>
К р
Б ет
oo r</w>
b oo
со ч
сме ши
си дишь</w>
разработа ны</w>
рабо чем</w>
право вых</w>
пере дает</w>
п ку</w>
древ них</w>
втор ник</w>
У строй
Н ар
Молдо вы</w>
Кра си
чь ей</w>
туф ли</w>
под ряд
отра жа
от е</w>
особы й</w>
описы вает</w>
колен и</w>
значитель ную</w>
держа ли</w>
Поль ша</w>
Пла н</w>
П ей
Обе спе
198 0-х</w>
участ ки</w>
сан ти
р н</w>
получи в</w>
получа ете</w>
за веща
дерь ма</w>
да бы</w>
Фе н</w>
Ра м
ed s</w>
соревно ваний</w>
собствен но</w>
равен ство</w>
по груз
не отъемле
на едине</w>
куп или</w>
коммента рии</w>
Джек сон</w>
H or
1 40</w>
спа д</w>
серьёз но</w>
представля л</w>
кар ди
иден тифици
ви ски</w>
су ды</w>
догово ров</w>
де пресси
выход ных</w>
Джон ни</w>
n ew
W .</w>
J ul
ти ческих</w>
результа тах</w>
пере до</w>
мото цик
ид ите</w>
гре хи</w>
Управ ления</w>
В т</w>
Брай ан</w>
F las
9 6
ши ре</w>
ши кар
су ток</w>
сест ру</w>
пла тья</w>
вре мён</w>
бе лой</w>
er ed</w>
DV D-
ь и
сдела ешь</w>
пре ки</w>
популяр ность</w>
пи ла</w>
объеди нить</w>
наме ре
лет ние</w>
искрен не</w>
дер ы</w>
ве сен
ве ль
ак кура
Чёр т</w>
То ва
Пред ставля
Жа ль</w>
скла де</w>
ры ча
при бре
пи т</w>
Спе циали
Ex c
швед ский</w>
част ным</w>
хи щ
ли -
дыха ние</w>
ал лер
О казывается</w>
ic o</w>
ч ься</w>
ти рует</w>
сту дию</w>
расстоя ния</w>
распростра ня
рабо ток</w>
про чие</w>
полага ют</w>
л ём</w>
идеаль ный</w>
ги поте
вступ ить</w>
виру са</w>
По вы
Ма тери
Бес плат
f amily</w>
чувству ете</w>
фил д</w>
совет ской</w>
ребен ку</w>
пу льс</w>
применя ются</w>
пред положительно</w>
прави льное</w>
меч та</w>
говоря щие</w>
бит ве</w>
б с</w>
Ря дом</w>
sp ec
N ot
Ch rist
цита ты</w>
три лли
стар ших</w>
религиоз ной</w>
по стави
налич ными</w>
кор ни</w>
ин стин
дол ги</w>
ве лич
в стал</w>
альбо мов</w>
i er</w>
N ok
у с
тур не</w>
при думал</w>
представ ителем</w>
отправи лись</w>
мог ите</w>
л лу</w>
комму на
за дней</w>
государствен ном</w>
Лю к
И лли
v en
собствен ными</w>
сна ря
подчер кнуть</w>
ко пы</w>
ко з
инстру ментом</w>
величи не</w>
Фа й
Португа лии</w>
На звание</w>
Кля нусь</w>
D u
сра жаться</w>
пресс- служба</w>
пре дан
па ла</w>
луч шими</w>
компенса ции</w>
Укра ин
Пакиста на</w>
П э
Колумби и</w>
E .
штей н</w>
туберку ле
телефо не</w>
счита ются</w>
прове дена</w>
али зации</w>
И ностран
N orth</w>
I G
чи ми</w>
у ступ
традицион но</w>
тин г</w>
со вест
с пя
недоста ток</w>
ис ключения</w>
зи ей</w>
ден ной</w>
глоба лизации</w>
Мэ ри
ight s</w>
S t</w>
я дра</w>
чер ные</w>
удоволь ствия</w>
родствен ников</w>
реда ктор</w>
при несет</w>
измени лась</w>
за ставили</w>
гео метри
возра ста
Гово рю</w>
le d
9 7,
став ят</w>
са ла
раз ницу</w>
понима нии</w>
поис ке</w>
н e
кет ный</w>
име ющихся</w>
выбра ла</w>
бра ке</w>
ба б
P re
съ есть</w>
свя житесь</w>
р ва
прекрас ной</w>
о ро
компьютер ной</w>
клет ке</w>
к во
Спуст я</w>
Назар баев</w>
А п
i e
G am
стандар т</w>
сде лка</w>
ги ги
Эн н</w>
У спе
Т вое</w>
Колумби я</w>
in s
CO M</w>
уча ствуют</w>
уч ред
уров ни</w>
програм мах</w>
отказа лись</w>
най дет</w>
круп ного</w>
ва шими</w>
Роби н</w>
ти зации</w>
твер ды
приня тых</w>
представля ешь</w>
пере жить</w>
описа ть</w>
оке ане</w>
на в
консульта ций</w>
зво нит</w>
голо да</w>
га й</w>
вс помога
Шо у</w>
Т С</w>
Серби и</w>
Обслужи вание</w>
М эй
f f</w>
чинов ников</w>
ле дя
круп ным</w>
карто фе
измен ять</w>
веду щие</w>
Е ка
in cl
b ook</w>
3 50</w>
чув ств</w>
слуша л</w>
пойма ли</w>
наход ят</w>
ми й</w>
кон центри
к лей
гре ба
У сло
Официаль ный</w>
Мар га
In n</w>
Gen eral</w>
ша ли</w>
ча сто
уведом ления</w>
ров кой</w>
пш ени
очист ить</w>
нака нуне</w>
най дут</w>
й ки</w>
в ведение</w>
По могите</w>
Ден ь
Герма нию</w>
шу ма</w>
тол кну
откры тии</w>
ли стов</w>
ин фици
зам ке</w>
гне в</w>
г ви
бабу шка</w>
При мерно</w>
Кенне ди</w>
Гре ция</w>
энер гос
телефо ны</w>
сим метри
про сила</w>
при да
печа ть</w>
откры вать</w>
звез дой</w>
закры т</w>
ближай шем</w>
уголов ного</w>
у видим</w>
дере вен
гу н</w>
Барсело не</w>
су хо</w>
служа т</w>
появ иться</w>
н .
кварти р</w>
каче ством</w>
Ф рей
Д А</w>
предполага ется</w>
по кое</w>
оправ ды
ка ково</w>
держа т</w>
выска зы
возмож ны</w>
актив ной</w>
Тре тий</w>
Т я
Под держка</w>
Виде л</w>
3 2,
ти ческие</w>
сокра щению</w>
сла ву</w>
с жига
ро дом</w>
р -
перемен ы</w>
микро вол
менедж мента</w>
инфра структуру</w>
из вра
воло к
На против</w>
Мак с</w>
Гор я
lo g
er t
свобод ный</w>
подразуме вает</w>
осуще стви
о ра
мир ных</w>
зо нт</w>
жи ль
велосипе де</w>
б л</w>
По мощь</w>
Миннесо та</w>
фло т</w>
встреча л</w>
Фло рен
r ac
S ym
G lobal</w>
Al l
чер ного</w>
ти ну</w>
ти ков</w>
религиоз ные</w>
не винов
кур ить</w>
голь ф</w>
Согла шение</w>
эм итен
уча щихся</w>
утвержда л</w>
требо вать</w>
стер у</w>
си дя
раст я
рав ных</w>
подо йти</w>
па сто
зем лей</w>
железнодоро жного</w>
жар ко</w>
per i
1, 2</w>
узна ют</w>
стен а</w>
ско рой</w>
провер ка</w>
напа ли</w>
ку ря
ка ли</w>
ез жал</w>
ro w</w>
эффек та</w>
ум рет</w>
стра дает</w>
ре зи
по лета</w>
о долж
мониторин г</w>
люби ли</w>
дополнитель ный</w>
в ключения</w>
Ко раб
Б ит
теку щем</w>
со вых</w>
процеду ра</w>
приобрет ение</w>
перио дом</w>
корпу с</w>
дочер ью</w>
вы году</w>
боль ше
О стро
Ген ри
ch in
я щей</w>
электри чество</w>
суще ств</w>
ру ж
рин г</w>
про сы</w>
подоб ным</w>
пере чень</w>
пациен т</w>
отзы вы</w>
освещ ение</w>
направ лениях</w>
конститу ции</w>
инстру мента</w>
записа ть</w>
1 25</w>
0, 5</w>
чен ное</w>
филь т
сосредоточ иться</w>
просто е</w>
откры того</w>
контроли рует</w>
и ного</w>
гости ная</w>
Лю б
Ка л
S co
тер е</w>
позво лю</w>
погиб ших</w>
немец кой</w>
не лов
ит ут
использо вались</w>
гар деро
веща ми</w>
Р об
Кли ен
tran sl
- k
э ска
у ла
сель ской</w>
с пла
с клад</w>
получи м</w>
пак еты</w>
от везти</w>
о зву
ни ца
as s</w>
9 0-х</w>
чёр т</w>
тыся чу</w>
туа лет
стар шего</w>
санк ции</w>
пло тность</w>
напря жение</w>
на нима
кре а
ко ля
им му
жид кости</w>
га ла</w>
вмеша тельство</w>
НИ Я</w>
И гор
E U
экологи ческой</w>
чер ной</w>
рак еты</w>
объек том</w>
кра й</w>
де прессии</w>
Тбили си</w>
Т рен
Послед нее</w>
Государ ственный</w>
p le
Res earch</w>
Pow er
6 7
част ли
ре пли
пре образования</w>
пере мен</w>
мужчи нами</w>
ко т</w>
авто ром</w>
авиа компании</w>
Ф ан
Дево чки</w>
Ma x
Bri tish</w>
стол б
сти и</w>
слабы е</w>
плох их</w>
пане ль</w>
дис ке</w>
ге ль
г ек
бака лав
ба та
Дмит рий</w>
h ol
ec k
an s
3 9
участ ника</w>
умира ют</w>
у ход</w>
то ш
си дят</w>
се ле</w>
по пол
ко п
бук вы</w>
англи й
Ок сфор
on line</w>
as h</w>
P at
P E
A L</w>
ум ный</w>
ру с</w>
разговари вал</w>
пор ту</w>
пиро г</w>
парков ке</w>
находи мся</w>
лег ити
иска ли</w>
гон ке</w>
К лэр</w>
сня ли</w>
процес сом</w>
особы х</w>
опера тора</w>
на страи
жела я</w>
дальней шей</w>
д на</w>
Поня тно</w>
Государ ственного</w>
pl ace</w>
факульте т</w>
тенни с</w>
сро ком</w>
правитель ственные</w>
пель си
пе хо
отды ха
объясни л</w>
награ д</w>
k m</w>
ast er</w>
a w</w>
L eg
Euro pe
чи кам</w>
фа ши
стран ным</w>
посо л</w>
последователь ности</w>
осно ваний</w>
к ван
институ те</w>
горно лы
близ ких</w>
Комп лек
Serv ice</w>
чер ных</w>
субъек тов</w>
рассматри вает</w>
про чь</w>
по больше</w>
пере ста
объедин ение</w>
лю без
Начи на
Моск ву</w>
Государ ственной</w>
Бе лого</w>
tal ks</w>
ши сь</w>
холодиль нике</w>
успе хи</w>
удовлетвор ить</w>
ста рую</w>
сле дил</w>
реак цию</w>
рабо чим</w>
полож ением</w>
по- моему</w>
от стра
ле жал</w>
з о</w>
жа рен
дополнитель ного</w>
ди визи
го ня
верну ли</w>
важ ности</w>
Чер ный</w>
Од ной</w>
На йди</w>
ed .com</w>
Pro ject</w>
эк зо
чен ко</w>
установ ленных</w>
раз бер
р с</w>
професси и</w>
портре т</w>
пере пол
не мно
науч ного</w>
ла до
внеш ним</w>
вен ю</w>
u x
P aul</w>
E th
с дать</w>
подразде ление</w>
по лей</w>
плане та</w>
пит ье
конкре тной</w>
картин ки</w>
вы ну
в ке</w>
апарта ментов</w>
Ш он</w>
Участ ники</w>
Крас ного</w>
er .html</w>
c .
фер ме</w>
участи ю</w>
укреп ить</w>
ска зыва
ру ка
по рой</w>
оказа ние</w>
насчиты валось</w>
направ лениям</w>
Ме мо
И ни
ev en</w>
a use</w>
O N</w>
ти г
сы ну</w>
прось бой</w>
прово дили</w>
поме щений</w>
крити ки</w>
губерна тора</w>
По кажи</w>
c oun
S el
Nok ia</w>
BB C</w>
сту л</w>
стран ное</w>
содержи мое</w>
призна н</w>
г воз
важней ших</w>
автобу са</w>
Сан та</w>
Во да</w>
j a</w>
ec ts</w>
I C</w>
ша х</w>
утвер ждать</w>
тя н</w>
пото ков</w>
помо гло</w>
па ца
от се
от лож
оставля ть</w>
наро ды</w>
мета лла</w>
ку ля
игру шки</w>
С В
Ке лли</w>
Джей мса</w>
own lo
це лая</w>
ф от
участ ков</w>
свидетель ствуют</w>
привод ят</w>
под ключа
пер вен
монасты рь</w>
ко пов</w>
достоин ства</w>
голу бой</w>
выпол няется</w>
вой ной</w>
брон зо
У зна
Р иг
Индоне зии</w>
Ат лан
Sci ence</w>
пло ско
ин спек
демонстри рует</w>
выпу стить</w>
бур га</w>
Насла жда
НО СТ
Джер ри</w>
у ходу</w>
у вижу</w>
тра м
расслаб иться</w>
потер ян
переда вать</w>
ни тесь</w>
налого вых</w>
лез ть</w>
за жига
выстре лил</w>
воздуш ных</w>
СПИ Дом</w>
ПР И
НЫ Е</w>
щи ками</w>
та й</w>
ру ющей</w>
противоре чи
про ходила</w>
пар нико
ну в</w>
кредит ных</w>
корпора ция</w>
ки не</w>
измен ению</w>
вз ве
По дожд
Манх эт
ear t</w>
A N</w>
уче сть</w>
тив но-
рассчиты вать</w>
продук ция</w>
пригла сили</w>
подроб ности</w>
зу т</w>
живо тного</w>
Откры тый</w>
Авто р</w>
цен ным</w>
узе л</w>
у не</w>
тай ны</w>
по играть</w>
пе й</w>
обы чным</w>
коридо ре</w>
копи я</w>
коль ца</w>
значитель ным</w>
заключ ить</w>
вше еся</w>
в ле</w>
бо ятся</w>
аф ган
Суще ствуют</w>
С нова</w>
ro l</w>
pl ay
duc tion</w>
Mus eum</w>
M el
пропа вших</w>
дли ну</w>
дис сер
г тон</w>
бан ки
С пут
Рос т</w>
Па п</w>
Всемир ный</w>
Вен е</w>
v ir
an -
Manag er</w>
L iv
19 10</w>
экологи ческих</w>
успеш ным</w>
управ лен
отме тили</w>
консоли ди
клад ки</w>
за бе
в дво
акка ун
Об щие</w>
Един ственная</w>
День ги</w>
ort s</w>
aul t</w>
G .</w>
чёр ный</w>
хи я</w>
фор а</w>
уль тра
собы тиях</w>
пропа л</w>
провер ил</w>
зага до
древе си
дет ка</w>
Т .
С вет</w>
an i
19 12</w>
уг ля</w>
ры б</w>
раз ума</w>
прави лами</w>
педаго ги
ме ется</w>
ма ном</w>
кое н</w>
Со циаль
СПИ Да</w>
П ят
М я
And ro
пос лан
попы тку</w>
оборо та</w>
на нести</w>
ме шает</w>
ле тать</w>
ла -
культур ные</w>
конферен ций</w>
брони рования</w>
бага ж
Лис сабо
un n
W rest
ч ите</w>
ули ца</w>
сертифика т</w>
са ть</w>
пре д</w>
п р</w>
но гах</w>
воен ное</w>
а лов</w>
Швейца рия</w>
Барсело ны</w>
V ers
6 5
экономи ческому</w>
та туи
т но
спро сила</w>
сдела ло</w>
реши т</w>
рестора ны</w>
процеду ру</w>
преследо вания</w>
прекрас ные</w>
по ясни
опублико вала</w>
нача льной</w>
настоя щую</w>
м ё
един ства</w>
де пози
а мери
М она
ou ch</w>
Instit ute</w>
ход ится</w>
физи ческие</w>
р ту</w>
пя тый</w>
производ ители</w>
начина ю</w>
л тон</w>
кноп кой</w>
использу емые</w>
за то</w>
за дей
досту пом</w>
дви жением</w>
в праве</w>
бля дь</w>
Пакиста н</w>
Бар ри</w>
elop ment</w>
ak ing</w>
ён ная</w>
фи нал</w>
устанавли вать</w>
тив ности</w>
сфер а</w>
процес су</w>
процент ных</w>
плат форме</w>
паке тов</w>
му сора</w>
ме ц</w>
ка ции</w>
запро сы</w>
жа м</w>
де ров</w>
да тай
да дут</w>
По мню</w>
Га з</w>
sch e</w>
B ook</w>
ф ре
ст ное</w>
представля ю</w>
па да
оста льной</w>
оконча нии</w>
оди н
наход ясь</w>
континен та
кв. м.</w>
импери али
джа кузи</w>
генера льного</w>
Че ш
Фран цию</w>
Пой ду</w>
Л А</w>
Детекти в</w>
Ар тур</w>
А ма
чис лу</w>
черто вски</w>
це лых</w>
тан цы</w>
сельскохозяй ственных</w>
пти ца</w>
па я</w>
охваты вает</w>
музыка льных</w>
ключе вым</w>
гра мот
выступ лении</w>
времен ный</w>
ве рев
важ ными</w>
Не мец
Mar k
филосо ф
са лон</w>
про читал</w>
прекрас ное</w>
офи циан
отде лении</w>
обнару жила</w>
об а
ку хо
ка ссе
иди от</w>
двой ной</w>
выбро сы</w>
бога тые</w>
Сан та-
Разу меется</w>
укра сть</w>
ста рик</w>
ситуа цией</w>
освобо ждение</w>
обы чного</w>
но жом</w>
ки ше
Майк ла</w>
И ль
w ood</w>
of f</w>
. net</w>
устойчи вости</w>
треть я</w>
теп ла</w>
пя тер
пира ми
персонаж ей</w>
от влека
оп понен
озер е</w>
обществен ное</w>
низ ко
мар ка</w>
крупней шим</w>
заявля ет</w>
город ке</w>
возник ли</w>
верси й</w>
без дом
C am
0, 000</w>
сексуаль ной</w>
ребён ком</w>
Нача ло</w>
Гово рит</w>
В ключа
v al
ag ue</w>
ше р</w>
укра ли</w>
ради остан
клима т</w>
валю т</w>
ва жен</w>
Яв ляется</w>
Гар вар
Techn ology</w>
O l
Explor er</w>
фи н</w>
т кан
про сим</w>
потер пе
окрест ностях</w>
на ступа
мини стри
лло у
ле вого</w>
дет ского</w>
все сторон
в ё
в клады
бе лым</w>
Сове том</w>
К о</w>
Manag ement</w>
фо л
услу гу</w>
свой ств</w>
производ ителя</w>
парламен те</w>
объяс нение</w>
о пуска
медицин ские</w>
ме дали</w>
затяну то</w>
задол женности</w>
загряз нения</w>
з ды
бюджет ных</w>
Х ристи
Д жим</w>
vers ion</w>
as y</w>
S ur
француз ского</w>
устро ил</w>
се ль</w>
прекрас ным</w>
отра жение</w>
организ ме</w>
ко ны</w>
зна ча
занима лась</w>
вели ких</w>
бе лая</w>
На та
Кэ трин</w>
Здрав ствуйте</w>
Возь мите</w>
Вер х
V o
сторон ников</w>
предупред ить</w>
пи джа
миро вые</w>
л ль</w>
за жи
де кора
высоко постав
ве сель
Исто ри
Бро сь</w>
www.t ed.com</w>
E P</w>
ствен ному</w>
регу ля
пу ля</w>
представитель ства</w>
предло жила</w>
пона доби
на жать</w>
за та
за ставила</w>
ди ск
ди ван</w>
ван ь</w>
бага жа</w>
Е сте
А вра
s ci
шка ф</w>
уч ения</w>
созда нием</w>
зво ню</w>
за те
Служ ба</w>
Мекси ки</w>
Кри сто
Конгре сс</w>
Ка к
До говора</w>
Аль бер
F F
цар я</w>
фак та</w>
ре спонден
ре к
нес ла</w>
ма ра
коман ду
запла тил</w>
забы вать</w>
ен ными</w>
доро гие</w>
дополнитель ная</w>
до мена</w>
валю те</w>
бед ня
бан ку</w>
Э ду
Ма лы
Иде я</w>
це лого</w>
фикса ж</w>
ста рым</w>
нер вни
Ти хоокеан
По шли</w>
П И
Брита нии</w>
il le</w>
ти с</w>
середи ны</w>
с с-
с провоци
намер ения</w>
дости жений</w>
го е</w>
в ном</w>
блон дин
бла га</w>
Хи лл</w>
Председа теля</w>
Влади мира</w>
or ia</w>
рекла му</w>
пунк ты</w>
примен ении</w>
ло га</w>
геро ев</w>
британ ский</w>
Пере вод</w>
Ира не</w>
ut es</w>
трени ровки</w>
съ ё
составля ло</w>
раскры ть</w>
про йдёт</w>
превра щается</w>
получа ли</w>
по и
осно ванный</w>
на кры
лин г</w>
кар дина
ка но
замен ы</w>
графи к</w>
ва етесь</w>
Ф А</w>
К И
э ры</w>
фио ле
сред няя</w>
соблюд ение</w>
ситуа ций</w>
постоян ное</w>
лю кс</w>
ген ов</w>
С в</w>
При чина</w>
Вы пу
est s</w>
ch e
Jav a</w>
.0 8.
си шь</w>
реали сти
придержи ваться</w>
предвар ительного</w>
пле ер</w>
на б
мно ю</w>
квадра тный</w>
зави сеть</w>
беспоко иться</w>
адап тации</w>
автомоби ле</w>
а ции</w>
n ess</w>
di ff
ян варь</w>
щ ину</w>
ста ру
са по
постро ения</w>
полице йского</w>
остави в</w>
опреде лены</w>
най дено</w>
мест но</w>
лл -
им порт</w>
из вин
Люк сем
Бы стро</w>
у мно
семина р</w>
полице йские</w>
переме щения</w>
кред ита</w>
интерес ное</w>
за будьте</w>
ды ру</w>
да й
анали зировать</w>
Нидерлан ды</w>
На блю
Ар кти
Op en</w>
19 11</w>
тре к</w>
су мо
сосед ству</w>
пас си
отве тов</w>
нен у
недоста тки</w>
ми гри
месторо ждений</w>
иллю стра
игнори ровать</w>
гости ни
го рит</w>
ги бели</w>
гаран тий</w>
um p
m ost</w>
S S</w>
ци лин
фон ды</w>
тифика ции</w>
стро я</w>
предусмотрен о</w>
пре успе
попы ток</w>
понрави лась</w>
поверх ност
обще ству</w>
леген дар
кли нике</w>
е дят</w>
да вали</w>
Я р
Ф ей
эффек тов</w>
щен ным</w>
хоро шен
устра нить</w>
союз ников</w>
созда вая</w>
сери але</w>
подтвер ждения</w>
по работать</w>
по местить</w>
перен о
мар к
закры та</w>
друж бы</w>
выход ной</w>
Им пера
Аб ду
i Pod</w>
пы ток</w>
психи атри
постро ены</w>
поме шать</w>
позво льте</w>
ми е</w>
домаш ний</w>
горя чая</w>
гла в</w>
tw o</w>
10 1</w>
те сто
ство вания</w>
работа ло</w>
пи шут</w>
кру той</w>
докумен тах</w>
доба вок</w>
Дже ф
n b
T- 2</w>
4 4
шта тов</w>
ся н</w>
сигна лы</w>
свиде тель</w>
повсе дневной</w>
напря жения</w>
за хотел</w>
еже меся
взры вча
Со ответ
uc k</w>
ep t
at us</w>
эксперимен т</w>
ше ствие</w>
стара юсь</w>
плит ки</w>
оказыва ют</w>
инвести ровать</w>
бо та
Ира ном</w>
Госпо ду</w>
T it
те сты</w>
само летов</w>
ра ста
популяр ным</w>
оста тки</w>
наблюд ение</w>
крас ки</w>
интерес ный</w>
жерт вами</w>
види мости</w>
ПР Е
Ки ев</w>
R en
сти на</w>
став ке</w>
при думать</w>
предыду щего</w>
пор тал</w>
подписа ния</w>
отобра жается</w>
мо нар
мар ки
винова т</w>
Фе стива
Конгре сса</w>
энерги ей</w>
тысяче летия</w>
сти ла</w>
мерт в</w>
ла зер
ката лог</w>
иде м</w>
s p</w>
эпизо д</w>
э .</w>
ш риф
рас е</w>
назна чение</w>
ли сто
кита йского</w>
жела ю</w>
д ского</w>
О К</w>
А раб
Rus sia</w>
L IN
D .
чи вает</w>
у ехала</w>
опла ту</w>
немец кого</w>
ен ную</w>
времен ных</w>
возмож ной</w>
От ве
it a</w>
a ur
Vis ual</w>
Te am</w>
.0 6.
энергети ческих</w>
труд ящи
счастли вы</w>
с бли
рису нок</w>
р ки</w>
получ у</w>
пере ехать</w>
офи цера</w>
обма ны
н ских</w>
зави сят</w>
гран ди
ван ну</w>
бес прецеден
асси стен
Центра льный</w>
Сред няя</w>
Афгани стан</w>
art ment</w>
Roy al</w>
умень шения</w>
стандар та</w>
совеща ние</w>
про ду
понрави лся</w>
подня лся</w>
налого об
малень ком</w>
ко ме
ке ль</w>
зна ниями</w>
духов ной</w>
до ра</w>
глу по</w>
бассей ном</w>
И ден
str y</w>
St ate</w>
ули к</w>
у чил</w>
тари ат</w>
талан т</w>
раз ным</w>
подходя щее</w>
об нови
ла вной</w>
кредито вания</w>
колле гами</w>
ин гре
за мы
достиг нуть</w>
ве тери
НИ Е</w>
ti l
b le
al d</w>
Gre en</w>
[...]
