#version: 0.2
t h
th e</w>
i n
a n
e r
r e
t i
o u
p o
o n
o f</w>
e n
a r
i n</w>
in g</w>
e d</w>
o n</w>
e r</w>
an d</w>
t o</w>
o r
po s
a l
& a
s t
i t
&a pos
e s</w>
i s</w>
&apos ;
r o
a t</w>
a t
o r</w>
o u</w>
a n</w>
a s</w>
a c
l i
o m
i l
e c
a l</w>
o t
e l
q u
s t</w>
i c
v e</w>
a ti
e n</w>
s i
h e</w>
y ou</w>
r i
w h
th at</w>
u r
s e</w>
h a
e a
n o
qu ot
l o
d i
quot ;</w>
& quot;</w>
l y</w>
l e</w>
er e</w>
&apos; s</w>
i t</w>
a m
f or</w>
en t</w>
e m
e s
e v
u n
o l
a g
t s</w>
a b
it h</w>
a y</w>
s h
g h
w as</w>
th e
b e
w ith</w>
ati on</w>
p ro
c h
ou r</w>
r a
s u
e t</w>
i r
c e</w>
o p
T he</w>
c on
a s
c om
m e</w>
ou n
b e</w>
ar e</w>
b u
e x
p l
d e
T h
ou t</w>
t er
a d
a k
al l</w>
o v
l d</w>
ti on</w>
on e</w>
i s
b y</w>
Y ou</w>
gh t</w>
t r
th is</w>
ro m</w>
f or
s e
u l
o o
on s</w>
n e
I t</w>
f rom</w>
ha ve</w>
no t</w>
u c
er s</w>
w or
th er</w>
d o
. .
it y</w>
s p
d s</w>
u s
h i
a p
v i
c i
.. .</w>
at e</w>
w e</w>
&apos; t</w>
f f
y our</w>
e t
ou ld</w>
re s
2 0
il l</w>
p er
I n</w>
t o
i m
l e
a y
t er</w>
m y</w>
m o
no w</w>
p ar
t ed</w>
c an</w>
d e</w>
u st</w>
s o</w>
v er
a r</w>
A n
w ill</w>
po r
i r</w>
u m
d ing</w>
a u
e ar
r e</w>
c h</w>
st r
g i
ur e</w>
m e
om e</w>
1 9
an t</w>
t h</w>
in g
p e
al ly</w>
d er</w>
k e</w>
g o
l a
m ent</w>
am e</w>
es s</w>
h is</w>
ag e</w>
u p</w>
c o
bu t</w>
w n</w>
an y</w>
u t</w>
u s</w>
th ere</w>
h as</w>
w ere</w>
&apos; m</w>
f i
l l</w>
ou r
l ea
in e</w>
the y</w>
ic h</w>
h o
en t
b o
g e</w>
ak e</w>
th ing</w>
or e</w>
&apos; re</w>
on al</w>
g u
a in
t w
re c
k ing</w>
An d</w>
s a
n i
i d</w>
e l</w>
e p
e st
u t
k s</w>
el l</w>
at ed</w>
wh ich</w>
ac e</w>
ab out</w>
oun d</w>
ac k</w>
li ke</w>
ti me</w>
ov er</w>
w ay</w>
g h</w>
wh o</w>
I n
ar y</w>
e y</w>
b er</w>
en ts</w>
c l
j ust</w>
ab le</w>
d er
it s</w>
an ce</w>
o ther</w>
a in</w>
g et</w>
g r
20 0
ti c
t ing</w>
h er</w>
ic e</w>
the ir</w>
d ed</w>
en ce</w>
H e</w>
d ay</w>
ha d</w>
be en</w>
k now</w>
c oun
h ere</w>
d o</w>
e st</w>
p re
wh at</w>
in d</w>
f ir
S t
m ore</w>
on g</w>
re d</w>
d uc
si on</w>
c re
ea r</w>
C h
ev er</w>
i f</w>
con t
w i
for m
ati ons</w>
al l
s o
in ter
ev er
ol d</w>
om e
s er
t y</w>
b ec
ar d</w>
es s
wh en</w>
s el
m in
p res
f e
op le</w>
ti ons</w>
S o</w>
hi m</w>
ou gh</w>
oo d</w>
it e</w>
com p
w ould</w>
re n
t u
lo o
c a
ay s</w>
s ec
ri ght</w>
on ly</w>
r u
the m</w>
ov er
p p
ec i
ti es</w>
ou s</w>
s ti
in k</w>
ear s</w>
a d</w>
di s
li c
t ra
ec t</w>
p ri
d u
& #
&# 9
au se</w>
al i
n o</w>
i c</w>
&apos ;</w>
pe ople</w>
sh o
&apos; ve</w>
p h
u b
en d</w>
il l
m ar
v ing</w>
20 1
in to</w>
f a
ati onal</w>
el y</w>
ing s</w>
m i
m on
w e
fir st</w>
o c
0 0</w>
f e</w>
B ut</w>
or y</w>
il e</w>
a f
s he</w>
an d
s ome</w>
o ff
en ti
com m
re e</w>
b i
al so</w>
t ;</w>
ne w</w>
k ed</w>
v es</w>
n ing</w>
s ome
Th is</w>
t ri
m an</w>
y ears</w>
s y
lo w
g o</w>
b le</w>
d y</w>
t ur
re s</w>
b ack</w>
o f
an s</w>
an i
d on</w>
f u
f in
b r
s on</w>
cl u
b l
tw o</w>
wor k</w>
wh ere</w>
go t</w>
an g
sh i
th ink</w>
or i
si g
g ra
th an</w>
o se</w>
d ev
c or
p a
mo st</w>
it t
el l
h ou
or s</w>
p r
n a</w>
w ant</w>
se e</w>
f ac
us si
at es</w>
em ber</w>
em ent</w>
lo c
F or</w>
th en</w>
ic al</w>
S he</w>
m p
o m</w>
por t</w>
ver y</w>
v ed</w>
w s</w>
s ed</w>
R ussi
i l</w>
wor ld</w>
ea d</w>
c ould</w>
t en
ac h</w>
s in
o b
&apos; ll</w>
al s</w>
at er</w>
g re
c es</w>
h el
ar i
an s
st e
com e</w>
sh ould</w>
ap p
i st
sa id</w>
the se</w>
f t</w>
ho w</w>
a z
n ed</w>
Th ere</w>
re m
ad e</w>
g e
m an
at ing</w>
ti ve</w>
si de</w>
i d
Th ey</w>
en er
t e
u m</w>
t ake</w>
oo k</w>
in v
e i
m il
W h
a m</w>
n ational</w>
for e</w>
m er
ub li
c ri
ev en</w>
k e
r y</w>
tr y</w>
th r
do wn</w>
bec ause</w>
e w</w>
Th at</w>
u e</w>
A l
ser v
A r
el op
un der</w>
f r
ne ed</w>
I f</w>
go ing</w>
f am
il y</w>
m a
pro duc
ti m
li fe</w>
w ell</w>
ic i
m ake</w>
ar ound</w>
af ter</w>
y ing</w>
e d
a re
us ed</w>
m any</w>
p s</w>
s k
c ol
re l
wi th
j o
a v
s es</w>
t ec
st ar
ac h
s ur
o d</w>
th ose</w>
g y</w>
ou ght</w>
ea h</w>
an ge</w>
t t
ro om</w>
pl ace</w>
o re
c en
st u
H o
fu l</w>
of f</w>
d n</w>
s ame</w>
C om
si d
sel f</w>
f l
it ed</w>
por t
on na</w>
w er</w>
u ro
c ar
C on
c er
in clu
z e</w>
en d
i g
m at
m is
u se</w>
t ak
di ff
19 9
m ade</w>
la st</w>
su ch</w>
thr ough</w>
g onna</w>
po li
p ul
dev elop
sp eci
t ure</w>
po n
g ood</w>
O h</w>
p e</w>
shi p</w>
itt le</w>
y ear</w>
m ay</w>
t ly</w>
su p
ou t
g t;</w>
& gt;</w>
op er
re gi
e en</w>
d re
Y eah</w>
s ing</w>
3 ;</w>
&#9 3;</w>
be fore</w>
bu il
k no
qu i
at t
re ad
th er
g ir
t al
t or</w>
an y
str uc
p ut</w>
v en</w>
b as
c ap
w ar
over n
ac c
E uro
1 ;</w>
&#9 1;</w>
e p</w>
O n
l ittle</w>
p le</w>
t a
ec on
an k</w>
st s</w>
di d</w>
so ci
an c
un i
s ure</w>
ex p
W e</w>
b a
ati ve</w>
o s
uc h</w>
v er</w>
R e
bo dy</w>
lo w</w>
E x
po in
A mer
M ar
oo l</w>
in i
hou se</w>
n um
b ot
em s</w>
P ro
Amer ic
c lo
c our
s ch
per i
l ar
ubli c</w>
m s</w>
an ts</w>
pro c
be ing</w>
ste m</w>
l and</w>
su b
e -
ti c</w>
form ation</w>
m ust</w>
y s</w>
w a
ch il
h ome</w>
k et</w>
f er
un der
P ar
as s</w>
l ine</w>
o wn</w>
ever y</w>
g in
pro vi
ex t</w>
ever y
w ays</w>
ur ing</w>
ic es</w>
p i
f ri
sh ed</w>
sti ll</w>
ter s</w>
c ha
f ol
st an
w r
c u
il ity</w>
tr ans
g g
e e</w>
E n
be tw
su l
n ec
betw een</w>
ain st</w>
res s</w>
n er</w>
h e
s h</w>
m uch</w>
U n
n ever</w>
econ om
or g
c ur
ac t</w>
ca se</w>
ha pp
f ul
is h</w>
ag ainst</w>
par t</w>
m ak
wh ile</w>
re ally</w>
on g
l es</w>
b re
1 8
si ble</w>
at h</w>
f ind</w>
em p
gh ts</w>
s ay</w>
l an
i es</w>
h um
c all
b ro
- -</w>
some thing</w>
ch ar
sy stem</w>
ti v
tic al</w>
pl ay
el s</w>
In ter
diff er
d ic
ou s
i li
ni ght</w>
tri es</w>
i ght</w>
&apos; d</w>
to o</w>
A ll</w>
c ar</w>
en c
coun try</w>
me an</w>
l t;</w>
& lt;</w>
f ic
h ear
s m
s ol
or der</w>
w om
th ree</w>
st er</w>
d es
s s</w>
b er
f un
ch ange</w>
li on</w>
f ound</w>
l in
e se</w>
g overn
loo k</w>
ver s
com pl
g ro
l et</w>
el ec
st ri
z ed</w>
coun tries</w>
as s
po pul
k ay</w>
s ha
fam ily</w>
d em
on d</w>
d ec
s it
I s
e ff
e f
read y</w>
d r
A c
be st</w>
j ect</w>
p ic
w ater</w>
I s</w>
Russi a</w>
ec ts</w>
1 0</w>
di rec
ac k
hi gh
K az
h ead</w>
al ity</w>
L i
O n</w>
in formation</w>
num ber</w>
me di
u p
lo ve</w>
pro b
s c
a ir
f ace</w>
in a</w>
ag es</w>
st ate</w>
g ame</w>
re g
v en
m ov
G od</w>
A s</w>
h ol
pl an
o le</w>
li ght</w>
Russi an</w>
f il
e g
u d
al e</w>
s et</w>
m or
si ons</w>
n ame</w>
an n
st an</w>
le ft</w>
l ed</w>
t ain</w>
be li
tim es</w>
we e
for m</w>
l ess</w>
l ong</w>
c ity</w>
t re
e ach</w>
U ni
t ell</w>
par t
th ings</w>
en g
pos i
im port
a ve</w>
bu sin
in cre
at ure</w>
n ess</w>
e y
m ents</w>
l ev
gi ve</w>
a way</w>
tec h
D o</w>
g ener
d uring</w>
lea r</w>
i a</w>
d eci
le g
ag ain</w>
th ought</w>
F r
1 8</w>
hel p</w>
low ing</w>
S h
di dn</w>
2 0</w>
s en
it al</w>
P re
A u
w an
Kaz ak
bot h</w>
ou p</w>
D i
ci p
m en
F e
comp any</w>
with out</w>
in st
v al
d en</w>
al ways</w>
d ays</w>
con si
en s</w>
a il
ci al</w>
i de
de p
w ever</w>
P o
dre n</w>
d ers</w>
h an
f ore
t ook</w>
n ext</w>
sid ent</w>
W or
wh y</w>
t en</w>
c ul
w in
ou th</w>
d ri
ut e</w>
ou l
h tt
st er
gir l</w>
ec ted</w>
an other</w>
vi ew</w>
d es</w>
gre at</w>
res pon
m em
0 00</w>
w al
to day</w>
w ing</w>
S p
z ation</w>
di tion</w>
re sul
htt p</w>
N o
do c
cont ro
c ame</w>
e ve</w>
t y
po wer</w>
ex am
h ar
differ ent</w>
r ac
si ve</w>
0 .
h ea
call ed</w>
w ent</w>
n s</w>
sin ce</w>
develop ment</w>
st ory</w>
is su
B o
mi ght</w>
Y our</w>
li ving</w>
lo t</w>
l ing</w>
b ur
inclu ding</w>
On e</w>
b or
el d</w>
et y</w>
v ir
ap pro
wh ole</w>
do es</w>
chil dren</w>
2 .
Kazak h
are a</w>
D e
busin ess</w>
S er
n am
our s</w>
19 8
ig n</w>
cont in
mon ey</w>
ge ther</w>
t old</w>
tur n</w>
t ain
gu y</w>
str y</w>
be t
d ro
li m
d at
C en
st o
b ed</w>
G re
p er</w>
g am
ti onal</w>
on t</w>
th s</w>
mar ket</w>
G er
J o
si c</w>
sig n</w>
re as
ad v
en ed</w>
T o</w>
in t
3 0</w>
to gether</w>
inter national</w>
lo gy</w>
ot el</w>
et ing</w>
poin t</w>
ne e
Un ited</w>
import ant</w>
su m
M a
per son</w>
pos sible</w>
O kay</w>
su c
par ti
ti on
t e</w>
Y es</w>
m u
N ew</w>
1 .
org ani
se ar
fe w</w>
c an
Kazakh stan</w>
r un
m en</w>
sa w</w>
p ur
d in
s ci
c am
ro w</w>
en ing</w>
cur ren
govern ment</w>
Americ an</w>
hi gh</w>
w ard</w>
a st</w>
ic k</w>
le ar
ep t</w>
k ill
co m</w>
ti l</w>
or t</w>
di vi
ex c
o s</w>
h al
do or</w>
tak en</w>
b ers</w>
sec ond</w>
G r
l s</w>
popul ation</w>
pro f
h er
is m</w>
ic s</w>
ur ity</w>
bet ter</w>
p ublic</w>
to p</w>
op en</w>
y s
fac t</w>
ch ang
pl ay</w>
5 0</w>
it ing</w>
v e
man ag
ag o</w>
au th
on -
u tion</w>
b el
col l
per s
k ind</w>
es n</w>
u r</w>
pr in
k ey</w>
f re
re st
t able</w>
sch ool</w>
st and</w>
. com</w>
ul ar</w>
us ing</w>
inter est
er i
uc k</w>
a ir</w>
n ot
ir e</w>
ab ly</w>
en ces</w>
w n
re lea
th ough</w>
1 5</w>
F rom</w>
un til</w>
st re
dis c
qu es
enc y</w>
G et</w>
to wn</w>
d ge</w>
al ready</w>
Euro pe
th ers</w>
s ing
A f
en ds</w>
ea m</w>
sho w</w>
bi g</w>
tr ac
ea se</w>
vers ity</w>
r .</w>
n or
al es</w>
w at
n al</w>
b an
T o
d ra
tr u
hum an</w>
G e
a se</w>
c all</w>
wor king</w>
s ite</w>
et ting</w>
ke ep</w>
d d
rec ei
em ents</w>
b ook</w>
re al</w>
lo b
se en</w>
suc c
do esn</w>
or d</w>
C o
sup port</w>
re st</w>
Ch ri
A S
pl ac
ab ility</w>
f ree</w>
econom ic</w>
t on</w>
ac ti
mil lion</w>
un ity</w>
1 0
R ep
J u
19 7
N or
G u
por ts</w>
St ates</w>
ri ed</w>
A t</w>
H ere</w>
lo g
some one</w>
li ve</w>
D on</w>
v ol
ir d</w>
w on</w>
C oun
t om
Euro pe</w>
re ad</w>
with in</w>
ea s
ic k
u al</w>
ro ss</w>
sti tu
serv ice</w>
Europe an</w>
off ice</w>
lev el</w>
M o
mp ;</w>
&a mp;</w>
buil ding</w>
at ely</w>
tu ally</w>
ent al</w>
f o
w ea
oul dn</w>
1 1</w>
on es</w>
kno wn</w>
fi ed</w>
gr am
loo king</w>
c ra
g l
1 2</w>
oper ation</w>
fr ont</w>
i gh
u ti
B e
at or</w>
e m</w>
c at
M in
com ing</w>
sh all</w>
ati on
app lic
ent ly</w>
ut es</w>
D id</w>
exam ple</w>
hou se
be h
b and</w>
lo y
par tic
U S</w>
, 000</w>
ay ing</w>
ut ure</w>
every thing</w>
s k</w>
ul t</w>
parti cip
poli tical</w>
ur y</w>
ec tive</w>
bec ome</w>
c lear</w>
2 5</w>
t em
n et</w>
fi eld</w>
b ar
mor ning</w>
la w</w>
me ans</w>
compl et
k i
Ho wever</w>
v ari
cour se</w>
R o
cen tr
b oo
P e
P l
do ing</w>
posi tion</w>
y -
bas ed</w>
re pres
t ors</w>
ar t</w>
contro l</w>
in du
ex peri
an cial</w>
c as
fi c</w>
beh ind</w>
3 .
un e</w>
t -
v ic
f f</w>
st at
t ot
wan ted</w>
h and</w>
r it
on ce</w>
le m</w>
di es</w>
A d
f uture</w>
sit u
enti al</w>
p ed</w>
k ra
er y</w>
ec tion</w>
b it</w>
k er</w>
sm all</w>
star t</w>
al th</w>
off ici
v is
cor ding</w>
h old</w>
g en
as k</w>
gr oup</w>
beli eve</w>
B l
1 00</w>
en ted</w>
c ou
sear ch</w>
dat a</w>
b ri
Pre sident</w>
y oun
m ul
li sh</w>
F in
de f
f ur
c ent
in ing</w>
F or
si t</w>
m y
w ar</w>
inv est
re qui
d -
any thing</w>
w w
U kra
str ong</w>
u h</w>
d one</w>
av ail
at s</w>
sp e
hel d</w>
Wor ld</w>
m er</w>
pos ed</w>
ati c</w>
b ea
gr ound</w>
do m</w>
P er
fa ther</w>
l ater</w>
R i
S u
wom an</w>
an t
fol lowing</w>
ac coun
o gra
th em
l ong
st om
si ze</w>
at ur
si st
ch ec
h ard</w>
tic s</w>
Ch ina</w>
f ile</w>
wor ks</w>
j ects</w>
prob lem</w>
mon ths</w>
2 4</w>
w er
proc ess</w>
po n</w>
sh ing</w>
serv ices</w>
en ough</w>
tech no
con cer
O c
O r
e f</w>
ous ly</w>
est ab
st or
di ed</w>
e w
ha ving</w>
e duc
d am
ma j
s po
mak ing</w>
pro ject</w>
pri v
B el
C ar
Com m
g etting</w>
S ome
0 0
f our</w>
at e
h t
M on
regi on</w>
op e</w>
th re
fi ve</w>
t eam</w>
sec urity</w>
v o
H is</w>
wom en</w>
no thing</w>
J an
D ec
a w
B ec
in s</w>
Th en</w>
V i
ur ch</w>
ot s</w>
ag re
m ain</w>
str ic
p u
o ve</w>
f lo
produc tion</w>
s w
gra m</w>
c k</w>
c ed</w>
ful l</w>
19 6
de ath</w>
S o
201 0</w>
ep t
b loo
Wh at</w>
con nec
1 4</w>
sig ned</w>
min i
s or
li st</w>
I S
l y
D o
bo y</w>
Inter national</w>
incre as
al ong</w>
pa st</w>
hal f</w>
star ted</w>
En g
vir on
struc tion</w>
comp u
S e
ph one</w>
s ays</w>
be g
F ir
t ou
ch i
g ar
C ha
nec ess
min utes</w>
T ur
C ol
bec ame</w>
fe el</w>
avail able</w>
comp ani
m om
ru n</w>
d ar
a ver
me eting</w>
Q u
f ar</w>
a ff
di o</w>
A b
lob al</w>
m l</w>
mo ve</w>
s ever
tr ying</w>
d ate</w>
fri end</w>
tal k</w>
Rep ublic</w>
pro gram
Af ter</w>
fin ancial</w>
ch o
ar ly</w>
loc al</w>
out side</w>
ri ghts</w>
wh e
tak ing</w>
h un
re li
lea st</w>
jo b</w>
wor d</w>
speci al</w>
ac tually</w>
sho t</w>
Uni versity</w>
m ag
in ce</w>
s le
b il
G i
t on
in ed</w>
est s</w>
m et
gi ven</w>
a k</w>
ac tion</w>
par ty</w>
J ap
ener gy</w>
c are</w>
per form
fam ili
ar t
mis sion</w>
im pl
c r
ad d
200 8</w>
c ro
. S
it ary</w>
T r
lic y</w>
i m</w>
th in
er ing</w>
c ent</w>
hear t</w>
der ed</w>
ht ml</w>
S y
lar ge</w>
1 7
si mp
e qui
k m</w>
h ours</w>
b en
ro ad</w>
N ov
li k
est er
Ho w</w>
gu ys</w>
pp ed</w>
N o</w>
run ning</w>
stan ding</w>
fer ence</w>
divi du
G o
pe ti
Bec ause</w>
com es</w>
200 9</w>
w as
lea ve</w>
y our
ori es</w>
a st
soci al</w>
p ing</w>
y et</w>
war ds</w>
N ational</w>
mo ther</w>
p as
St ate</w>
or ity</w>
Americ a</w>
h y
our ces</w>
U S
en ter
st and
l et
A s
ch ed</w>
ent ation</w>
qu e</w>
h on
youn g</w>
M an
m ay
1 3</w>
Fir st</w>
S ept
Sept ember</w>
si b
poli ce</w>
4 0</w>
d om
im pro
j u
loc k</w>
st ay</w>
sk y</w>
Th ese</w>
s cre
4 .
pres ent</w>
lan gu
t ro
o v</w>
p ap
re qu
inv ol
P ri
B i
di tions</w>
pro tec
h or
sever al</w>
m ind</w>
nee ds</w>
ful ly</w>
de li
es ti
op s</w>
hi story</w>
in f
r ing</w>
200 7</w>
ch es</w>
ain s</w>
pl es</w>
S ec
Ge or
e ws</w>
tu res</w>
Wh en</w>
A si
s is</w>
M ay</w>
ist er</w>
doc um
br ing</w>
sp ea
f ood</w>
qu ality</w>
aver age</w>
c ir
lo gi
tur ned</w>
tur al</w>
gu e</w>
lar g
in dividu
ide a</w>
ar ds</w>
1 5
Ju ly</w>
produc ts</w>
u res</w>
m ain
a sh
stu d
p ubli
en viron
peri od</w>
emp loy
ear ly</w>
O ur</w>
b ab
ot e</w>
dep end
J une</w>
an ti
n ear</w>
m ea
b all</w>
di st
I N
am ong</w>
l l
contin u
Oc to
B ri
P r
pos e</w>
ou se</w>
1 6</w>
ad dition</w>
ou ble</w>
m ed</w>
6 .
Octo ber</w>
f em
F i
wee k</w>
pre t
Cen tr
mat eri
estab li
o thers</w>
loc ated</w>
pl ease</w>
li st
m ur
th o
ne t
sy st
sel ves</w>
b ad</w>
ch ing</w>
relea sed</w>
. html</w>
m ing</w>
b ra
di a</w>
in es</w>
re sp
o l</w>
pro bl
M os
g s</w>
sing le</w>
acc ess</w>
I r
m ach
di t</w>
pres s</w>
d ead</w>
co w</w>
pro gram</w>
rem ember</w>
AS E</w>
au gh
es p
situ ation</w>
play ing</w>
er ed</w>
di tional</w>
bo x</w>
Jan u
t le</w>
your self</w>
reas on</w>
sto p</w>
pa ren
s ent</w>
Mar ch</w>
e ts</w>
c li
g ave</w>
al bu
compani es</w>
M ic
log ical</w>
P h
p en
z er
experi ence</w>
under stand</w>
so f
mem bers</w>
Is ra
po licy</w>
at ten
clo se</w>
por ted</w>
ex per
c ause</w>
U R
K ASE</w>
kill ed</w>
fr ic
inter est</w>
necess ary</w>
on ed</w>
de st
pro per
acti vi
mo der
C ome</w>
Jo h
O r</w>
T V</w>
am oun
low ed</w>
ac ross</w>
B ar
wor k
ain ed</w>
A re</w>
all s</w>
probl ems</w>
M r.</w>
w th</w>
f y</w>
of ten</w>
M e
n on-
li es</w>
bl ack</w>
ac tiv
in c
h otel</w>
o w</w>
sp ace</w>
b ru
l ab
wor ds</w>
W in
compu ter</w>
G ener
H ar
A pri
es si
Dec ember</w>
A T
h and
Apri l</w>
200 6</w>
o il</w>
al one</w>
im p
tru th</w>
gir ls</w>
ol s</w>
p at
A fric
1 7</w>
Janu ary</w>
fir e</w>
b al
c al
ex ist
s -
ori gin
le y</w>
6 5</w>
mini str
fore ign</w>
se e
part ment</w>
ke ts</w>
fun c
d en
Ar men
vi ol
200 0</w>
r ic
n er
bloo d</w>
E ver
con f
ge ts</w>
P al
was n</w>
.S .</w>
mil itary</w>
al most</w>
is ed</w>
cri p
do w</w>
famili es</w>
wh ite</w>
g lobal</w>
vi de
bor n</w>
oo ds</w>
do ws</w>
oun d
il s</w>
om s</w>
H ave</w>
wr ong</w>
201 1</w>
ci es</w>
B ank</w>
prob ably</w>
an im
C an</w>
a vi
un ic
partic ular</w>
can not</w>
fri ends</w>
ut y</w>
r an
wi fe</w>
tw are</w>
cu stom
ar ti
gro wth</w>
ho sp
hi m
201 2</w>
19 4
Au g
mom ent</w>
M u
mak es</w>
tot al</w>
provi de</w>
0 -
Mos cow</w>
mo d
o w
S ch
in fl
e v</w>
r ul
ne w
C l
b ank</w>
m ess
be gin
in t</w>
g ed</w>
lo st</w>
t a</w>
mu sic</w>
buil t</w>
ci l</w>
gener al</w>
co g
t or
ab ove</w>
i se</w>
el se</w>
S ome</w>
me et</w>
Ukra ine</w>
curren t</w>
ell ing</w>
ques tion</w>
t el
a ur
t ar
com peti
ex pl
w it
m et</w>
oun ds</w>
he alth</w>
n atur
leg al</w>
re port</w>
chil d</w>
s em
low s</w>
c le
Aug ust</w>
I I</w>
p ain
b ar</w>
f uc
st ation</w>
M y</w>
ogra ph
ey es</w>
may be</w>
albu m</w>
su pp
sti t
pl an</w>
th ird</w>
Y or
resul t</w>
ap art
es sion</w>
su s</w>
ci d
wal k</w>
d a</w>
bo ard</w>
B y</w>
han ds</w>
un ch</w>
de fin
Ever y
B u
su ff
p an
tra v
hear d</w>
ter m</w>
6 0</w>
E ven</w>
g y
200 5</w>
is n</w>
ver sion</w>
du e</w>
ac hi
en se</w>
syst ems</w>
ati ves</w>
n ers</w>
ili ties</w>
S ee</w>
in side</w>
de l</w>
mat ter</w>
us h</w>
s qu
U .S.</w>
lik ely</w>
diff ic
in ten
m ental</w>
n y</w>
impl em
ini ti
i e</w>
re ali
priv ate</w>
Nov ember</w>
proc ess
t est</w>
ph ot
maj or</w>
fur ther</w>
bre ak
ep ing</w>
H e
s aying</w>
per f
ag ed</w>
a h</w>
manag ement</w>
201 4</w>
activi ties</w>
in stitu
br ought</w>
spe ed</w>
E l
or din
li ves</w>
fa st</w>
applic ation</w>
Fe bru
ni fic
g as</w>
an al
as ked</w>
S outh</w>
every one</w>
cer tain</w>
comm on</w>
O ff
f er</w>
resul ts</w>
po t
over ed</w>
de al</w>
op port
Febru ary</w>
si x</w>
educ ation</w>
him self</w>
kno w
tr ue</w>
i k
ei ther</w>
th ous
at ors</w>
se tt
ne ws</w>
for ce</w>
du ce</w>
c le</w>
ad s</w>
Ger many</w>
u su
Yor k</w>
te gr
re cog
i ous</w>
t ory</w>
c la
no v
c el
p ay</w>
cor rec
G o</w>
d ance</w>
b ir
cent ury</w>
us es</w>
ho t</w>
ec h
tem per
u pon</w>
me d
A m
Com p
so on</w>
j ud
oun ded</w>
are as</w>
com b
2 2</w>
char ac
beg an</w>
ell s</w>
sho p</w>
b ack
li g
R es
en ding</w>
c op
w ind</w>
. .</w>
our ce</w>
inst all
i st</w>
cre ate</w>
er a</w>
T ra
tra de</w>
ti ce</w>
con struction</w>
con ditions</w>
mi dd
C or
fa v
d ru
s ea
rec or
qu ite</w>
ex ten
de ta
ill s</w>
ro le</w>
m ember</w>
id enti
ec e</w>
s il
5 .
happ ened</w>
de ter
se qu
r ace</w>
de sign</w>
incre ase</w>
st ra
econom y</w>
de b
201 3</w>
in ation</w>
go es</w>
cre ated</w>
it ted</w>
flo or</w>
G overn
Gener al</w>
A N
uti ful</w>
re search</w>
an ds</w>
reg ul
k new</w>
en jo
my self</w>
an g</w>
house hol
f el
L e
ori ties</w>
l ate</w>
en ded</w>
tic le</w>
co operation</w>
cl ass</w>
tra ining</w>
ci vi
fic ation</w>
struc ture</w>
sib ility</w>
sec re
C a
ou gh
ren ch</w>
sof tware</w>
s al
di e</w>
disc us
il ed</w>
d el
p ment</w>
langu age</w>
g er</w>
ki ds</w>
offici al</w>
b it
th y</w>
2 1</w>
succ ess
tal king</w>
19 5
i al</w>
d ol
interest ed</w>
S C</w>
issu e</w>
ne y</w>
h it</w>
1 6
1 9</w>
v ill
f ar
bab y</w>
lic k</w>
ex t
W i
accoun t</w>
issu es</w>
H otel</w>
m a</w>
ar ri
fil m</w>
s ou
ca re
ic ally</w>
h us
L on
ph ys
B er
p es</w>
str ate
enti re</w>
W ith</w>
we b
z ing</w>
ef for
Fr ance</w>
ep s</w>
g es</w>
recei ved</w>
val ue</w>
Bel ar
ra ther</w>
thin king</w>
stre et</w>
bel ow</w>
S i
e qu
it self</w>
vide o</w>
oo t</w>
B ro
pro jects</w>
re turn</w>
fi ght</w>
i an</w>
pic ture</w>
natur al</w>
ri es</w>
ty pe</w>
ati s
bea utiful</w>
know le
ter ms</w>
k y</w>
pret ty</w>
ac cording</w>
stric t</w>
h our</w>
Uni on</w>
ac y</w>
d ang
provi ded</w>
recog ni
I M
midd le</w>
develop ed</w>
gu n</w>
sci enti
200 4</w>
sig nific
a il</w>
1 -
air s</w>
2 3</w>
lea se</w>
Ser v
it ch
loo ks</w>
chec k</w>
p ay
n e</w>
Fe der
19 3
C an
itt ee</w>
r ate</w>
f oc
g ress</w>
at ures</w>
form s</w>
s cen
d ly</w>
pr ice</w>
em y</w>
UR L</w>
wor ked</w>
Inter net</w>
v ely</w>
R ight</w>
Di rec
ben ef
ch e
se a</w>
chang es</w>
h ear</w>
con fi
ch ance</w>
f -
vari ous</w>
any one</w>
n ice</w>
an a</w>
on y</w>
k a</w>
x im
it ation</w>
indu stry</w>
h u
f la
y le</w>
cas es</w>
o -
esp eci
F rench</w>
ol der</w>
tre at
whe ther</w>
in tegr
ne l</w>
R ec
m ine</w>
g a
cen ter</w>
ad ministr
su res</w>
li gh
especi ally</w>
n ature</w>
Coun cil</w>
h re
7 .
oc k</w>
ann oun
Eng lish</w>
k ill</w>
A R
F a
se ems</w>
ren g
ne igh
int ro
am a</w>
con c
vi sit</w>
ha ps</w>
wi de</w>
2 8</w>
s end</w>
w ants</w>
w on
W e
r ange</w>
E U</w>
in come</w>
in dic
D ev
mul ti
am es</w>
ach ed</w>
ov i
g one</w>
techno logy</w>
h ell</w>
Jap an</w>
hus band</w>
off er</w>
Joh n</w>
ri bu
Lon don</w>
I m
amoun t</w>
ter nal</w>
gam es</w>
form ed</w>
stu ff</w>
1 4
am e
Min ister</w>
c y
k en</w>
cap ital</w>
gam e
soci ety</w>
man u
Centr al</w>
W ar</w>
prof essi
ri s
sor ry</w>
T w
L a
wee ks</w>
ev id
tu al</w>
f all</w>
gr ou
ru p
ch urch</w>
2 6</w>
comm unity</w>
l it
mon th</w>
0 s</w>
sh are</w>
temper ature</w>
o t</w>
sen se</w>
F l
8 .
200 3</w>
t un
play ed</w>
d a
p ati
ha ir</w>
Nor th</w>
an ks</w>
publi shed</w>
E ar
2 7</w>
cou ple</w>
char ge</w>
h ope</w>
begin ning</w>
hosp ital</w>
on ds</w>
e x</w>
repres ent
bil lion</w>
N e
A g
pap er</w>
Ch ar
y a</w>
ther n</w>
esti g
deci sion</w>
m oun
ti z
J SC</w>
st reng
pers onal</w>
c ut</w>
A n</w>
ser ies</w>
ati c
I S</w>
fil es</w>
inclu de</w>
eas y</w>
organi z
ev ent</w>
H um
4 5</w>
st ing</w>
P lease</w>
Isra el</w>
beli ev
R em
exp ected</w>
v an</w>
n uc
ad y</w>
itt en</w>
Cen ter</w>
nee ded</w>
Ger man</w>
vi a</w>
cap ac
ev ents</w>
el ing</w>
1 3
cour t</w>
low er</w>
in depend
et er</w>
as h</w>
lea d</w>
T H
them selves</w>
ho wever</w>
or row</w>
ver se</w>
li am
T i
sp ec
o kay</w>
sh ort</w>
co ff
do wn
E ast</w>
high er</w>
em er
ac tions</w>
Pe ople</w>
p ass
m it</w>
S a
apart ment</w>
stit ute</w>
v al</w>
medi a</w>
elec tr
mp i
do g</w>
st ed</w>
long er</w>
rel ation
s y</w>
2 9</w>
an ces</w>
tak es</w>
augh ter</w>
c y</w>
com for
y er</w>
w .
Th e
pe ace</w>
qu ar
th ro
rel ated</w>
C ity</w>
hre f</w>
n ical</w>
contin ue</w>
si mil
m ot
ven tion</w>
comm unic
st age</w>
dar k</w>
sp ir
ester n</w>
L ord</w>
vi ous</w>
M ini
mar ried</w>
z z
Wh ite</w>
bu s</w>
s n
deci ded</w>
happ y</w>
ac tive</w>
No w</w>
rest aur
c over</w>
dri ve</w>
s er</w>
su gg
equi pment</w>
val u
dem oc
B ra
B r
org an
C O
moder n</w>
tri ed</w>
lin es</w>
bu d
E R
diffic ult</w>
ww w.
tr act</w>
H ouse</w>
g ot
a -
h om
mach ine</w>
res ources</w>
bo ys</w>
au ght</w>
W il
Ch in
F ore
5 -
ol ution</w>
J es
net work</w>
ev i
is s</w>
U N
stu dy</w>
hi bi
w ed</w>
li e</w>
c lim
se par
sum mer</w>
ei ght</w>
sid es</w>
li ed</w>
add ress</w>
l at
T a
k in
invol ved</w>
lea ding</w>
e fore</w>
su sp
re duc
On ly</w>
cont ribu
ex change</w>
grou ps</w>
reli gi
st e</w>
di stri
sa fe</w>
con duc
cont act</w>
regi onal</w>
origin al</w>
pr ac
distri bu
R a
proper ty</w>
S ovi
wh ose</w>
at ory</w>
in ess</w>
tra in</w>
pro t
pre sident</w>
l er</w>
p h</w>
form er</w>
fuc king</w>
S ha
H a
su per
inv estig
sp i
re comm
sit ting</w>
h ood</w>
ri sk</w>
ot h</w>
knowle dge</w>
bu l
S ince</w>
4 -
mo del</w>
bre ak</w>
D is
ar ch
kno ws</w>
w ers</w>
medi an</w>
co st</w>
j our
R om
er ous</w>
ci tiz
ar r
w ouldn</w>
Geor gi
establi shed</w>
win dow</w>
ist an</w>
201 5</w>
er t</w>
as soci
infl u
ac tly</w>
J ust</w>
2 -
invest ment</w>
indu stri
I C
ec h</w>
cri sis</w>
cor por
ar s</w>
Mini stry</w>
O p
shi ps</w>
anc ed</w>
W est</w>
po ol</w>
nam ed</w>
bu y</w>
ste p</w>
h ur
Gr oup</w>
manu fac
in o</w>
sh es</w>
B N</w>
coun ty</w>
wr itten</w>
H er</w>
bro ther</w>
nor m
ch oo
sp ent</w>
H i
ti ll</w>
plac ed</w>
househol ds</w>
ti sh</w>
O f</w>
sist ance</w>
sec tor</w>
P ol
sh it</w>
rec ord</w>
E N
paren ts</w>
D r.</w>
po wer
Ac cording</w>
o p</w>
9 .
lan ds</w>
M i
e k</w>
ch all
activ ity</w>
ter rit
Win dows</w>
stud ents</w>
t in
cl es</w>
se um</w>
l in</w>
dest ro
st ates</w>
ac e
C ap
chang ed</w>
inclu ded</w>
boo ks</w>
8 0</w>
d ou
est ed</w>
co de</w>
eff ici
ex pres
C am
Chri st
Comp any</w>
tr an
c old</w>
wat ch</w>
bec om
poin ts</w>
res er
sea son</w>
ut ting</w>
per cent</w>
high ly</w>
200 1</w>
z y</w>
Chin ese</w>
rul es</w>
af f</w>
y ed</w>
me an
nuc lear</w>
p age</w>
rec ent</w>
ali st</w>
par ts</w>
ri t</w>
gra du
ro r</w>
al -
atten tion</w>
plac es</w>
P ut</w>
l am
oc cu
fre e
ini an</w>
al o
ad a</w>
complet e</w>
att le</w>
IS BN</w>
tr ouble</w>
w el
environ ment</w>
Sovi et</w>
i j
evid ence</w>
In dia</w>
Bl ack</w>
re ly</w>
w all</w>
200 2</w>
ep h
Jes us</w>
capac ity</w>
auth orities</w>
k o</w>
x ed</w>
ill ing</w>
ex ec
wa iting</w>
produc t</w>
s ound</w>
E S
H ist
er al</w>
fe et</w>
s ong</w>
tom orrow</w>
pers on
c ouldn</w>
ell o</w>
ton ight</w>
web site</w>
consi der
coff ee</w>
off ers</w>
fin al</w>
ea st</w>
pa id</w>
protec tion</w>
ab les</w>
bur g</w>
pre ci
6 4</w>
ac ks</w>
s ource</w>
intro duc
se t
k id</w>
de ed</w>
ans wer</w>
g n
H er
sa f
st ore</w>
des cri
conf lic
li er</w>
al low</w>
m ir
cri min
some times</w>
mov ed</w>
sci ence</w>
f ish</w>
so ft</w>
wh at
im medi
No t</w>
gin e
re p
eff ect</w>
m es</w>
simil ar</w>
ea red</w>
min ute</w>
house hold</w>
larg est</w>
d aughter</w>
di an</w>
bas is</w>
K ar
it or</w>
Comm ittee</w>
r ound</w>
201 6</w>
sp read</w>
wa it</w>
pre v
pr acti
d ings</w>
G ood</w>
gro wing</w>
organi zation</w>
w in</w>
se ts</w>
pl ant</w>
Asi a</w>
fer ences</w>
g ing</w>
clu b</w>
requi red</w>
on ic</w>
ser ved</w>
E very</w>
inst ead</w>
A zer
perform ance</w>
- -
not ed</w>
I D
B a
consi dered</w>
agre ement</w>
Gre at</w>
Gi ve</w>
sa ve</w>
rel ations</w>
u ri
ex actly</w>
buil d</w>
ques tions</w>
perf ect</w>
u gg
po or</w>
op ened</w>
P or
H el
sh or
att ack</w>
ad op
E C
to wards</w>
exp lo
att emp
vi sion</w>
b ly</w>
a .com</w>
al ing</w>
for ces</w>
c ard</w>
A .</w>
4 4</w>
opport unity</w>
ba g</w>
ub lic
S ci
ill ed</w>
as si
prin ci
loc ation</w>
Govern ment</w>
ha ven</w>
mur der</w>
au tom
t elling</w>
cat eg
treat ment</w>
rac es</w>
Ear th</w>
G en
Bri tish</w>
gu ar
U h</w>
sup posed</w>
gi ving</w>
ba se</w>
ach ing</w>
L o
ter r
e .
im ag
ing ly</w>
increas ed</w>
i or</w>
institu tions</w>
fo ot
H T
P C</w>
L u
f ine</w>
bi gg
7 0</w>
wi se</w>
s un
spea k</w>
k itch
.. ..
th room</w>
av o
achi ev
vi ews</w>
speci fic</w>
en sive</w>
se x</w>
O b
correc t</w>
c ot
Tw o</w>
ac i
pri son</w>
u ally</w>
D em
s on
b s</w>
simp ly</w>
Hum an</w>
con v
professi onal</w>
pot ential</w>
Ch urch</w>
ba ij
Belar us</w>
F ri
tech nical</w>
organiz ations</w>
af ter
mess age</w>
it es</w>
Azer baij
l ation</w>
ain ing</w>
un g
sy m
s mo
a ster
e th
ho to</w>
A pp
R ed</w>
loo ked</w>
e an</w>
vill age</w>
individu al</w>
tri p</w>
ing ton</w>
Dev elop
pr ices</w>
et h</w>
L at
lear n</w>
fi g
relation ship</w>
p sy
eff ective</w>
happ en</w>
s tic
d on
s ort</w>
b om
bl ue</w>
sig n
ac cor
9 0</w>
c ool</w>
relea se</w>
Re gi
su n</w>
s we
lo ad</w>
resp ect</w>
uni ties</w>
par k</w>
med ical</w>
vol u
Par is</w>
F un
y r
ac ked</w>
an e</w>
fem ale</w>
sel f-
wor th</w>
im age</w>
mea sures</w>
ch em
plan e</w>
develop ing</w>
an k
usu ally</w>
st yle</w>
Afric a</w>
op ini
h op
thous and</w>
s li
ani a</w>
sur pri
mar kets</w>
direc tly</w>
w ood</w>
to m</w>
pi ece</w>
m as</w>
K ing</w>
pur cha
D uring</w>
ro oms</w>
C our
cid ent</w>
On ce</w>
lea ders</w>
as ses</w>
c anc
la w
m us
ari an</w>
fi gh
ov a</w>
ar m</w>
l a</w>
3 1</w>
F F
um p</w>
ey e</w>
materi al</w>
complet ely</w>
tr a</w>
Par ty</w>
ac ts</w>
fu n</w>
logi es</w>
3 00</w>
on line</w>
centr e</w>
popul ar</w>
ec han
re ach</w>
e at</w>
ali sts</w>
lo se</w>
1 2
sh ar
en sure</w>
ap poin
M L</w>
t op
st aff</w>
or ing</w>
d y
w ish</w>
R ob
Man ag
centr al</w>
ari es</w>
sur vi
Ab out</w>
20 0</w>
gre en</w>
sho ws</w>
implem entation</w>
et c</w>
r ich</w>
compl ex</w>
se em</w>
simp le</w>
por ting</w>
p t</w>
H ol
e e
wal king</w>
cul ture</w>
off ic
e es</w>
h ic
re fl
connec tion</w>
Chri sti
ev ening</w>
gre at
sp here</w>
con clu
succ ess</w>
install ed</w>
j us
I ts</w>
par ties</w>
re t
game 3
game3 a.com</w>
P i
po ver
hibi tion</w>
hi stor
1 ,
anc ing</w>
ser ious</w>
app eared</w>
con fir
cro s
T er
c lick</w>
O R
o logical</w>
fel t</w>
cul tural</w>
al ism</w>
K ore
serv er</w>
M ed
3 -
comm er
signific ant</w>
th es</w>
la un
B al
ti n</w>
for d</w>
us ers</w>
choo se</w>
g old</w>
con ference</w>
Armen ia</w>
s even</w>
V al
partic ul
e br
vi ously</w>
what ever</w>
Ri ghts</w>
R u
r an</w>
de signed</w>
de si
fin ally</w>
ter n
ou d</w>
restaur ant</w>
ear ing</w>
im ed</w>
D u
re sid
A ir
M il
G ra
kitch en</w>
lev els</w>
re f
d den</w>
qu ick
k ept</w>
speci es</w>
ak es</w>
sp end</w>
direc t</w>
sub ject</w>
pa ir</w>
de ep</w>
I T
ep tion</w>
pres sure</w>
S we
ys is</w>
s a</w>
i de</w>
p ass</w>
ong s</w>
E con
g ent
practi ce</w>
Ex c
ali a</w>
199 9</w>
al lowed</w>
stan ces</w>
pro mis
Ir an</w>
sle ep</w>
work ers</w>
p ain</w>
announ ced</w>
ec tiv
w ell
Econ om
si an</w>
In stitute</w>
Off ice</w>
I ra
s l
ess es</w>
co sts</w>
bra in</w>
le ge</w>
E d
d ad</w>
provi des</w>
St re
mar k
Chri st</w>
deter min
ro ck</w>
C re
t ree</w>
dou b
doc tor</w>
produc ed</w>
ni a</w>
p hi
sec tion</w>
col or</w>
let ter</w>
sh e
Mic ro
is land</w>
rem ain</w>
e li
s old</w>
o logy</w>
li ved</w>
r ati
materi als</w>
F ol
rem ents</w>
Tr ans
effor ts</w>
w est</w>
or ation</w>
ad ditional</w>
F ur
wan na</w>
An y
scen e</w>
19 0
tr ack</w>
li ghts</w>
y e</w>
pl ans</w>
pur pose</w>
cam pa
lea der</w>
pover ty</w>
cho ice</w>
p ra
el op</w>
lin ks</w>
re -
gl ass</w>
c um
ri de</w>
success ful</w>
ar ticle</w>
5 00</w>
g oods</w>
bo at</w>
enjo y</w>
stand ard</w>
s ession</w>
fac ilities</w>
a ren
v ot
bo dies</w>
sy n
T ake</w>
r out
pas sed</w>
ma il</w>
Feder ation</w>
fin i
B ul
s ex
G ar
re ported</w>
ta x</w>
f ru
ban ks</w>
in -
St .</w>
w il
individu als</w>
8 -
es tim
ba throom</w>
H am
c o</w>
scre en</w>
particul arly</w>
M or
for ward</w>
sur ance</w>
reg ar
fer red</w>
In st
ang ing</w>
fol low</w>
recei ve</w>
Develop ment</w>
enc ed</w>
appro ach</w>
c lear
car s</w>
S to
cri me</w>
secre t</w>
prot ect</w>
C .</w>
saf ety</w>
are n</w>
li c</w>
ro te</w>
wor l
d ress</w>
m echan
p rec
di strict</w>
sch o
ol d
ing dom</w>
f ell</w>
n it
wr ite</w>
res h</w>
ad ded</w>
m ales</w>
R O
P ress</w>
F re
es tiv
St u
y es</w>
competi tion</w>
r ates</w>
tra ff
ach es</w>
k i</w>
us er</w>
mi st
st ar</w>
enter pri
fam ous</w>
el ess</w>
at trac
an -
S or
app ear</w>
dev elop</w>
r atic</w>
be ach</w>
go ti
op h
ess or</w>
b ing</w>
In v
De partment</w>
ve hic
dem and</w>
elec tion</w>
supp ly</w>
O K</w>
p hoto</w>
ent ary</w>
confi d
di g
mar k</w>
an ese</w>
L in
d ry</w>
respon sible</w>
w rote</w>
s .</w>
pl at
be d
docum ents</w>
at ar</w>
acc ep
un k</w>
Asi an</w>
Au str
Par k</w>
citiz ens</w>
ma ster</w>
oper ating</w>
cam era</w>
o d
k -
x es</w>
mov ing</w>
f uck</w>
st eps</w>
m enti
clo thes</w>
S un
it ors</w>
tr ust</w>
E m
pp ing</w>
fem ales</w>
direc tion</w>
re ports</w>
won der
to wn
play er</w>
si a</w>
M at
phys ical</w>
J er
An g
bri dge</w>
C hi
res sed</w>
ough out</w>
m ic
en gine
M c
k ers</w>
Serv ice</w>
ali an</w>
re ached</w>
high -
so li
neigh b
interest s</w>
st op
ri ver</w>
cre dit</w>
Bo ard</w>
ru le</w>
ob j
Christ mas</w>
adv ant
appro pri
So ci
ograph y</w>
ric ul
T ech
ear th</w>
v y</w>
as p
stat us</w>
lo ads</w>
an te
D ay</w>
di tion
read ing</w>
regi ons</w>
pp er</w>
ici al</w>
trans port</w>
t ext</w>
leg is
fe atures</w>
Sp eci
si r</w>
g ri
ri se</w>
I tal
7 -
ali zed</w>
p ath</w>
dev ice</w>
S tr
mi gr
trav el</w>
p ack
es tic</w>
on str
gi ves</w>
am s</w>
H ello</w>
as tic</w>
pro gress</w>
au l</w>
S am
sol ution</w>
ne goti
tou ch</w>
c overed</w>
al ed</w>
fig ure</w>
ess ed</w>
car ried</w>
el ds</w>
rem ains</w>
br ary</w>
d le</w>
L ea
br an
ho le</w>
w ine</w>
st -
mem ory</w>
ar my</w>
W estern</w>
su st
ther efore</w>
Sec urity</w>
y eah</w>
sh -
R E
st ock</w>
curren tly</w>
pon s</w>
l ess
s ell</w>
b an</w>
an ci
I t
ser ve</w>
lea ving</w>
v ers</w>
D P</w>
str um
stand ards</w>
ag ing</w>
Ital y</w>
R ic
Hist ory</w>
si on
po l
consi der</w>
a u</w>
st one</w>
interest ing</w>
M us
rac y</w>
3 5</w>
f all
s ales</w>
199 8</w>
rec ently</w>
ci ties</w>
cont ent</w>
opini on</w>
g in</w>
O ly
bi li
clo sed</w>
cle an</w>
vo ice</w>
ing ing</w>
pl ea
care er</w>
uni que</w>
t al</w>
c ell</w>
st ood</w>
we ight</w>
strate gi
th -
t our</w>
quick ly</w>
inclu des</w>
f our
accor dance</w>
est ing</w>
V er
program s</w>
et ro
l eng
lim ited</w>
pos t</w>
tain s</w>
ul l</w>
Or g
sh ment</w>
m itted</w>
ec ting</w>
bot tom</w>
ame work</w>
S ar
Azerbaij an</w>
D avi
hol ding</w>
Jap anese</w>
pic tures</w>
comfor table</w>
W ell</w>
conflic t</w>
mov ie</w>
ti m</w>
st ers</w>
u tions</w>
th us</w>
Ex change</w>
dem onstr
is ing</w>
di r
l u
cer tain
ari a</w>
cel ebr
HT ML</w>
oo m</w>
pre par
b lo
me tho
de partment</w>
hu ge</w>
a th
pic k</w>
oper ations</w>
Al ex
ir s</w>
Sch ool</w>
ri c</w>
Fore ign</w>
continu ed</w>
ster ed</w>
e ating</w>
ter ed</w>
su it</w>
I O
M id
en ter</w>
industri al</w>
Geor ge</w>
ar ms</w>
num bers</w>
town ship</w>
bl es</w>
Georgi a</w>
ex ic
con sul
k in</w>
e du
dr ink</w>
p id</w>
bu t
To day</w>
con sum
tra ditional</w>
u tive</w>
it ch</w>
ound ation</w>
fri end
ho li
d ding</w>
M al
ca used</w>
mo b
w ear</w>
some body</w>
part ner</w>
ad es</w>
S T
wee k
co -
scienti fic</w>
bud get</w>
ear lier</w>
ha m</w>
a red</w>
p il
m ary</w>
posi tive</w>
foc us</w>
pre vious</w>
vic tim</w>
di sp
deb t</w>
Afric an</w>
wr iting</w>
long -
a i</w>
territ ory</w>
menti oned</w>
plan et</w>
prac tic
A C
gre ater</w>
ul a</w>
rel ev
thr oughout</w>
ali zation</w>
wh om</w>
exp an
civi l</w>
tain ed</w>
fa ith</w>
Com mission</w>
set ting</w>
bu tt
it able</w>
f ear</w>
S im
on a</w>
n ation</w>
li ber
gir l
mpi on
Th ose</w>
D oc
norm al</w>
fe eling</w>
tu de</w>
g res
B ur
li ance</w>
A t
z one</w>
immedi ately</w>
an der</w>
mo m</w>
mis sing</w>
requi rements</w>
mov ement</w>
st ly</w>
power ful</w>
air port</w>
d ated</w>
rem ov
C ri
Stre et</w>
tur ns</w>
g en</w>
al lows</w>
d i</w>
happ ens</w>
al u
cas h</w>
cli ent</w>
op ening</w>
z es</w>
independ ent</w>
dro p</w>
E R</w>
anim als</w>
m outh</w>
pers ons</w>
for ced</w>
Oly mp
s outh</w>
dat ab
F il
exist ing</w>
D ar
se at</w>
pres ented</w>
hea d
con tract</w>
ex clu
wea pons</w>
f le
star ting</w>
re r</w>
cir cum
p ublic
n ation
S ir</w>
G ro
0 ,000</w>
pre pa
tu red</w>
s ports</w>
at a</w>
cor ner</w>
me dic
ri age</w>
re turned</w>
M exic
deta ils</w>
s la
lit er
poli cies</w>
il ing</w>
appropri ate</w>
G oo
ann ual</w>
A L
sk i</w>
evi sion</w>
a i
cen sus</w>
d ea
impro ve</w>
gh t
differ ence</w>
si ster</w>
dom estic</w>
cap e</w>
Tur key</w>
F ree</w>
not e</w>
guar ante
h ot
din ner</w>
f ing
ma p</w>
sk in</w>
Co de</w>
t ation</w>
connec ted</w>
estiv al</w>
squ are</w>
to -
fol lowed</w>
e ding</w>
A ir</w>
Coun ty</w>
l ady</w>
coll ection</w>
no on</w>
al though</w>
ent ing</w>
g ate</w>
M er
C ro
crip tion</w>
Davi d</w>
r a</w>
le -
ra di
jo int</w>
sig ns</w>
plan ned</w>
v a</w>
influ ence</w>
direc tor</w>
mi se</w>
su mp
every body</w>
b ear</w>
low ers</w>
commer cial</w>
off ered</w>
m m</w>
exc ept</w>
tur ing</w>
H ea
cer ti
call s</w>
sur face</w>
m ass</w>
elec tions</w>
Ac ad
nam es</w>
P at
per haps</w>
requ est</w>
in nov
b order</w>
de g
N ations</w>
custom ers</w>
Fa ther</w>
c k
sc ale</w>
car ry</w>
anal y
Sor ry</w>
free dom</w>
for get</w>
d ates</w>
see ing</w>
s ev
it ting</w>
cle an
n or</w>
th row</w>
over y</w>
ra in</w>
2 5
ag ricul
be ha
de tec
la ws</w>
fa ult</w>
ba sic</w>
C ould</w>
K Z
F o
ester day</w>
app ears</w>
In formation</w>
sur g
c ru
199 7</w>
D r
v ement</w>
W ash
anal ysis</w>
3 2</w>
l and
f it</w>
D ep
As soci
on i
lo ss</w>
am az
H ead</w>
p al
be y
imp act</w>
arch it
me th
func tion</w>
nor th</w>
l em
administr ation</w>
techno logies</w>
particip ants</w>
Cour t</w>
Wh ile</w>
ist s</w>
Pal est
dist ance</w>
ty pes</w>
some where</w>
o h</w>
k es</w>
inf ra
Go t</w>
s ale</w>
organ is
Some one</w>
sle eping</w>
pos t
mat ch</w>
H en
i ther</w>
con dition</w>
C i
im s</w>
ca st</w>
P aul</w>
em ed</w>
Micro soft</w>
et e</w>
mic ro
c aught</w>
de st</w>
m un
jo in</w>
spo t</w>
si ght</w>
loc ked</w>
sol di
K i
W al
particip ation</w>
av atar</w>
Ukra inian</w>
Bra z
em o
Hi gh</w>
Ira q</w>
plan ning</w>
S m
S en
respon se</w>
as sistance</w>
ol f</w>
dr in
re ality</w>
ide as</w>
Wash ington</w>
A P
sp ap
categ ory</w>
campa ign</w>
bey ond</w>
qu ali
gr and
ra id</w>
par king</w>
religi ous</w>
civi li
Po li
pl om
I T</w>
E gy
f resh</w>
sel ect</w>
sur r
str ong
6 -
Tur k
M ag
ti s
sit es</w>
r y
S ou
as king</w>
sho wn</w>
h all</w>
D el
anti -
M ore</w>
agre ed</w>
p utting</w>
sho wed</w>
I V</w>
well -
up loads</w>
ab sol
L et</w>
hou ses</w>
com mod
docum ent</w>
play ers</w>
wat ching</w>
valu es</w>
y al</w>
et ed</w>
part ners</w>
a di
in strum
bro ad
ke eping</w>
dis ease</w>
E S</w>
ter y</w>
relev ant</w>
li ons</w>
leng th</w>
sha res</w>
s am
respon sibility</w>
re ve
dru g</w>
s r
eff ects</w>
ti ves</w>
IM G</w>
lea ves</w>
D en
reas ons</w>
Do es</w>
ing -
re si
represent atives</w>
liam ent</w>
Al mat
t an
c oo
l ack</w>
con sequ
C ali
deg ree</w>
S up
fre qu
strate gy</w>
lar s</w>
anc y</w>
z h
mi d
Eng land</w>
pro sp
call ing</w>
B en
prepa red</w>
fun ds</w>
can di
b ought</w>
employ ment</w>
charac ter</w>
Af gh
beg in</w>
we dding</w>
mo tion</w>
on to</w>
got ta</w>
v il
fa ir</w>
pay ment</w>
re pe
y ear
is tic</w>
Se a</w>
un it</w>
Al though</w>
a head</w>
S um
B ud
coun t</w>
mil es</w>
the ory</w>
f ounded</w>
ra dio</w>
H al
te a</w>
m as
c ket</w>
cre ation</w>
A M
ir man</w>
id ity</w>
de pos
chall eng
fr amework</w>
dre am</w>
an o</w>
b lock</w>
min im
stu dio</w>
P eter</w>
ren t</w>
er -
environ mental</w>
under standing</w>
An y</w>
sho ot
oc cur
U N</w>
S al
Almat y</w>
com pon
st ro
18 9
ar m
ad d</w>
cha ir</w>
M r</w>
an ish</w>
ori al</w>
im pres
he al
e up</w>
f light</w>
beha vi
str ugg
con trac
en cour
dang er</w>
s ources</w>
Per haps</w>
pres ence</w>
go al</w>
fe der
u b</w>
l ink</w>
cra zy</w>
f oot</w>
distribu tion</w>
z a</w>
B B
ti ci
M ay
ali ve</w>
tr uck</w>
s burg</w>
ne g
S econ
H ome</w>
scho ols</w>
A .
en cies</w>
pat ter
new spap
spi rit</w>
B as
tar get</w>
bal ance</w>
sou l</w>
V ol
U K</w>
f illed</w>
applic ations</w>
ac cident</w>
ed ge</w>
J .</w>
trans fer</w>
Can ada</w>
ter min
pl ants</w>
con ven
regi stered</w>
import ance</w>
G ir
li ked</w>
war m</w>
or g</w>
is on</w>
T ell</w>
D ef
wor st</w>
c ross</w>
con struc
La w</w>
Re ferences</w>
C y
p ha
dam age</w>
ol den</w>
figh ting</w>
sr c</w>
high est</w>
Wh y</w>
anim al</w>
G l
W ar
b on</w>
ac her</w>
sp r
Ch il
cra ft</w>
traff ic</w>
l ay
arr ang
Direc tor</w>
C al
phot os</w>
gar den</w>
ag s</w>
y an</w>
w are</w>
om in
pro duce</w>
al tern
ordin ary</w>
fi elds</w>
stat ement</w>
op tion</w>
gu ests</w>
st airs</w>
g er
dru gs</w>
fini shed</w>
ob ject</w>
gro w</w>
in surance</w>
to ward</w>
Armen ian</w>
199 6</w>
pro mise</w>
sump tion</w>
ho st</w>
g un
199 5</w>
gener ation</w>
en ly</w>
ther wise</w>
B re
ro l
P en
lo ad
m ut
d red</w>
gra ph
F ind</w>
c ement</w>
tri c</w>
a h
im g</w>
c ks</w>
T e
avo id</w>
S C
dol lars</w>
Sp ain</w>
clim ate</w>
exp ect</w>
ectiv ely</w>
fi f
separ ate</w>
ex er
s atis
ex hibition</w>
volu me</w>
hor se</w>
J ew
bi a</w>
E v
Every thing</w>
wr it
en a</w>
V ic
con sci
mob ile</w>
bigg est</w>
disc overed</w>
d ouble</w>
stra ight</w>
M old
th u
st on</w>
hol ders</w>
Pe ter
clear ly</w>
g le</w>
maj ority</w>
datab ase</w>
wi d
T im
concer ned</w>
jour n
Cali for
eas ily</w>
t our
ma xim
reali ze</w>
corpor ate</w>
O ther</w>
h uh</w>
organi zed</w>
t ea
exper ts</w>
um s</w>
S ho
tur ning</w>
atic ally</w>
reg ard</w>
viol ence</w>
fa il
sp ring</w>
en ess</w>
lear ned</w>
th i
prin t</w>
TH E</w>
US A</w>
eph one</w>
pro pos
B us
stop ped</w>
en ge</w>
sti c</w>
sett l
after noon</w>
Ex ternal</w>
Ti me</w>
me ant</w>
Mu seum</w>
terr ori
ev ent
chi ef</w>
bro ke</w>
th ank</w>
Org ani
ta il</w>
el ements</w>
im possible</w>
an tly</w>
Ar ticle</w>
do ors</w>
T y
great est</w>
3 0
m ani
t ask</w>
dang erous</w>
deli ver
ear ch</w>
Op en</w>
M an</w>
Every one</w>
r ying</w>
provi ding</w>
win ter</w>
de ep
reg ular</w>
f ying</w>
et ary</w>
ab ilities</w>
wea ther</w>
tri al</w>
g a</w>
and a</w>
un its</w>
ec ture</w>
fi gu
aw are</w>
no w
str ation</w>
ne arly</w>
3 3</w>
stitu tion</w>
hel ped</w>
hea ds</w>
he at</w>
or ds</w>
des k</w>
co ordin
D .</w>
o x
Kore a</w>
re fu
ici p
dri ving</w>
fav or
Califor nia</w>
st able</w>
emp ty</w>
T re
hum an
D es
s ac
process ing</w>
inter nal</w>
B ab
et ings</w>
S cot
enter ed</w>
int el
increas ing</w>
A li
S il
becom es</w>
199 4</w>
a x
Austr alia</w>
D ad</w>
ter ri
Rem ember</w>
u se
Con vention</w>
jo ined</w>
S ub
re duce</w>
kill er</w>
as sets</w>
cal cul
f ill</w>
Mo st</w>
mak eup</w>
cam p</w>
H on
com par
b le
di v
di plom
prev ent</w>
P aci
tion ary</w>
un less</w>
buil dings</w>
list en</w>
Some times</w>
pos sibility</w>
elec ted</w>
por ary</w>
spir it
R os
l ots</w>
Be fore</w>
In du
im ages</w>
f ly</w>
h a</w>
thre at</w>
7 5</w>
cor respon
F ac
comm is
ch an
s mar
infra structure</w>
es c
199 0</w>
ti tle</w>
A h</w>
thous ands</w>
em ic</w>
anci ent</w>
ak ing</w>
S ol
hun dred</w>
R ev
car ds</w>
wor ry</w>
cont ra
tel evision</w>
communic ation</w>
B est</w>
tim s</w>
tim ate</w>
phi c</w>
met al</w>
comp ared</w>
w earing</w>
We b</w>
ev il</w>
cor rup
en h
ob jects</w>
sha pe</w>
fore st</w>
C u
rac ial</w>
manag ed</w>
Pri me</w>
Acad emy</w>
b at
IN G</w>
perform ed</w>
In deed</w>
bro ken</w>
metho ds</w>
b onds</w>
c ab
Ho ly</w>
complet ed</w>
lo ved</w>
re vol
in struc
govern ments</w>
3 6</w>
break fast</w>
and -
Associ ation</w>
v oc
introduc ed</w>
en s
B or
ain t</w>
s ent
cont ext</w>
be at</w>
H ou
rati o</w>
pri son
im ming</w>
inter view</w>
e dit</w>
we b</w>
in d
ent y</w>
Th ank</w>
cre ating</w>
l -
T ri
v ac
intel lig
acc ept</w>
sh ir
comm and</w>
Paci fic</w>
pul l</w>
program me</w>
auth ority</w>
af raid</w>
t ap
appoin ted</w>
ob s</w>
an i</w>
It alian</w>
gu ess</w>
b attle</w>
sk ills</w>
deci sions</w>
ra ise</w>
c over
mar riage</w>
for tun
m ale</w>
meth od</w>
exper im
stu dies</w>
offici als</w>
cap it
ext rem
stre ets</w>
any more</w>
ec es</w>
con ver
k y
gr an
usu al</w>
M ad
bir th</w>
y outh</w>
y ours</w>
I P
fu el</w>
bot tle</w>
t ren
ell ed</w>
E D</w>
il os
ver si
investig ation</w>
gra de</w>
I R
requ ire</w>
process es</w>
pro m
ul ation</w>
circum stances</w>
l unch</w>
b es</w>
Ser ver</w>
sec onds</w>
no tic
app ly</w>
Y ear</w>
Gre en</w>
uni verse</w>
pan ic</w>
Ri ver</w>
gu es</w>
v ation</w>
ha s
ex tra</w>
3 8</w>
pre sid
employ ees</w>
E aster
c at</w>
ha el</w>
Manag ement</w>
dri ver</w>
O ver</w>
en emy</w>
K in
pati ent</w>
eng ine</w>
mpion ship</w>
g or
Al so</w>
is c
ay a</w>
in j
S pi
E ach</w>
B et
stor age</w>
j um
har d
r is</w>
vi ew
pre dic
g ency</w>
Li ke</w>
y esterday</w>
dra w</w>
N A</w>
ac ting</w>
expl ain</w>
the -
ra ised</w>
b on
ac qu
ke ys</w>
amaz ing</w>
pati ents</w>
descri bed</w>
vic tims</w>
sk i
curren cy</w>
a id</w>
crimin al</w>
cli ents</w>
F er
l ying</w>
ess ing</w>
Th er
Braz il</w>
I A</w>
der ship</w>
Sec ret
K ingdom</w>
wor se</w>
Easter n</w>
199 2</w>
B rit
3 4</w>
j ac
Pro f
ex port</w>
ha m
O ri
di alo
en tr
ri d</w>
re ven
J ames</w>
th ir
stan ds</w>
si tion</w>
oun ding</w>
199 3</w>
ra il
o wn
ri a</w>
K o
th anks</w>
stic k</w>
as ks</w>
believ ed</w>
9 -
H y
a po
charac ter
t led</w>
ex ist</w>
an ni
year -
arri ved</w>
con centr
A T</w>
M any</w>
I D</w>
res ol
jus tice</w>
f low</w>
le ts</w>
. j
Ch ec
Mid dle</w>
achi eve</w>
da ily</w>
ic h
dom in
c up</w>
ag ree</w>
def ense</w>
w alls</w>
re ment</w>
cat ch</w>
Mexic o</w>
ati vely</w>
S ing
G al
thre at
wh er
lo v
effor t</w>
ur ation</w>
y ers</w>
ab and
li f
sel ling</w>
V en
Pro duc
h anging</w>
at mo
democ racy</w>
I .</w>
Pol and</w>
Jew ish</w>
is es</w>
199 1</w>
to ols</w>
A k
1 0.
y l
histor ical</w>
F am
ar rest</w>
Peter sburg</w>
A N</w>
sh ots</w>
benef its</w>
C as
2 ,
no tice</w>
A no
star s</w>
I P</w>
C ul
ic a</w>
butt on</w>
un g</w>
cont ains</w>
c lock</w>
ap preci
neigh bor
sup ported</w>
C D</w>
sol utions</w>
res olution</w>
N az
psy cho
on e-
pe ace
at ell
adop ted</w>
Christi an</w>
inst ance</w>
en -
certain ly</w>
The ir</w>
Mus li
0 1</w>
bed room</w>
el low</w>
streng th</w>
li a</w>
princi ples</w>
s ick</w>
pre h
or ders</w>
18 8
ed ure</w>
sho es</w>
au di
n ine</w>
D V
stud ent</w>
uri ties</w>
S an</w>
uti n</w>
spe ech</w>
recor ded</w>
be t</w>
pos es</w>
b lowing</w>
issu ed</w>
bl ed</w>
fa iled</w>
legis lation</w>
si x
des p
la d</w>
Fun d</w>
fun dam
cre d
mo de</w>
mag az
4 8</w>
wa ste</w>
sh op
ay ed</w>
oo d
benef it</w>
ab or
fac es</w>
Serv ices</w>
A stan
c e
O per
cro w
k id
ac qui
it ely</w>
Th ree</w>
Soci ety</w>
pro mot
Ar my</w>
m al
contro l
El ec
Ma j
Centr e</w>
Sto ck</w>
wel come</w>
n ar
R A
moun tain</w>
dis play</w>
li qu
Isra el
requi res</w>
T O</w>
Li fe</w>
dis h</w>
li t</w>
on ing</w>
gu est</w>
g ar</w>
recor ds</w>
ang er</w>
C ur
m el
ain able</w>
ad ver
ther ap
col lege</w>
ow ner</w>
sp ac
per c
Ph one</w>
app ear
Ano ther</w>
st uck</w>
uc ky</w>
it er
B oo
opport unities</w>
U z
N AT
g ation</w>
tic ally</w>
H igh
form ula</w>
ro ll</w>
tre es</w>
week end</w>
mo on</w>
li brary</w>
R oom</w>
ta x
pi eces</w>
R el
n one</w>
pres er
T om
fi xed</w>
i ously</w>
Mic hael</w>
um n</w>
Is lam
A ff
ing u
ag ue</w>
op pos
Afgh ani
tour nam
spea king</w>
M r
en ko</w>
E mp
s ad
fl ying</w>
lat est</w>
P utin</w>
uni versity</w>
fir m</w>
lea dership</w>
0 3</w>
mon it
ell a</w>
ad ap
Cl ub</w>
V ir
pro ve</w>
N E
Fr anc
A ra
chang ing</w>
sh oot</w>
particip ate</w>
3 7</w>
becom ing</w>
1 st</w>
tin y</w>
fla sh-
discus sed</w>
al le
S E
E duc
st ated</w>
b loc
4 2</w>
laun ched</w>
to il
in formed</w>
t ex
Afghani stan</w>
sec ure</w>
ch er</w>
pass eng
list ed</w>
des er
ag e
Astan a</w>
ea si
war ded</w>
langu ages</w>
w illing</w>
Secon d</w>
Sy stem</w>
suff ici
mun icip
appro xim
on ia</w>
la di
fa shi
T u
D on
effici ency</w>
N et
v ote</w>
I N</w>
c ore</w>
Inst ead</w>
s in</w>
pl ays</w>
mod els</w>
ob serv
tech ni
me ters</w>
hur t</w>
ati n</w>
tou ri
n ur
advant age</w>
hon or</w>
em is
fr on
strategi c</w>
kill ing</w>
p el
mis s</w>
fe ed</w>
op tions</w>
br inging</w>
ac commod
worl d
sa ved</w>
Con ference</w>
ec t
su e</w>
ir y</w>
O F</w>
E r
exten sions</w>
ev a</w>
Econom ic</w>
z en</w>
manag er</w>
Ha ving</w>
Some thing</w>
sho wer</w>
t ons</w>
tw ice</w>
defin ed</w>
f ro
St ar
equ al</w>
u n</w>
all er</w>
P hi
wil d</w>
der ing</w>
hea vy</w>
cop y</w>
tiv ity</w>
c in
desp ite</w>
su me</w>
bea uty</w>
e ed</w>
me etings</w>
ob lig
dam n</w>
attemp t</w>
se emed</w>
ac king</w>
ani an</w>
oc ca
u es</w>
exc ell
T or
ei gh
M y
adv anced</w>
mo di
spo ke</w>
Wh o</w>
St ation</w>
d um
imag ine</w>
S qu
Gr and</w>
spirit ual</w>
am ing</w>
a .
gu ard</w>
wer en</w>
ber g</w>
B e</w>
prom ote</w>
te acher</w>
O ut</w>
N i
star ts</w>
destro yed</w>
M .</w>
long- term</w>
flash- game</w>
ro of</w>
dy nam
comm itted</w>
Ma ster</w>
b right</w>
coun ter
re la
Bus iness</w>
r on
O R</w>
ac tual</w>
G az
thin ks</w>
re view</w>
c ells</w>
am ed</w>
fl u
back ground</w>
vehic le</w>
Fol lowing</w>
E st
s ongs</w>
lo s
g n</w>
er gy</w>
got ten</w>
posi tions</w>
O ut
democ ratic</w>
Tech no
D .
st ories</w>
Ar ab
jud ge</w>
sw imming</w>
four th</w>
O S</w>
de dic
m ent
d res
Goo gle</w>
l ar</w>
fe ature</w>
wa ve</w>
L ady</w>
O s
R ome</w>
has n</w>
P an
pri mary</w>
ex ternal</w>
dev ices</w>
re form</w>
e ds</w>
fac tory</w>
J ews</w>
ick en</w>
dir ty</w>
b ird</w>
mu seum</w>
0 2</w>
poli tics</w>
fin ish</w>
gre w</w>
sel ected</w>
cl in
s ca
tot ally</w>
tra ding</w>
determin ed</w>
ak ed</w>
Mu sic</w>
f lowers</w>
L en
tal ked</w>
Fri day</w>
conc ept</w>
Uz be
um ent</w>
expres sed</w>
part ner
k ness</w>
2 4
use ful</w>
regi me</w>
hi dden</w>
y i
vic tory</w>
per man
L ove</w>
maxim um</w>
app lied</w>
gu il
M is
proc edure</w>
nit ure</w>
3 9</w>
quar ter</w>
event ually</w>
Feder al</w>
offic er</w>
associ ated</w>
po wers</w>
A L</w>
z i
conven i
at ch</w>
E M
offici ally</w>
no body</w>
enterpri ses</w>
ic ity</w>
C z
sec on
L y
ur al</w>
a p</w>
Th us</w>
di ag
regar ding</w>
educ ational</w>
Inv est
stu pid</w>
ag on</w>
ut ely</w>
cre am</w>
Sp anish</w>
any where</w>
T el
Hen ry</w>
wonder ful</w>
k et
sp ending</w>
appro ved</w>
am p
In dian</w>
G lobal</w>
re stric
C ause</w>
st atis
far m</w>
sh ut</w>
est er</w>
sex ual</w>
e .</w>
A re
A p
f al
d an</w>
vis ited</w>
jo y</w>
and y</w>
her self</w>
Cap tain</w>
reali zed</w>
M ari
ul ts</w>
re al
pro v
I L
An dre
b our
Y et</w>
Fin ally</w>
tal ks</w>
sh el
la h</w>
Pl ay
sym bo
क े</w>
sel y</w>
ess ential</w>
I .
c ess</w>
D et
j ail</w>
Chi ef</w>
att acks</w>
S w
canc er</w>
lear ning</w>
con vers
ous ness</w>
el ed</w>
ar med</w>
S hi
M iss</w>
our selves</w>
soldi ers</w>
promis ed</w>
k il
i .
gi ft</w>
custom er</w>
sib ly</w>
deci de</w>
in y</w>
L oc
c ov
B ack</w>
ch ea
S ur
r u</w>
is o
ti red</w>
rout e</w>
rem ained</w>
ea k</w>
char ges</w>
S how</w>
uni on</w>
Brit ain</w>
n ations</w>
effici ent</w>
doub t</w>
sh ops</w>
L ine</w>
M ac
fi re
5 5</w>
s ons</w>
su red</w>
func tions</w>
ev alu
op position</w>
ap pe
ass em
vari ety</w>
friend ly</w>
exist ence</w>
pul led</w>
As sem
fail ure</w>
P ak
te en</w>
Ar t</w>
a de
g ain</w>
wal ked</w>
mean ing</w>
N ative</w>
neg ative</w>
bo ss</w>
M em
sil ver</w>
S el
C H
C er
dis ci
u k
T ex
L O
inv ited</w>
surg ery</w>
integr ation</w>
a e</w>
plat form</w>
conduc ted</w>
purcha se</w>
j obs</w>
emp ha
do gs</w>
M e</w>
pro posed</w>
low -
cla im</w>
B ush</w>
n is</w>
G ames</w>
run s</w>
sh ouldn</w>
ag ency</w>
ti e</w>
p ages</w>
con sumption</w>
c ops</w>
co l</w>
crip t</w>
Rec ords</w>
extrem ely</w>
larg er</w>
L an
H is
wea pon</w>
Ber lin</w>
ec tions</w>
inter net</w>
Dem oc
4 00</w>
comm it
chem ical</w>
them atic
t les</w>
g an</w>
auth or</w>
vers ary</w>
p ical</w>
le gi
hum idity</w>
nec k</w>
it ems</w>
Fr ont</w>
pic ked</w>
per form</w>
pl ate</w>
ch os
H ot
n es
tel ephone</w>
F lo
K e
ul es</w>
sub si
n on
de fe
chall enge</w>
K en
ni c</w>
M ore
oper ate</w>
it y
f ts</w>
un t</w>
pre cip
cre w</w>
th in</w>
cri tical</w>
cou ples</w>
ar a</w>
p are</w>
es h</w>
ti s</w>
t ac
Egy pt</w>
Th om
Sci ence</w>
V ladi
te ach
s .
M oun
atmo sphere</w>
.... ....
g ment</w>
adv ance</w>
O ld</w>
mat ters</w>
su dd
any way</w>
z er</w>
concer n</w>
m ir</w>
al ty</w>
2 8
Air port</w>
Alex ander</w>
Bi g</w>
str ange</w>
su al</w>
T .</w>
cy cle</w>
el ev
pas sing</w>
ow ned</w>
fac ts</w>
Rob ert</w>
th day</w>
princi ple</w>
1 2.
fr ame</w>
o es</w>
Sh ould</w>
0 6</w>
sha red</w>
H or
G O
invest ors</w>
fin ding</w>
qui et</w>
ris ks</w>
fore ver</w>
k ni
confid ence</w>
rest ed</w>
L ook</w>
pain ting</w>
ail s</w>
to col</w>
man ner</w>
off ering</w>
de al
desi re</w>
st ability</w>
ro b
k o
bom b</w>
b un
pap ers</w>
en try</w>
fac tors</w>
Au stri
0 5</w>
accep ted</w>
B I</w>
estab lish</w>
m ol
S P
sudd enly</w>
Ag ency</w>
mis sed</w>
dre ds</w>
ca st
approxim ately</w>
d uty</w>
ent ure</w>
sur ing</w>
elec tric</w>
sho wing</w>
pl us</w>
ne ither</w>
occu p
J e
s ity</w>
hel ping</w>
b y
b ility</w>
dro pped</w>
am bi
He alth</w>
recogni zed</w>
accoun ts</w>
Mold ova</w>
Aff airs</w>
pack age</w>
po t</w>
ann y</w>
foot ball</w>
tro ops</w>
P a
ar g
la b</w>
S uch</w>
E li
Cor por
de w</w>
0 4</w>
lo ves</w>
NAT O</w>
oppos ite</w>
monit oring</w>
lab or</w>
strugg le</w>
0 9</w>
holi day</w>
go als</w>
ap s</w>
Assem bly</w>
stat ements</w>
ra p
Pro ject</w>
min ister</w>
coll ap
pe g</w>
mo stly</w>
S wit
year- old</w>
198 9</w>
w estern</w>
han g</w>
is tics</w>
defin itely</w>
fi x</w>
excell ent</w>
ilos oph
ur o</w>
feder al</w>
D am
est ate</w>
sem in
eli min
end ers</w>
tain ing</w>
ac ad
men tion</w>
easi er</w>
v ey</w>
main tain</w>
chos en</w>
C lick</w>
2 7
L ou
C up</w>
main ly</w>
sto red</w>
t aught</w>
world wide</w>
v ity</w>
a imed</w>
arti st</w>
Olymp ic</w>
gu it
Educ ation</w>
ga ther
2 6
trans l
en ses</w>
A S</w>
newspap er</w>
W om
Con gress</w>
j e
atell ite</w>
V o
any body</w>
ab led</w>
invest ments</w>
fru it</w>
St e
t ells</w>
hea ven</w>
mag ic</w>
tw o-
B ak
pre -
g al
vis itors</w>
t esti
l ay</w>
Ac tually</w>
deta il</w>
concer ning</w>
I II</w>
gu id
dig ital</w>
discus s</w>
Be sides</w>
P ublic</w>
form at</w>
b alls</w>
Speci al</w>
L atin</w>
t ool</w>
s ounds</w>
v eg
gener ally</w>
destro y</w>
l ake</w>
gr y</w>
b ad
0 8</w>
se l</w>
Qu een</w>
Gre ek</w>
equi pped</w>
Ang el
b ath</w>
I F
revol ution</w>
et te</w>
ac comp
ap paren
ag encies</w>
Gre ece</w>
fav or</w>
Ch ic
un a</w>
ci se</w>
cap able</w>
as sist
L ake</w>
S O
R ea
Bl ue</w>
D a
exper t</w>
ex tre
ac ted</w>
F i</w>
Bu il
Is land</w>
N ews</w>
4 1</w>
rest ling</w>
m ers</w>
sh er</w>
C E
0 7</w>
to w
u x</w>
m it
prof it</w>
N O
Americ ans</w>
4 3</w>
dec la
Par liament</w>
y ard</w>
program mes</w>
prac tical</w>
deli very</w>
Doc tor</w>
bi o
am ic</w>
vers al</w>
eng aged</w>
ob vious</w>
ab road</w>
pro sec
ag ent</w>
consi st
ap art</w>
K yr
challeng es</w>
Ro yal</w>
tru ly</w>
Su n</w>
end a</w>
stu died</w>
pri ority</w>
f at</w>
a warded</w>
tain ment</w>
poli tici
v ul
my ster
bro w
inten ded</w>
hand le</w>
ra s
p ants</w>
b low</w>
shop ping</w>
shir t</w>
F oundation</w>
H all</w>
hi de</w>
tre at</w>
tea ms</w>
o li
Th anks</w>
Kazak h</w>
F our</w>
ar ily</w>
1 1.
de x</w>
wit ness</w>
er o
e uro
be er</w>
administr ative</w>
com preh
pu ts</w>
men u</w>
ex i
cha in</w>
b its</w>
a c</w>
di men
re min
His panic</w>
behavi or</w>
continu es</w>
emer gency</w>
achiev ed</w>
B oth</w>
vol un
k ov</w>
di am
li fe
deter mine</w>
More over</w>
del eg
o therwise</w>
h ate</w>
establi shment</w>
Hel p</w>
pre gn
air craft</w>
notic ed</w>
Re g
regi stration</w>
on om
M un
port ation</w>
implem ented</w>
B ook</w>
s pon
dro ps</w>
Ara b</w>
dec ades</w>
es is</w>
r o</w>
Vi as
am i</w>
independ ence</w>
So cial</w>
P L
num erous</w>
not es</w>
sust ainable</w>
out put</w>
J ud
H ung
ti tude</w>
ill u
en th</w>
fin ance</w>
te aching</w>
shoot ing</w>
over all</w>
quar ters</w>
hou sing</w>
4 7</w>
re move</w>
Res earch</w>
L a</w>
i -
ti al</w>
cla ims</w>
at eral</w>
consequ ences</w>
H as</w>
ay ev</w>
A B
in sul
car rying</w>
h at</w>
5 2</w>
w l</w>
offic ers</w>
S R</w>
precip itation</w>
M ember</w>
qu ick</w>
18 7
bl ing</w>
e ze</w>
stre am</w>
s anc
multi ple</w>
struc tures</w>
es sions</w>
magaz ine</w>
n u
appear ance</w>
Swe den</w>
T ru
Israel i</w>
Ric hard</w>
of -
altern ative</w>
streng th
H u
Fin ancial</w>
lea ds</w>
des cription</w>
audi ence</w>
si mul
n ect</w>
br and</w>
re au</w>
Vias na</w>
agre ements</w>
dol lar</w>
f oun
ri gh
Kyr gy
t el</w>
tournam ent</w>
m ood</w>
edu res</w>
exp ensive</w>
all -
heal thy</w>
con st
5 1</w>
see k</w>
happ ening</w>
Organi zation</w>
bili ties</w>
w oods</w>
ex tra
engine ering</w>
c a</w>
Y O
sol ve</w>
ea ses</w>
accommod ation</w>
G DP</w>
reduc ed</w>
ill a</w>
T ro
clo ser</w>
absol utely</w>
g .</w>
le g</w>
confir med</w>
at re</w>
u red</w>
3 ,
settl ement</w>
pro per</w>
stor m</w>
fe els</w>
in deed</w>
comp lic
hel ps</w>
lin ed</w>
let ters</w>
scienti sts</w>
En ergy</w>
ke y
il li
protec ted</w>
hea ded</w>
vi sible</w>
mil lions</w>
H IV</w>
mar ks</w>
represent ative</w>
N ic
electr onic</w>
believ es</w>
de sig
tion ing</w>
ar rested</w>
Con tro
ell ec
cer em
kin ds</w>
S of
mist ake</w>
9 5</w>
bo y
En ter
y m
Secret ary</w>
Lat ino</w>
uc k
sha sa</w>
remov ed</w>
favor ite</w>
con dition
Kin shasa</w>
Chec k</w>
agricul tural</w>
Cha irman</w>
gg ing</w>
ang le</w>
all ery</w>
Is n</w>
adv ice</w>
pain t</w>
ess ment</w>
A D
lo g</w>
hun dreds</w>
R en
G or
pri or</w>
mess ages</w>
me at</w>
mar ked</w>
ha bit
f are</w>
T -
Ob ama</w>
j ected</w>
Belar u
t ol
fun ny</w>
fe at
R .</w>
M et
s i</w>
negoti ations</w>
201 7</w>
si bilities</w>
s now</w>
ne ar
W here</w>
m ad</w>
vi l</w>
it arian</w>
es cape</w>
plea sure</w>
ag ra
re ference</w>
T ha
AN D</w>
Ad ministr
k z</w>
dedic ated</w>
deliver ed</w>
speci fic
or dered</w>
A le
we alth</w>
co ast</w>
x ing</w>
bir ds</w>
mil k</w>
R un
Por tu
sch em
ul ty</w>
Chic ago</w>
ta ste</w>
sha re
qu es</w>
ten ance</w>
recogni ze</w>
or ism</w>
in e
ke eps</w>
er ia</w>
confi g
il it
P C
Rom an</w>
E L
col lea
ste el</w>
st ations</w>
Pro b
suffici ent</w>
bu ried</w>
patter n</w>
discus sion</w>
compu ters</w>
cr y
Spi rit</w>
pl astic</w>
Ex ec
ti an</w>
IO N</w>
sugg est</w>
stan tly</w>
fall ing</w>
estim ated</w>
defin i
gg er</w>
Ther efore</w>
in qu
ic ked</w>
At lan
acc ur
i zed</w>
gu ide</w>
sm aller</w>
di sa
C IS</w>
sec urities</w>
u pper</w>
sel ection</w>
c ute</w>
off ices</w>
win dows</w>
prepar ation</w>
p ter</w>
D NA</w>
cl ass
oc ean</w>
en i
decla red</w>
1 1
bre a
v e-
St an
Dep uty</w>
ist ers</w>
s low</w>
identi fied</w>
4 6</w>
proc edures</w>
man age</w>
Z e
ris m</w>
re forms</w>
ni e</w>
anni versary</w>
U r
inc t</w>
bran ch</w>
C O</w>
la id</w>
Tex as</w>
tho do
uni st</w>
v it
every where</w>
ster n</w>
F BI</w>
bro thers</w>
ri f
sup pose</w>
re fer
terri ble</w>
de fault</w>
intellig ence</w>
in no
Swit zer
Char les</w>
ti l
b unch</w>
ri sing</w>
J ack</w>
e. g.</w>
l uck</w>
ban king</w>
rec overy</w>
hy dro
con stitu
P ap
t ab
S pr
religi on</w>
r ough</w>
corrup tion</w>
C at
Switzer land</w>
DV D</w>
ob ile</w>
la unch</w>
Ex p
pos t-
Sun day</w>
recomm end
certi fic
Y oun
f alls</w>
s port</w>
C ra
writ er</w>
V ery</w>
p -
A ID
pur poses</w>
moun tains</w>
mor al</w>
ant a</w>
A gre
9 7
person nel</w>
ad ju
recomm ended</w>
net works</w>
atten ded</w>
Islam ic</w>
lim it</w>
Vladi mir</w>
veg et
st y</w>
la m</w>
n d</w>
as sum
mach ines</w>
T al
st ab
s at</w>
a wa
compon ents</w>
bas sad
4 9</w>
neighbor hood</w>
enti ally</w>
w ra
rem ote</w>
te ach</w>
fundam ental</w>
C ast
d or
gg s</w>
entr ance</w>
bigg er</w>
electr icity</w>
Y u
l ucky</w>
bur n</w>
terrori st</w>
sh oul
Uzbe k
M ary</w>
D id
Fr ank</w>
ri ding</w>
medic ine</w>
ir ing</w>
ge o
il legal</w>
ici an</w>
D ani
success fully</w>
control led</w>
we ird</w>
sig nal</w>
aff ected</w>
S atur
ici de</w>
g lad</w>
ev ol
bre eze</w>
law yer</w>
re placed</w>
mon y</w>
lic ense</w>
swe et</w>
susp ect</w>
9 9</w>
w ake</w>
s co
T em
particip ated</w>
de -
bir thday</w>
b ac
apart ments</w>
For um</w>
pre pare</w>
y ellow</w>
initi al</w>
e u
K u
Bar cel
F estival</w>
ser iously</w>
m ass
ther e
em ies</w>
ot ed</w>
as y</w>
fac tor</w>
fa ster</w>
C op
i. e.</w>
c ing</w>
sa v
rel and</w>
experi enced</w>
s or</w>
vir us</w>
fortun ately</w>
Turk ish</w>
5 6</w>
R us
al d</w>
sub stan
Fam ily</w>
speci ally</w>
sa ving</w>
pos s
aband oned</w>
u ted</w>
pre fer</w>
pro of</w>
conduc t</w>
e z
comm unities</w>
ou ghts</w>
S am</w>
st ep
p uni
ch icken</w>
S M
5 8</w>
ar ity</w>
a im</w>
increas ingly</w>
tr o</w>
U p</w>
pre viously</w>
drin king</w>
mean time</w>
d ar</w>
n ic
auth ori
form al</w>
convers ation</w>
fun d</w>
Palest inian</w>
chan nel</w>
0 300</w>
C D
st aying</w>
cop ies</w>
L uc
ru b
integr ated</w>
5 7</w>
shi ft</w>
b ound</w>
ann els</w>
sur ve
P u
5 3</w>
em ail</w>
N ot
perman ent</w>
5 4</w>
ro se</w>
gr ounds</w>
en able</w>
comb ination</w>
sa d</w>
t ary</w>
for th</w>
char ged</w>
P lan
leg s</w>
pos sibly</w>
kno wing</w>
Uzbek istan</w>
i ds</w>
trac ks</w>
se y</w>
po ll
Fin land</w>
J us
sen ior</w>
fo rec
st y
sou thern</w>
b o</w>
arti cles</w>
al co
ber t</w>
s ligh
I reland</w>
y o
install ation</w>
p un
i i</w>
fe el
hear ing</w>
J our
under stood</w>
down load</w>
L ittle</w>
cast le</w>
v el
ur g
si vely</w>
15 .
cl asses</w>
P O
situ ated</w>
se ats</w>
ot a</w>
fr ag
B ir
sen si
surpri se</w>
sti mul
re sear
C .
18 6
t esting</w>
autom atically</w>
r are</w>
impl ement</w>
smar t</w>
mas sive</w>
Phi li
E .
A P</w>
198 0</w>
b ol
as sa
ade qu
ो ं</w>
add res
b att
t ank</w>
Lea gue</w>
t asks</w>
T om</w>
c ake</w>
m al</w>
L eg
po cket</w>
k er
j ump</w>
teach ers</w>
fl at</w>
bu sy</w>
reduc tion</w>
gen e
s an
ir on</w>
b ell</w>
Su per
M om</w>
ep iso
coun ter</w>
AID S</w>
expl ained</w>
L ab
wea k</w>
repres ent</w>
econom ies</w>
s en</w>
deli ver</w>
ro ads</w>
er r
st ayed</w>
ur s</w>
tri bu
ti a</w>
rail way</w>
app ed</w>
- I</w>
si zed</w>
manufac turing</w>
st al</w>
non- families</w>
en e</w>
Exc ept</w>
Pro tec
Pak istan</w>
Any way</w>
mea sure</w>
speci fied</w>
p ush</w>
exer cise</w>
R am
े ं</w>
Cz ech</w>
li am</w>
initi ative</w>
ig n
gi f</w>
Barcel ona</w>
Belaru sian</w>
view ed</w>
p et</w>
ca uses</w>
bi ke</w>
Pro gram
hum ans</w>
R ol
hot els</w>
um es</w>
identi ty</w>
t i</w>
reas on
it a</w>
Every body</w>
ur ban</w>
perf ec
dra wn</w>
diag no
sp aren
ali ties</w>
L ar
u ries</w>
ext ent</w>
cont ain</w>
sen ding</w>
peace ful</w>
ob viously</w>
minim um</w>
fur niture</w>
toil et</w>
fun ding</w>
figu res</w>
Ro ad</w>
S Q
so -
cre te</w>
S till</w>
t ress</w>
mov ies</w>
Ca tho
lo sing</w>
Prof essor</w>
tan e
t ests</w>
Bul g
clean ing</w>
ser ving</w>
N ew
Joh n
&apos; Cause</w>
ex act</w>
b a</w>
pres sion</w>
occur red</w>
g al</w>
P S</w>
concer t</w>
foc used</w>
prof essor</w>
e- mail</w>
identi fy</w>
ide al</w>
tap e</w>
2 9
impro vement</w>
dec or
suff ering</w>
I G
A G
t ment</w>
ol ate</w>
comfor t</w>
Par t</w>
terr orism</w>
gar age</w>
7 2</w>
en for
practic es</w>
d ear</w>
Fi ve</w>
st ages</w>
pre me</w>
d ay
por tion</w>
at -
eth nic</w>
Gi ven</w>
ad dy</w>
Did n</w>
tr ou
198 8</w>
concer ns</w>
W ill</w>
divi sion</w>
n esses</w>
l un
comm ittee</w>
E X
in ju
S .</w>
E C</w>
h i</w>
tem porary</w>
n omin
Col lege</w>
repres ented</w>
fac ility</w>
tre ated</w>
proper ties</w>
fin ancing</w>
be l</w>
m and
Po wer</w>
gradu ated</w>
con nect</w>
guarante e</w>
ans wer
H O
main tenance</w>
househol der</w>
2 nd</w>
dre ams</w>
ha z
Thom as</w>
t es</w>
b in
th or
ri er</w>
Youn g</w>
co at</w>
peri o
dec ade</w>
at er
J ack
obj ective</w>
ea stern</w>
d ying</w>
P .
A gr
tic ket</w>
dis eases</w>
Di strict</w>
therap y</w>
k as
chec ked</w>
Wil liam</w>
wh o
tor al</w>
sch ol
er ror</w>
M ul
D esp
am p</w>
B ea
arti sts</w>
Li thu
U R</w>
lu x
V ide
cir cul
S .
Hot els</w>
asp ects</w>
m ate</w>
rel s</w>
res ort</w>
fashi on</w>
fac ilit
partner ship</w>
o k
infl ation</w>
F ound</w>
T ar
e ing</w>
dialo gue</w>
M ur
N av
S on</w>
ori a</w>
em bar
Indu stri
vul ner
recor ding</w>
nor thern</w>
L .
Mar k</w>
198 7</w>
lik es</w>
fi shing</w>
feel ings</w>
eas ant</w>
att acked</w>
so le</w>
la dies</w>
sett ings</w>
lo an</w>
in ts</w>
Fur ther</w>
ac tor</w>
S top</w>
E s
speci alists</w>
gran ted</w>
ol en</w>
em i
dra ft</w>
ph en
l au
pro ved</w>
mi x</w>
int ellec
hop ing</w>
Ori gin
a uc
impro ved</w>
I B
hi ding</w>
ab s
se es</w>
k g</w>
H im</w>
won der</w>
prof ile</w>
ub s</w>
f ra
10 -
comb ined</w>
con serv
br ings</w>
dep ends</w>
ag ents</w>
5 9</w>
qu anti
perfec tly</w>
p ack</w>
ch oc
st oc
bar s</w>
f estival</w>
Desp ite</w>
B ay</w>
migr ation</w>
r at
inst all</w>
h an</w>
form ing</w>
B each</w>
th oughts</w>
bit ch</w>
s low
pre ne
Ho t</w>
win ner</w>
presid ential</w>
Pl us</w>
Par t
sec tors</w>
For ce</w>
b one</w>
E .</w>
comp et
es -
deta iled</w>
adver ti
c and
ther more</w>
te eth</w>
is ation</w>
Pr ince</w>
thre w</w>
Agre ement</w>
u g
m ber</w>
wor ried</w>
ph ilosoph
sub sequ
cl ou
pre mi
regul ations</w>
recogni tion</w>
mem ber
.j peg</w>
fol lows</w>
e dition</w>
ki e</w>
gg ed</w>
b ill</w>
gent lem
archit ecture</w>
rel atively</w>
fla g</w>
e k
s ake</w>
fil ms</w>
ag enda</w>
ed ly</w>
tra dition</w>
expres sion</w>
professi on
R ock</w>
ex press</w>
st ea
cri mes</w>
pha se</w>
jus ti
exec utive</w>
m ile</w>
M P
o o</w>
mir ror</w>
divi ded</w>
r i</w>
it age</w>
provi sions</w>
198 6</w>
en emies</w>
us al
ver sions</w>
busin esses</w>
win ning</w>
Po int</w>
Emp ire</w>
f oundation</w>
rem em
op les</w>
charac ters</w>
G olden</w>
edu le</w>
Ad v
in i</w>
Sy ria</w>
isc al</w>
t une</w>
enterpri se</w>
Mr s.</w>
bo w</w>
1 50</w>
gro wn</w>
el er
as sic</w>
ov o</w>
doc tors</w>
sca red</w>
resid ents</w>
er as</w>
ed ul
Ra dio</w>
Mar tin</w>
w is
Bu reau</w>
ff s</w>
candi date</w>
U se</w>
met res</w>
M .
si onal</w>
them e</w>
mark eting</w>
whe el</w>
n es</w>
j a</w>
ari o</w>
t age</w>
au d
fi es</w>
ity .com</w>
enti rely</w>
m ess</w>
hol ds</w>
St ar</w>
load ed</w>
li ver</w>
bassad or</w>
um ents</w>
g as
Squ are</w>
5 0
it ness</w>
f loo
Ac t</w>
T A</w>
comm ents</w>
depos it</w>
co p</w>
or a</w>
cir cle</w>
sm ell</w>
recomm end</w>
il er</w>
d ating</w>
Tra de</w>
H ear
BB Code</w>
scre en
re new
fall en</w>
re volu
Musli m</w>
in cid
break ing</w>
ma thematic
gam esc
depend ent</w>
de aling</w>
G ame</w>
um a</w>
girl gamesc
girlgamesc ity.com</w>
Li ber
instrum ents</w>
her o</w>
ut or</w>
mur dered</w>
Prob ably</w>
Bi ble</w>
P .</w>
survi ve</w>
fif th</w>
i ze</w>
car bon</w>
N a
w ings</w>
SQ L</w>
cha mpi
m ad
incre di
rel ation</w>
H app
jour ney</w>
consi sts</w>
con vic
s atellite</w>
J or
el ement</w>
gun s</w>
B ill</w>
1 3.
wher e
cent uries</w>
Ne ther
famili ar</w>
kni fe</w>
e ties</w>
col ors</w>
lar ation</w>
chil d
expan sion</w>
cour ses</w>
v an
reve aled</w>
usal em</w>
resi ding</w>
i ded</w>
en na</w>
c able</w>
occu pi
es ome</w>
ra w</w>
ol a</w>
ti mi
un able</w>
su m</w>
alco ho
vehic les</w>
s and
rem aining</w>
s wi
ric h
re vi
de struction</w>
P ic
C lar
6 00</w>
regi ster</w>
cen ters</w>
b ags</w>
tran sparen
rel ess</w>
boo k
Chil dren</w>
trans portation</w>
Cu stom
T our</w>
K a
1 4.
m ac
Jer usalem</w>
cerem ony</w>
cont em
no se</w>
h eight</w>
ec tor</w>
e ggs</w>
L ev
Contro l</w>
8 5</w>
bul let</w>
uti li
c ell
st olen</w>
he ating</w>
Fil m</w>
P R
custom s</w>
ag gres
to wer</w>
no ti
commit ment</w>
bre ad</w>
cre ative</w>
bri ef
al y
Nor thern</w>
G a
Corpor ation</w>
plac ement</w>
over ei
Fr ank
restaur ants</w>
Tre at
198 5</w>
vil le</w>
ee ded</w>
m .</w>
in ced</w>
it em</w>
abs ence</w>
D re
Russi ans</w>
st ole</w>
disci pl
ac le</w>
is ms</w>
con tr
en ant</w>
De ath</w>
ec tives</w>
dr am
en ni
app ing</w>
uc a
po ly
L ee</w>
phot ogra
A O</w>
re ferred</w>
occu r</w>
T S</w>
म ें</w>
t ables</w>
f ant
Exec utive</w>
pri me</w>
Li ve</w>
Nether lands</w>
A ward</w>
A V
Ex per
Poli ce</w>
Lat via</w>
Fur thermore</w>
p aying</w>
ni ghts</w>
liam entary</w>
fel low</w>
d ary</w>
differ ences</w>
pres sed</w>
versi ties</w>
so il</w>
resid ence</w>
Georgi an</w>
trans ferred</w>
op tim
gi ant</w>
ho ly</w>
L os</w>
contribu tion</w>
O l
M ot
A R</w>
ste in</w>
cra sh</w>
fac ing</w>
St and
su gar</w>
conclu sion</w>
di ary</w>
ar chi
ph ones</w>
cov ers</w>
T R
L im
thre e-
re sistance</w>
mis sions</w>
ass essment</w>
ak h</w>
in ner</w>
O N</w>
- up</w>
contra st</w>
mi d-
f ans</w>
w ire</w>
own ers</w>
der i
Wom en</w>
D L
it ters</w>
govern mental</w>
w et</w>
div or
j ew
197 3</w>
con crete</w>
tra ined</w>
st ance</w>
adv is
fa ir
8 6</w>
cr uc
at en</w>
i di
aff ect</w>
G ri
no -
f as
S ay</w>
sugg ested</w>
L ast</w>
f ought</w>
9 6.
sw ear</w>
re n</w>
ent re
comp ens
Techno logy</w>
H ill</w>
y ev</w>
logi st</w>
conv inced</w>
immedi ate</w>
A -
supp lies</w>
hea ding</w>
am m
respon d</w>
pay ments</w>
pr oud</w>
p p</w>
gra ve</w>
v el</w>
emis sions</w>
a ward</w>
ob tained</w>
ic ks</w>
sol ar</w>
gre es</w>
bas ically</w>
sw itch</w>
f iscal</w>
bu ying</w>
Bo y</w>
sup ports</w>
Regi on</w>
K ur
in her
co ol
we en</w>
sp ective</w>
H un
inqu iry</w>
so- called</w>
ch ose</w>
ac he</w>
Cha mpionship</w>
sc ope</w>
sup porting</w>
sch edule</w>
gr and</w>
consider ation</w>
cap tain</w>
begin s</w>
b i</w>
Jo se
consul t
An ti
Pro gram</w>
wid ely</w>
compreh ensive</w>
tran sition</w>
institu tion</w>
A ut
re ci
lab or
Ch er
ut ch</w>
re porting</w>
ali gn</w>
Bel gi
pri mar
instruc tions</w>
c er</w>
W .</w>
sh ore</w>
exist s</w>
t g
smo ke</w>
lab our</w>
M ill
exten ded</w>
I V
fi red</w>
YO U</w>
thodo x</w>
P res
ten tion</w>
S k
En viron
st a</w>
Fin ance</w>
is s
f ab
dom ain</w>
Some body</w>
A C</w>
stri ke</w>
r am
bro ad</w>
Col l
An n
direc ted</w>
thre ats</w>
surr ounded</w>
ch est</w>
M el
girl friend</w>
clo sely</w>
We b
har dly</w>
signific antly</w>
D ro
or ney</w>
pur su
mag ne
g lob
pro motion</w>
near by</w>
Au th
st ress</w>
s pl
Sum mer</w>
some how</w>
bas ement</w>
re in
L ight</w>
Is lam</w>
.. ..</w>
In di
v ast</w>
fl exi
ea ble</w>
bo xes</w>
cla imed</w>
be half</w>
M ik
Sp ace</w>
B on
por ters</w>
i z
el a</w>
shar ing</w>
Ta j
Min sk</w>
App le</w>
acc eler
fal se</w>
al a</w>
situ ations</w>
Har ry</w>
3 6
ob tain</w>
employ ed</w>
ni ght
th ly</w>
soli d</w>
const ant</w>
competi tive</w>
ans wers</w>
Un der</w>
Austri a</w>
hom es</w>
reser ves</w>
. ru</w>
m on</w>
S anta</w>
en der</w>
un known</w>
gr at
r d</w>
l ad
K ir
I C</w>
dec line</w>
Ph ot
acqui red</w>
pres entation</w>
surpri sed</w>
origin ally</w>
le ep</w>
de grees</w>
introduc tion</w>
s and</w>
E A</w>
Ca uca
mani f
To p</w>
Fl ori
pro p
cam eras</w>
suff ered</w>
sc ore</w>
or m
Ar gent
inno cent</w>
h oo
ut ation</w>
lin ked</w>
co ach</w>
N ik
dri ven</w>
S af
C ub
enti tled</w>
cu sto
mi xed</w>
dra wing</w>
Vide o</w>
st el</w>
O x
Ci vil</w>
the tic</w>
t s
guit ar</w>
Ar ch
aff airs</w>
ref used</w>
impro ving</w>
bel ong</w>
Gir l</w>
Dani el</w>
O ver
in et</w>
hon est</w>
re l</w>
r ural</w>
guil ty</w>
C ar</w>
ro man
re d
n ut
Po licy</w>
val ent</w>
prin cip
g are
dem ands</w>
9 2</w>
par agra
C C
196 0</w>
Regi onal</w>
T ou
streng then</w>
provi sion</w>
p et
extre me</w>
em br
Po lish</w>
I ni
lim its</w>
phen om
p in
o red</w>
est y</w>
bl ind</w>
spo ken</w>
198 2</w>
pro ph
enfor cement</w>
happ iness</w>
U T
G -
primar ily</w>
ough ly</w>
k ne
bi e</w>
ra d</w>
KZ T
F ood</w>
reli able</w>
con soli
ar i</w>
T eam</w>
D om
B ol
repres ents</w>
a si
ut ing</w>
pri ze</w>
h at
198 4</w>
pan el</w>
contribu te</w>
lo vely</w>
y n
- based</w>
prin ts</w>
dar kness</w>
su itable</w>
agricul ture</w>
D ata</w>
sub mitted</w>
w restling</w>
5- 0
s cri
V .</w>
mut ual</w>
ch ers</w>
d less</w>
Nor way</w>
cl assi
refu ge
c utting</w>
wonder ing</w>
al lowing</w>
ob served</w>
at titude</w>
E P</w>
ul ate</w>
graph y</w>
cont ained</w>
ag o
po p</w>
Vi et
D ou
A v
ter ing</w>
9 6</w>
re place</w>
ing er</w>
4 ,
mov es</w>
bas sy</w>
ori z
Coun try</w>
on er</w>
2 3.
phot ograph
d am</w>
re views</w>
F u
tar g
lo ans</w>
hear ts</w>
F ar
mo tiv
dep ending</w>
S au
Bab y</w>
n ea
des ert</w>
c ked</w>
I l
Char lie</w>
8 00</w>
m ans</w>
lab el</w>
consum er</w>
t ings</w>
y ou
sligh tly</w>
coll ect</w>
dic tion</w>
neighb ors</w>
arri val</w>
k ingdom</w>
increas es</w>
g ained</w>
entre prene
cra p</w>
ad o</w>
L t
ren tal</w>
deb ate</w>
D own</w>
for um</w>
K al
ten -
ograph ics</w>
li ft</w>
id ly</w>
bl ack
er ies</w>
e. kz</w>
ह ै</w>
choc olate</w>
20 th</w>
pe oples</w>
ic king</w>
chea p</w>
tic kets</w>
197 9</w>
inter face</w>
Gu ests</w>
bloc ks</w>
sch edul
as sume</w>
Tim es</w>
kas e.kz</w>
collea gues</w>
M O
ten ge</w>
em a</w>
ill ance</w>
hosp it
pil ot</w>
be ar
S -
ta xes</w>
C A</w>
t an</w>
mer ely</w>
ren ce</w>
re pair</w>
www. kase.kz</w>
duc tion</w>
cer amic</w>
ath let
ab oration</w>
V an</w>
t ough</w>
contr ary</w>
bi an</w>
Y er
sp lit</w>
n ings</w>
activ ely</w>
Fr an
w oo
is co</w>
g .
tem ple</w>
histor ic</w>
boy friend</w>
por ter</w>
h ill</w>
comb at</w>
M ak
3 rd</w>
s overei
3 7
c ue</w>
197 0</w>
rec eption</w>
o ke</w>
L is
- to-
stre t
b n</w>
US SR</w>
198 3</w>
c rit
Bro wn</w>
ali ze</w>
re action</w>
r on</w>
A D</w>
ici ous</w>
M ach
Con t
crow d</w>
B an
eff ectively</w>
Vi ew</w>
r um
person ally</w>
coll ective</w>
b all
res ource</w>
defini tion</w>
the ater</w>
ori gin</w>
dr ag
strong er</w>
2 5.
m -
land s
W H
be ds</w>
she et</w>
candi dates</w>
Or der</w>
D ri
secon dary</w>
appe al</w>
recei ving</w>
p g</w>
ou ts</w>
A ri
ari at</w>
f ate</w>
commis sion</w>
ti ous</w>
spi red</w>
exam ples</w>
comp liance</w>
org an</w>
ex hi
t end</w>
recommend ations</w>
g olden</w>
P op
is ol
fa il</w>
sing er</w>
share holders</w>
cros s-
compar ison</w>
sh ut
ex -
apparen tly</w>
un c
consci ousness</w>
Satur day</w>
proper ly</w>
6 6</w>
8 0
rel ative</w>
lat ter</w>
up date</w>
sev ere</w>
Con stitution</w>
di c</w>
G ul
youn ger</w>
Pal ace</w>
ici ans</w>
B os
produc er</w>
in cident</w>
list ening</w>
prov ince</w>
B il
lan der</w>
bor ders</w>
bil ateral</w>
valu able</w>
associ ation</w>
mechan ism</w>
f lower</w>
ci de</w>
a str
E -
1. 5</w>
regul ation</w>
larg ely</w>
ber ed</w>
no ise</w>
bloo dy</w>
Car ol
po lic
Cast le</w>
ad mit</w>
cont est</w>
Str ate
em itters</w>
C -
zer o</w>
l ap
di versity</w>
P ubli
gl asses</w>
ven ue</w>
arri ve</w>
B .</w>
198 1</w>
member ship</w>
intro duce</w>
Exc use</w>
न े</w>
propos al</w>
n ative</w>
fa i
g oo
U l
go dd
ty -
H om
resul ting</w>
de sign
Re ally</w>
E ur
Dem ographics</w>
ei j
dev il</w>
de fic
har m</w>
sing ing</w>
d ust</w>
contro ls</w>
uni versities</w>
ul ated</w>
w are
her e
Are a</w>
bel ong
pra yer</w>
o tic</w>
Protec tion</w>
symbo l</w>
Su preme</w>
sha dow</w>
Flori da</w>
Catho lic</w>
adequ ate</w>
- Fi</w>
read s</w>
Li brary</w>
el and</w>
Jus tice</w>
G old</w>
go d</w>
C P
fin ds</w>
enc ing</w>
emer ging</w>
cont ain
Me dia</w>
Ac tion</w>
t all</w>
ri sh</w>
Pr ague</w>
r ating</w>
dis appeared</w>
H ong</w>
p .
innov ation</w>
to x
see king</w>
m in</w>
bro wn</w>
may or</w>
drin ks</w>
adverti sing</w>
S an
R oc
pi pel
fic ations</w>
2 4.
lay er</w>
experi ences</w>
municip ality</w>
in ity</w>
ul ous</w>
reason able</w>
il es</w>
con stantly</w>
Sm ith</w>
M ov
om m
gra b</w>
S A</w>
Mi ke</w>
Ar ti
p ure</w>
communic ations</w>
tra in
o k</w>
Bo x</w>
wat er
4 0
c us</w>
trans lation</w>
mon itor</w>
intellec tual</w>
wat ers</w>
gh o
ci a</w>
wat ched</w>
u d</w>
tou rism</w>
k is
gu ards</w>
cont acts</w>
sy mp
prison ers</w>
mak ers</w>
liter ature</w>
g ers</w>
ex plan
contrac ts</w>
sen s
p d
P D
g et
ful l-
ame ters</w>
2 6.
slow ly</w>
on el</w>
Pri v
H av
t um
N ur
on e
appro val</w>
M ir
H ad</w>
W el
K ong</w>
k iss</w>
custo dy</w>
r ant</w>
5 ,
hor ses</w>
er o</w>
categ ories</w>
per mission</w>
er ship</w>
r ab
bur ning</w>
bu b
J ac
strength ening</w>
min ing</w>
in ary</w>
sp her
politici ans</w>
consider ing</w>
de als</w>
Or thodox</w>
C ross</w>
197 7</w>
f an</w>
E D
pl enty</w>
Def ense</w>
produc tive</w>
t emp
kid n
blo g</w>
statis tics</w>
dic t
F ig
en orm
techno logical</w>
ty pical</w>
tion ed</w>
ri d
mot or
fac ed</w>
6 3</w>
per spective</w>
2 50</w>
a por
hol der</w>
den sity</w>
clou ds</w>
pl em
E N</w>
obj ectives</w>
care ful</w>
assi st</w>
appreci ate</w>
3 8
p en</w>
c ut
ap pl
ter race</w>
op pon
Re port</w>
k ick</w>
industri es</w>
dem an
Sci ences</w>
W ater</w>
v ous</w>
st ones</w>
dr unk</w>
Mon day</w>
G as</w>
v ital</w>
Ser ge
ste al</w>
produc ers</w>
ge on</w>
beli ef</w>
at us</w>
R et
C li
es cap
dec re
n am</w>
in sp
fl ash</w>
j ury</w>
w an</w>
multi -
Cul ture</w>
1 6.
ul ties</w>
ren ess</w>
human ity</w>
du m</w>
brow ser</w>
the dr
jac ket</w>
acc used</w>
Swe dish</w>
journ alists</w>
b ited</w>
collap se</w>
ac cid
legis l
Wi -Fi</w>
vac ation</w>
def end</w>
complic ated</w>
Val ley</w>
R est
Angel es</w>
Ki ev</w>
produc ing</w>
Sh ar
rap idly</w>
as signed</w>
A K
6 1</w>
Th ough</w>
H an
relation ships</w>
innov ative</w>
hur ry</w>
fe e</w>
ati tude</w>
Th ink</w>
Ham as</w>
Go ing</w>
in k
19 th</w>
ti ed</w>
l augh
C ho
9 8</w>
M M
wor thy</w>
bran ches</w>
F F</w>
war ning</w>
din ing</w>
dist ur
coll ected</w>
Sou thern</w>
g ang</w>
194 5</w>
bu ff
Jo e</w>
C all</w>
hard ware</w>
exp and</w>
compon ent</w>
F ine</w>
part ments</w>
am ent</w>
6 2</w>
requ ested</w>
To ky
O oh</w>
ph arm
i ed</w>
Kore an</w>
C ir
p a</w>
stud ying</w>
res ent
han ded</w>
gl ory</w>
cl ing</w>
pro te
los ses</w>
disc over</w>
G ab
क ी</w>
Hung ary</w>
H .</w>
2 2.
tu rer</w>
U C
M ake</w>
specific ally</w>
P la
sal t</w>
ov en</w>
occupi ed</w>
N ote</w>
tom s</w>
dis played</w>
care fully</w>
bo t</w>
under ground</w>
zz a</w>
surve illance</w>
स े</w>
correspon ding</w>
Pr inc
Portu gal</w>
sac rif
consci ous</w>
sent ence</w>
n in
attrac tive</w>
N um
Lin ux</w>
comp ati
b ayev</w>
H ey</w>
ne u
hal f-
bel ongs</w>
F ire</w>
pl easant</w>
ex pos
de but</w>
clo sing</w>
M as
Govern or</w>
ac tors</w>
O il</w>
Invest ment</w>
e uro</w>
un d</w>
G etting</w>
touri st</w>
dro ve</w>
dition ally</w>
certific ate</w>
ar gu
Pl an</w>
197 8</w>
g ay</w>
exp ect
authori zed</w>
pp y</w>
g -
op ens</w>
hol es</w>
E specially</w>
r ay</w>
l o</w>
fl esh</w>
bur ned</w>
ben e
D ub
sin s</w>
ei ved</w>
coun cil</w>
B .
consider able</w>
R ose</w>
Com pu
1 ,000</w>
organis ations</w>
6 7</w>
st ressed</w>
d ent</w>
Ad am</w>
mon etary</w>
unic ations</w>
th east</w>
mus ical</w>
Ta i
c H
tim ately</w>
f li
E l</w>
li o</w>
mechan isms</w>
cont aining</w>
D e</w>
Ar ts</w>
te dly</w>
develop ments</w>
uni versal</w>
st om</w>
passeng ers</w>
ar ts</w>
vi an</w>
v a
pd f</w>
US D</w>
priv il
liter ally</w>
ag u
S et
L L
v in
um in
sto res</w>
st a
oblig ations</w>
deep ly</w>
A tt
out standing</w>
ex it</w>
i x</w>
bl ame</w>
tu b</w>
B en</w>
ser ves</w>
pe l</w>
Net work</w>
per or</w>
b are
techni ques</w>
fe eding</w>
encour age</w>
sho ck</w>
dec reas
Th ird</w>
Ag ent</w>
un to</w>
ain ts</w>
N atur
F C</w>
was h</w>
Gir ls</w>
8 1</w>
gr ace</w>
char t</w>
schedul ed</w>
poin ted</w>
organis ation</w>
Toky o</w>
Manag er</w>
D C</w>
fing er</w>
c m</w>
B loo
In tel</w>
wa ves</w>
ra pid</w>
less ons</w>
No .</w>
end ar</w>
consist ent</w>
ES CO</w>
pr ay</w>
ou red</w>
inv est</w>
Vi enna</w>
construc ted</w>
com pos
S t</w>
exclu sive</w>
appoin tment</w>
W all</w>
l ot
im m
P etro
17 .
dis k</w>
IM F</w>
dep uty</w>
consum ers</w>
trans actions</w>
ti ght</w>
S S</w>
pregn ant</w>
s car
dep th</w>
vis iting</w>
in ev
c lic
mom ents</w>
P RO
O .
au t
T ot
suff er</w>
l etting</w>
cha mpionship</w>
T en
G .</w>
с т
viol ent</w>
ussi ons</w>
sensi tive</w>
ra ising</w>
moder ni
champi on</w>
af ford</w>
gr ant</w>
197 6</w>
196 9</w>
en ever</w>
alcoho l</w>
k h
exten sive</w>
a sion</w>
au dio</w>
ac les</w>
ti le</w>
prin ted</w>
C la
ha dn</w>
Lan gu
In clu
public ation</w>
conveni ent</w>
Ch ech
Can a
B eij
str a</w>
sett led</w>
clo set</w>
B ut
t ar</w>
n aked</w>
ad ults</w>
9 7</w>
passeng er</w>
amoun ts</w>
nar row</w>
ever th
dis crimin
coll aboration</w>
V eg
T own</w>
S aint</w>
20 .
pro mp
a x</w>
exc ep
enjo ying</w>
201 5-0
ran dom</w>
don e
diplom atic</w>
cour ts</w>
ad ult</w>
B C</w>
al leg
pl u
SC E</w>
D av
al and</w>
g over
Fre e
Atlan tic</w>
ell er</w>
Taj ik
Ser ies</w>
sk aya</w>
phys ics</w>
f ea
everth eless</w>
Be ing</w>
th esis</w>
in dex</w>
t rem
lic op
av a</w>
S ave</w>
F ull</w>
thedr al</w>
s eas
dynam ic</w>
Bulg aria</w>
wh is
pro m</w>
im port</w>
Sec re
M obile</w>
ge -
cover ing</w>
equi valent</w>
6 8</w>
initi atives</w>
co al</w>
B R
dep loy
all ed</w>
g ood
d ens</w>
L .</w>
pal ace</w>
f ted</w>
plan ted</w>
b ound
Off ic
196 7</w>
par liamentary</w>
ast ro
f illing</w>
tou ched</w>
Industri al</w>
mon d</w>
e z</w>
Le ban
jud gment</w>
ent ally</w>
Wor d</w>
2 7.
su icide</w>
roman tic</w>
ju ice</w>
Democ ratic</w>
tur ers</w>
li sts</w>
acc um
volun te
strategi es</w>
ra d
ch annels</w>
medi um</w>
il le</w>
H ell</w>
ि य
serv ers</w>
min al</w>
em e
Pr in
ban ds</w>
surr ounding</w>
re mark
l on
In done
Bo ston</w>
distribu ted</w>
acc es
tol er
pu shed</w>
stom ach</w>
promot ing</w>
in ations</w>
acad emic</w>
Beij ing</w>
awa reness</w>
el ines</w>
sp ar
f ake</w>
sm ile</w>
Sup er</w>
Sh ut</w>
Lithu ania</w>
reduc ing</w>
a ster</w>
r ou
de par
Wh e
spr ing
gather ed</w>
ro ot</w>
re ti
gi e</w>
ear n</w>
cha irman</w>
Jose ph</w>
Bud d
enter ing</w>
Li st</w>
in form</w>
Mo der
rec ru
n avi
pas ses</w>
P A</w>
i red</w>
bit r
accomp li
knowle d
ini ans</w>
Cam bridge</w>
sig ning</w>
k l
ex ports</w>
c tic</w>
sol ved</w>
instrum ent</w>
197 5</w>
or -
no where</w>
ll er</w>
ed itor</w>
J .
par ameters</w>
vir tual</w>
f lows</w>
attemp ts</w>
Me eting</w>
197 1</w>
resp ectively</w>
m ouse</w>
d enti
C ent
r ats</w>
A l</w>
quali fied</w>
in s
S ure</w>
A th
paragra ph</w>
m ation</w>
tre as
rol ling</w>
lic ation</w>
invol vement</w>
Tajik istan</w>
T O
conclu ded</w>
Olymp ics</w>
pl ates</w>
l ec
ab sor
A h
th ful</w>
8 3</w>
re aching</w>
bur y</w>
adi um</w>
disa ster</w>
hon ey</w>
cour age</w>
S ever
Ch an
ne ed
cam p
che ese</w>
tren d</w>
answer ed</w>
Ini ti
Ch ris</w>
sear ching</w>
princip al</w>
Origin al</w>
T .
Bo b</w>
cl ubs</w>
cap ture</w>
refl ect</w>
9 3</w>
e a</w>
C lin
u k</w>
legi timate</w>
inv ite</w>
du ties</w>
Bre ak
depend ence</w>
comm un
Sy st
for got</w>
8 8</w>
sw it
por tra
indic ate</w>
Rev olution</w>
Pal om
tren ds</w>
str ing</w>
loc ations</w>
l ity</w>
al arm</w>
. org</w>
ver i
top ic</w>
oper ative</w>
lo y</w>
be ings</w>
w ound</w>
spo t
less on</w>
j am
eng age</w>
en suring</w>
st al
O SCE</w>
sp a</w>
pres sing</w>
ligh ting</w>
reser ve</w>
hor ri
des per
ch ur
arg ument</w>
ch i</w>
assist ant</w>
UN ESCO</w>
r ice</w>
fir ms</w>
D O
C lo
A M</w>
te en
Kar ab
t ories</w>
sp ite</w>
nov el</w>
l an</w>
W as</w>
Cauca sus</w>
ten nis</w>
s cript</w>
cre ates</w>
18 .
re ver
over come</w>
enter tainment</w>
def ine</w>
arrang ed</w>
Un der
K .</w>
s word</w>
out door</w>
N ight</w>
Mar ket</w>
D ra
att end</w>
Program me</w>
philosoph y</w>
regul arly</w>
mar ry</w>
character istics</w>
ban k
D ig
Buil ding</w>
fing ers</w>
ad ding</w>
Kyrgy z
D utch</w>
mov ements</w>
fav our
d ancing</w>
bre ath</w>
Sp ea
Indu stry</w>
C IA</w>
radi ation</w>
enorm ous</w>
busin ess
Comm unity</w>
pre vention</w>
propos als</w>
C C</w>
Administr ation</w>
pi ano</w>
ak e
B ar</w>
on going</w>
Ze aland</w>
7 7</w>
struc k</w>
norm ally</w>
ly wood</w>
connec tions</w>
En gine
thro wn</w>
mis s
par liament</w>
human itarian</w>
str ang
post .com</w>
neu tr
ev olution</w>
col umn</w>
M S</w>
J am
lob by</w>
exp enses</w>
1 000</w>
pri est</w>
l ers</w>
absol ute</w>
T it
tar gets</w>
sub -
i us</w>
ca using</w>
indic ated</w>
sur vey</w>
far mers</w>
dest ination</w>
defe at</w>
6 9</w>
ti se</w>
def ence</w>
hibi tions</w>
conc ep
St ri
197 2</w>
ep er</w>
St eph
patter ns</w>
as leep</w>
S ud
Argent ina</w>
rep utation</w>
att ached</w>
appro aches</w>
Treat y</w>
su peri
descri be</w>
Is lander</w>
Gu ys</w>
n ish</w>
N .</w>
shor t-
her o
St one</w>
P as
be gun</w>
threat ened</w>
Den mark</w>
frequ ently</w>
an gry</w>
p it</w>
ob st
ef s</w>
ol dest</w>
direc tions</w>
T ry</w>
Ph il
con y</w>
v est</w>
min ent</w>
l as
Ed ward</w>
w ill
prepar ing</w>
ch r
su ite</w>
ev an</w>
me al</w>
bel t</w>
in habit
im g.
gi c</w>
con fron
at om
h all
K am
y p
ogra phic</w>
img. game
img.game post.com</w>
resp ective</w>
fe ed
dist ingu
lux ury</w>
min ds</w>
M en
bor ro
h ire</w>
e tr
d ressed</w>
b al</w>
D or
A m</w>
purcha sed</w>
bo ar
cl oud</w>
cap tured</w>
ab use</w>
Com pl
extra ordinary</w>
b ones</w>
Gar den</w>
y n</w>
smo king</w>
clim b</w>
н и
sugg ests</w>
qu een</w>
Jor dan</w>
Gaz a</w>
hi red</w>
exec ution</w>
elev ator</w>
dev oted</w>
Sim on</w>
Ge h
197 4</w>
emo tional</w>
b la
f ers</w>
accoun ting</w>
U .
Col um
x i
clo thing</w>
who ever</w>
child hood</w>
advant ages</w>
hy po
Det ective</w>
Jack son</w>
In cre
ten ed</w>
sum mit</w>
gy m</w>
resul ted</w>
pi pe</w>
ex trac
C r
sh ine</w>
sam ple</w>
pro tocol</w>
196 8</w>
tane ously</w>
continu ing</w>
competi tions</w>
ac es</w>
k es
avail ability</w>
Comm unist</w>
7 6</w>
profession als</w>
op hy
do zen</w>
ul ations</w>
pu zz
min ist
am n</w>
s oul
cl assic</w>
Si x</w>
K or
n a
govern ance</w>
C ab
jo ining</w>
conflic ts</w>
M other</w>
Est onia</w>
tr ick</w>
re public</w>
diffic ulties</w>
ex pe
th ou</w>
fac tion</w>
add ressed</w>
B at
un employment</w>
d ness</w>
ser t</w>
bene ath</w>
Fig ure</w>
po ker</w>
con dem
19 .
strong ly</w>
gra ss</w>
fol der</w>
bo ards</w>
P ur
ic ul
Sof tware</w>
Par ties</w>
P -
holi days</w>
g olf</w>
establi shing</w>
adv oc
Cana dian</w>
l or</w>
hun ting</w>
e ut
9 4</w>
n t</w>
sub jects</w>
sh r
in si
Ex hibition</w>
syst em
plea sed</w>
pass word</w>
enti ties</w>
P ot
uni or</w>
ox y
is ely</w>
aster y</w>
A wards</w>
touri sts</w>
R ig
episo de</w>
St ay</w>
oper ational</w>
Sau di</w>
Cro ati
Co operation</w>
Am ong</w>
ri ers</w>
revolu tionary</w>
9 1</w>
viol ation</w>
un ited</w>
Palom ar</w>
Happ y</w>
Ox ford</w>
ti li
h -
en gin
d ation</w>
E ither</w>
mo ther
in spired</w>
figu red</w>
n y
Sci enti
ro ots</w>
Scot t</w>
po lit
oper ator</w>
mol ec
b li
L and</w>
inter ior</w>
ter -
implem enting</w>
Viet nam</w>
T able</w>
uni form</w>
inter pre
ex posed</w>
P av
wea k
Ger mans</w>
B O
il and</w>
cruc ial</w>
em an</w>
L am
list ing</w>
out come</w>
occa sion</w>
B A</w>
1 20</w>
-- --
ro cks</w>
pri orities</w>
inter rup
vol umes</w>
uc ks</w>
hea v
compani ed</w>
ag ement</w>
gi ble</w>
gen der</w>
R ead</w>
8 2</w>
0 000</w>
vide os</w>
mem ories</w>
ass et</w>
gradu ate</w>
ea sed</w>
cal m</w>
7 8</w>
fri ger
Ir on</w>
7 4</w>
t ested</w>
enti onal</w>
stit utes</w>
2 8.
wis dom</w>
un usual</w>
di str
b ay</w>
Elec tr
the atre</w>
h ang
be side</w>
assem bly</w>
Ac cess</w>
termin al</w>
lin e-
E T
7 1</w>
auth or
Belgi um</w>
3 D</w>
wh ol
symp toms</w>
s ought</w>
nut ri
h oriz
all ing</w>
qu et</w>
2 1.
h ome
end it
c ure</w>
Mo on</w>
re ha
decre ase</w>
s p</w>
plac ing</w>
autom atic</w>
Jour nal</w>
H out
pain ted</w>
impres sion</w>
Eur a
A sh
ini a</w>
Pe ace</w>
tic ism</w>
sp are</w>
pic ally</w>
pi g</w>
ph ra
cre ature</w>
Pre sid
D ol
D A</w>
vulner able</w>
co ck
new ly</w>
for gotten</w>
- You</w>
tr y
mon o
g lo
am end
J ones</w>
G B</w>
r ings</w>
en ev
war s</w>
mis sion
St eve</w>
K on
vot es</w>
pro j
7 3</w>
z ations</w>
st ake</w>
Dar k</w>
DL L</w>
gal ax
a side</w>
S ig
pl ain</w>
man n</w>
thro at</w>
M ass
Hout en</w>
rest ore</w>
Bal tic</w>
Ma x</w>
lin ing</w>
dis pos
re gre
ear ned</w>
deleg ation</w>
de tention</w>
clo se
8 9</w>
perform ing</w>
tis m</w>
practic ally</w>
oper ators</w>
R evi
car go</w>
H .
cu ts</w>
cat alo
Y o
c ry</w>
v es
e tion</w>
di shes</w>
ac companied</w>
u de</w>
schem e</w>
config uration</w>
ad ed</w>
S ea
loo se</w>
Gu ess</w>
ru bles</w>
il a</w>
contem porary</w>
crit eria</w>
bu ll
accep table</w>
st ard</w>
wi shes</w>
R ay</w>
औ र</w>
particip ating</w>
p ec
de t
achiev ements</w>
tec h</w>
u l</w>
Gro enev
C old</w>
res cue</w>
be dro
T P</w>
Is lands</w>
Egy p
um b
speci alized</w>
o id</w>
o cide</w>
migr ants</w>
manag ers</w>
i P
cal endar</w>
D un
P ope</w>
Groenev eld</w>
r at</w>
N ext</w>
Geh rels</w>
8 7</w>
ten- Groeneveld</w>
su dden</w>
shar p</w>
el der
N S</w>
Hou ten-Groeneveld</w>
cha pter</w>
ap h
W a
dr yer</w>
s m</w>
r ick</w>
Pro tocol</w>
b in</w>
tun nel</w>
shoul der</w>
gra in</w>
confir m</w>
S D</w>
ti er</w>
ga p</w>
evalu ation</w>
St ra
Lt d</w>
Hol lywood</w>
199 0s</w>
ti me
foot age</w>
f lights</w>
d ence</w>
E arly</w>
woo den</w>
spring 96.
spring96. org</w>
sub mit</w>
eri al</w>
W at
Ir anian</w>
secre ts</w>
lan ding</w>
wal ks</w>
tr unk</w>
prosp ects</w>
j a
en abled</w>
requ ests</w>
pro gres
ha i</w>
V is
el ly</w>
cou ch</w>
Lou is</w>
ov ed</w>
exc iting</w>
K os
exper tise</w>
M E</w>
exten sion</w>
c kets</w>
Kyrgyz stan</w>
97 8-
v acc
alle l</w>
air e</w>
in n</w>
es sive</w>
f at
explo sion</w>
rem ind</w>
own ership</w>
logi c</w>
k ins</w>
cir cu
. gif</w>
ter ia</w>
coun ts</w>
Direc tors</w>
per cent
treat y</w>
psycho logical</w>
K ri
E V
bat tery</w>
th ouse</w>
p ink</w>
bare ly</w>
De sign</w>
organ ic</w>
program ming</w>
mat ches</w>
clin ic</w>
logi sts</w>
ab o
Y outh</w>
Gu y</w>
tr age
re tail</w>
pos sibilities</w>
E ver</w>
n i</w>
in put</w>
dist inc
o be
d u</w>
D anny</w>
sha me</w>
inf ection</w>
friend ship</w>
S c
Ho sp
B ring</w>
exer c
K rem
substan tial</w>
ner vous</w>
is lands</w>
inc enti
head quarters</w>
c lea
ci ous</w>
M ain</w>
D er
govern or</w>
bri ef</w>
ic y
N ag
indic ators</w>
experim ent</w>
produc tivity</w>
mani pul
.S .
frequ ency</w>
cu ri
Al bu
gent le</w>
gener ations</w>
fun eral</w>
Stu dies</w>
ri an</w>
reven ue</w>
forec ast</w>
do w
D an
App aren
wh enever</w>
ori ous</w>
disc ussions</w>
al lies</w>
1 1-
or ange</w>
et -
So on</w>
E p
S H
inhabit ants</w>
Tech nical</w>
H z</w>
F .</w>
ad mitted</w>
screen shots</w>
Franc isco</w>
5 ,000</w>
exc eption</w>
enh ance</w>
Armen i
2. 5</w>
8 4</w>
T at
I rish</w>
protec ting</w>
Apparen tly</w>
b age</w>
Wi th
S et</w>
Ph ys
Bri dge</w>
vi e
el le</w>
Pat ri
Nav y</w>
tra pped</w>
tra ditions</w>
institu tional</w>
gro ws</w>
Gre en
4 th</w>
i ding</w>
con grat
Saf ety</w>
engin es</w>
disc overy</w>
fle et</w>
Pri ze</w>
ti tles</w>
peti tion</w>
invol ving</w>
sil ence</w>
load ing</w>
Th rough</w>
Hel sin
tor ture</w>
manufac turers</w>
dra w
Compu ter</w>
Agr icul
2 3
um -
rec k
e ge</w>
T an
organi ze</w>
lo s</w>
adop tion</w>
St or
ware house</w>
thro wing</w>
or ph
laun dry</w>
Rep resent
R ail
tra il</w>
dri vers</w>
integr ity</w>
ear th
e ks</w>
techni que</w>
in corpor
Sh er
tri gger</w>
sem i-
mach in
Sar ah</w>
S he
ga ther</w>
bi ological</w>
3 60</w>
wor ker</w>
trans mission</w>
t elec
m ar</w>
he licop
exp endit
T on
st ops</w>
mur der
citiz en</w>
D ate</w>
a wards</w>
Bud ap
re fin
inf ected</w>
chec king</w>
Karab akh</w>
Helsin ki</w>
v or</w>
ro ws</w>
it i</w>
fil ter</w>
val id</w>
th m</w>
re turning</w>
oper ated</w>
l ord</w>
imp lic
h o</w>
gener ated</w>
ec o
att orney</w>
vi sual</w>
rela x</w>
ran ean</w>
peri al</w>
col on
pres ents</w>
go ds</w>
fle w</w>
as es</w>
du de</w>
lic en
j i
dir t</w>
Musli ms</w>
A z
prec isely</w>
min or</w>
illu str
m 2</w>
cab in</w>
in di
Sw iss</w>
Di vision</w>
Al l
necess arily</w>
n an
fu sion</w>
boo t</w>
sh i</w>
occur s</w>
f ting</w>
eri ff</w>
le an
es tion</w>
N AS
Con si
mea su
gen u
in form
el ite</w>
P age</w>
quot e</w>
al ties</w>
L ater</w>
up stairs</w>
ri st</w>
Ru n</w>
E ric</w>
stab ili
si e</w>
pos ted</w>
where as</w>
regul atory</w>
per mit</w>
condition ing</w>
C R
s s
communic ate</w>
mist akes</w>
Am bassador</w>
t ari
se where</w>
jo ke</w>
confid ent</w>
vill ages</w>
cros sing</w>
N ig
nea rest</w>
l es
inter action</w>
B IS</w>
194 4</w>
se as</w>
perio ds</w>
An im
ov sky</w>
life time</w>
D al
sh ell</w>
sav ings</w>
g ence</w>
w ling</w>
mi gh
broad cast</w>
har mon
har m
ex ha
S E</w>
Su ite</w>
aw esome</w>
Com mer
bl u
M s.</w>
e go</w>
dam aged</w>
aut umn</w>
S ul
K ra
restric tions</w>
celebr ate</w>
Ch ange</w>
godd amn</w>
fi sh
remark able</w>
k an</w>
Ma c</w>
Fo ot
ti p</w>
coo king</w>
S ab
5 th</w>
cou pon</w>
ca ve</w>
Hal f</w>
fo ster</w>
fil ed</w>
dre w</w>
ab eth</w>
EN T</w>
p um
gra phic</w>
Is su
Com man
tor ate</w>
shor t
initi ally</w>
z ard</w>
ur a</w>
th ick</w>
s lo
en tic
up set</w>
ing rad</w>
En d</w>
10 ,000</w>
m its</w>
g allery</w>
U p
In tro
po is
exam ination</w>
S U
rul ing</w>
gradu ally</w>
electr ical</w>
P ra
acces sible</w>
secre tary</w>
mo bili
dep end</w>
break s</w>
territ ories</w>
An na</w>
ali en</w>
M ess
fol ks</w>
apor e</w>
L au
gi ous</w>
enjo yed</w>
sec tions</w>
expl ains</w>
di os</w>
col our</w>
Rom ania</w>
Mon t
Budap est</w>
Bet ween</w>
hop es</w>
Tur n</w>
In c</w>
Con nec
A dd
mar ine</w>
exc ited</w>
di et</w>
ast y</w>
soci eties</w>
p ers</w>
b or</w>
prec ed
manag ing</w>
ack er</w>
Vic t
F OR</w>
Con tin
B la
occup ation</w>
fa st
ca sting</w>
Phili pp
O therwise</w>
tal ent</w>
im ing</w>
di um</w>
con qu
or al</w>
Tha iland</w>
St al
paren t</w>
gen ous</w>
addres ses</w>
tru sted</w>
fing er
bu st</w>
193 9</w>
tiv eness</w>
struc tural</w>
ry p
p lot</w>
p ig
demonstr ated</w>
dea ths</w>
ch -
V ol</w>
pos session</w>
cho ices</w>
I -
2. 0</w>
we igh
dec k</w>
T ony</w>
M en</w>
re turns</w>
pen sion</w>
med al</w>
Du de</w>
pre ad</w>
L E</w>
pro test</w>
W ed
z e
mat h</w>
magne tic</w>
gene tic</w>
em en</w>
arrang ements</w>
Yer evan</w>
soldi er</w>
bur den</w>
albu ms</w>
Sing apore</w>
M aria</w>
6 ,
S pe
un likely</w>
bedro oms</w>
back up</w>
K er
Bl ack
wi reless</w>
v o</w>
j er
ed ings</w>
Gr and
Flo or</w>
viol ations</w>
manufac turer</w>
f ool</w>
eut enant</w>
cover age</w>
at tract</w>
Sup port</w>
Hist or
H it
क ा
tow ns</w>
B ru
0 1
s si
inten tion</w>
ate ful</w>
Pro c
ve ter
f ed</w>
ch er
vot ing</w>
Un fortunately</w>
preci ous</w>
n om
Gen eva</w>
tw enty</w>
p etro
oun ge</w>
lea gue</w>
R .
с к
wor e</w>
vis a</w>
swi m</w>
re b
m ask</w>
S at
sle pt</w>
in ch</w>
flo ors</w>
dra g</w>
Stu dio</w>
Cen sus</w>
elec tro
coll abor
Th ur
pi zza</w>
ne ath</w>
ev al</w>
Wor king</w>
N .
L E
se -
mon ster</w>
e h</w>
X -
Cur ren
m l
L e</w>
hand ling</w>
ext end</w>
y l</w>
tr il
ent y-
S end</w>
Ar th
scen ario</w>
c on</w>
C el
us age</w>
newspap ers</w>
foun der</w>
ton gue</w>
pipel ine</w>
ne st</w>
law yers</w>
expan ded</w>
divor ce</w>
terrori sts</w>
lea ther</w>
F ace
tu m</w>
pr ic
pas sion</w>
fri dge</w>
com position</w>
ar d
Offic er</w>
6 0
st eam</w>
repe at</w>
Med iter
wa shing</w>
eg g</w>
depos its</w>
bab ies</w>
ul timately</w>
b ond</w>
Re al</w>
ren der</w>
ov ich</w>
expect ations</w>
cr ying</w>
........ ........
ho sti
D r</w>
Ale x</w>
se ed</w>
s q
phenom en
ali tion</w>
Indone sia</w>
CO N
tt e</w>
b id</w>
tis sue</w>
asp ect</w>
2 9.
h ey</w>
su rely</w>
stat e-
ori ented</w>
cros sed</w>
she ep</w>
f lies</w>
O d
tax i</w>
sil ent</w>
adi se</w>
S lov
FF FF</w>
7 9</w>
व ा
percent age</w>
inter vention</w>
el eg
J im
Christi ans</w>
qu it</w>
cu stom</w>
Po st</w>
A vi
estim ate</w>
s oup</w>
om ing</w>
S em
20 -
2 4-
tra sh</w>
To wer</w>
vir tu
rol led</w>
e ternal</w>
Stand ard</w>
Res er
great ly</w>
cat s</w>
ar bitr
u a</w>
tr ace</w>
promis ing</w>
mil it
h its</w>
guid ance</w>
L ong</w>
Bl u
1 2-
ri ses</w>
refl ected</w>
K h
Off icial</w>
Hon or</w>
Win ter</w>
par allel</w>
el sewhere</w>
F ul
thu si
mathematic s</w>
applic ant</w>
00 ,000</w>
s our
b ye</w>
f a</w>
employ ee</w>
cap abilities</w>
amoun ted</w>
Sel ect</w>
Boo ks</w>
7 00</w>
Z i
Pl at
gri d</w>
con sent</w>
be an</w>
To o</w>
sequ ence</w>
reser vation</w>
athlet es</w>
T ay
Pro vi
G allery</w>
puni shment</w>
sup er</w>
ophy ll
del ay</w>
s essions</w>
St art</w>
Exp lo
refu se</w>
mot or</w>
expos ure</w>
Krem lin</w>
H and
scho ol
cha irs</w>
ag anda</w>
h in
err ors</w>
elec toral</w>
assum ed</w>
IR BIS</w>
ket ball</w>
g ori
engine er</w>
Med ical</w>
May be</w>
resid ential</w>
ha il</w>
feat ured</w>
at tribu
impres sive</w>
ed a</w>
W ay</w>
Priv ate</w>
war ms</w>
po w
incredi ble</w>
boo king</w>
3 0.
val ley</w>
shel ter</w>
sanc tions</w>
dis gu
reg im
F .
p in</w>
correc tly</w>
St at
wid th</w>
ro t
D ist
t one</w>
six th</w>
comp ete</w>
With out</w>
196 1</w>
refuge es</w>
ome ters</w>
ac u
Austr alian</w>
sho e</w>
econom ics</w>
under neath</w>
s ni
liqu id</w>
ani um</w>
W W
ha ir
sp el</w>
s ink</w>
al liance</w>
re construction</w>
V in
ul timate</w>
resol ve</w>
rad ical</w>
pro hi
ick y</w>
ber y</w>
R yan</w>
un d
sc ra
on ics</w>
anti cip
N ame</w>
Enter pri
t est
sacrif ice</w>
op her</w>
ati vity</w>
B attle</w>
v ali
pl ed</w>
inter pret
au g
Wor k</w>
gener ate</w>
equ ity</w>
soul s</w>
our ing</w>
ectiv eness</w>
Do esn</w>
C ut</w>
व ि
func tional</w>
explan ation</w>
N ever</w>
sol o</w>
it ations</w>
pri de</w>
op timi
vis its</w>
In side</w>
speci fy</w>
equ ally</w>
en thusi
CE O</w>
V ill
Mediter ranean</w>
du le</w>
F ar</w>
survi ved</w>
pul ling</w>
p ile</w>
cont ents</w>
Maj or</w>
Col om
Arth ur</w>
b oun
Al lah</w>
on ian</w>
ton om
it -
fair ly</w>
Leban on</w>
ten s</w>
subsequ ent</w>
exist ed</w>
W est
E mer
t ears</w>
inv ent
ac knowled
Wil liam
Do wn
in spir
br illi
V e
sli de</w>
re stored</w>
pa irs</w>
accur ate</w>
ro l</w>
ph y
ma ster
cr ack</w>
Scot land</w>
ous in</w>
on ym
j i</w>
in al</w>
sc ul
Rep ubli
Fi eld</w>
p her</w>
end or
Wi thin</w>
S T</w>
pat ri
C o</w>
t less</w>
ophyll um</w>
dri ves</w>
S lo
Ju li
Fl ash</w>
it z</w>
concentr ation</w>
T ac
D S</w>
rel atives</w>
every day</w>
applic able</w>
In tegr
D ead</w>
C ru
el ve</w>
che stra</w>
L oo
the e</w>
photograph s</w>
her itage</w>
Tot al</w>
B ot
lands cape</w>
prin ting</w>
facilit ate</w>
f ence</w>
conv ince</w>
a sts</w>
B ang
U L
Si ber
S ports</w>
I g
E u
re ar</w>
feat uring</w>
coordin ation</w>
w age</w>
sk ir
satis fied</w>
o g
Syst ems</w>
Al liance</w>
ten sion</w>
re fer</w>
journ alist</w>
func tioning</w>
f old</w>
F ord</w>
c king</w>
a ims</w>
v in</w>
th a</w>
ter ror</w>
psy ch
ist a</w>
ci gare
c ub
Y ou
Eli z
р а
regar dless</w>
myster y</w>
cor n</w>
ang es</w>
c age</w>
au tonom
Fi f
U -
Naz ar
K at
196 5</w>
sk a</w>
r ush</w>
pos ts</w>
down town</w>
be ars</w>
m p</w>
k ings</w>
for tune</w>
ac id</w>
Vir g
represent ing</w>
trans action</w>
gentlem en</w>
wor n</w>
com posed</w>
ty pically</w>
contribu tions</w>
cir cles</w>
chi p</w>
H and</w>
w all
d ll</w>
T M
Gr ace</w>
super vis
e i</w>
ed -
civili an</w>
bo ats</w>
Le on
Bul b
promis es</w>
it er</w>
d ne
comm it</w>
assa ult</w>
Be li
क र
ee ds</w>
Veg as</w>
ong side</w>
inj ury</w>
har der</w>
Bulb ophyllum</w>
sett le</w>
it y-
wel fare</w>
rec all</w>
chi ps</w>
app le</w>
Fin al</w>
Am az
liber al</w>
k ies</w>
vot ers</w>
mor tg
leg ally</w>
l y-
d ges</w>
bu re
mi x
li min
inv asion</w>
Dro p</w>
n -
clo sure</w>
ch ances</w>
she ets</w>
Face book</w>
un cle</w>
si m
repres entation</w>
jud icial</w>
feed back</w>
Ch e
t ty</w>
re jected</w>
k icked</w>
Bak u</w>
w ounded</w>
up dated</w>
spo ts</w>
oxy gen</w>
div ine</w>
S earch</w>
On line</w>
p ir
main tained</w>
P P</w>
G am
mon key</w>
be sides</w>
E d</w>
Sy n
Pi er
M A</w>
v is</w>
reli ef</w>
v als</w>
Ven ez
Fore st</w>
B ack
wh el
re nov
nur se</w>
deser ve</w>
compati ble</w>
ali zing</w>
C lose</w>
ne uro
jud ges</w>
Cub a</w>
C E</w>
sid ers</w>
compl ex
Pro per
Jo int</w>
wit nesses</w>
ess a</w>
Pl ay</w>
B ob
tu be</w>
ju ris
g ates</w>
Turk men
Not es</w>
Al -
sig nature</w>
fu r</w>
Sa id</w>
rel ating</w>
def end
b at</w>
ar y-
adv enture</w>
Cy pr
Ar chi
nu ts</w>
lig ence</w>
n av
at tered</w>
No thing</w>
v ice</w>
s day</w>
com ment</w>
T am
Har v
gr ab
direc tory</w>
N on-
v ations</w>
u ps</w>
p eak</w>
Maj esty</w>
K im</w>
Gu ide</w>
क ा</w>
statis tical</w>
sha ped</w>
n ya</w>
eff ectiveness</w>
dec ent</w>
semin ar</w>
mak er</w>
k ar
auth ors</w>
H P</w>
p ills</w>
gi es</w>
ce iling</w>
Col onel</w>
there by</w>
op posed</w>
U G
D ear</w>
196 4</w>
sa una</w>
ro t</w>
li ke
r oughly</w>
ill ness</w>
ar gue</w>
K om
sel s</w>
en sion</w>
co s</w>
A ge</w>
stric ts</w>
N at
targ eted</w>
Re li
y ang</w>
u li
signific ance</w>
prof its</w>
photogra ph</w>
dialo g</w>
compens ation</w>
Any thing</w>
so c
s crip
or able</w>
im posed</w>
ess ories</w>
campa ig
F ro
main taining</w>
des cen
For get</w>
remem bered</w>
docum entation</w>
Gul f</w>
separ ated</w>
Virg inia</w>
Cypr us</w>
pur sue</w>
op hi
D -
15 -
pen etr
natur ally</w>
eme tery</w>
Th ings</w>
Bro ad
&apos; S</w>
the ore
spea ks</w>
person ality</w>
inv ented</w>
B ill
sc an
indic ates</w>
hi p</w>
municip al</w>
la p</w>
i shed</w>
chur ches</w>
br a</w>
John son</w>
develop ers</w>
Break fast</w>
la v
comm only</w>
Sh all</w>
J im</w>
AT ION</w>
war ming</w>
9 ,
th west</w>
cre atures</w>
pic king</w>
exec uted</w>
emo tions</w>
bo wl</w>
p up
Wh ich</w>
Sh ang
Min isters</w>
Mar k
IS O</w>
D an</w>
survi val</w>
ic als</w>
resear chers</w>
o is</w>
lic ate</w>
invol ve</w>
D y
pen is</w>
b and
Lu x
EN T
ag a</w>
Ira q
transl ated</w>
simul taneously</w>
migh ty</w>
Produc tion</w>
si gh
inter ven
enti ty</w>
C os
p m</w>
neighb or</w>
hel p
c ook</w>
ak en</w>
fe es</w>
f an
cul tures</w>
Republi can</w>
rec re
mat ure</w>
E T</w>
196 6</w>
h ook</w>
ent -
en ables</w>
br on
Tai wan</w>
Me an
vil i</w>
un comfortable</w>
in sist
pro ven</w>
initi ated</w>
ess ence</w>
Sen ate</w>
embar ras
cH FF
aw ful</w>
Hosp ital</w>
su its</w>
sist ers</w>
pp ers</w>
org ans</w>
l ately</w>
h ei
comm ander</w>
Andre w</w>
v on</w>
om et
cul tiv
cu is
bal cony</w>
ta il
limin ary</w>
vi br
m ere</w>
i o</w>
er ity</w>
P ort</w>
ar ch</w>
Jan e</w>
Clar k</w>
gre en
S ite</w>
194 1</w>
reven ues</w>
a qu
prison er</w>
at o
succ eeded</w>
n ick
mass age</w>
hi st
S ection</w>
oper a</w>
ep id
For ces</w>
le dge</w>
deli ber
certain ty</w>
Mar s</w>
Arab ia</w>
regar ded</w>
li ers</w>
expl ore</w>
C L
si on-
exp ense</w>
deep er</w>
pres ti
jum ped</w>
ig nor
ex hibitions</w>
Langu age</w>
Du ke</w>
s au
m ates</w>
Trans port</w>
S ame</w>
K yi
H ay
ow ns</w>
Gu ar
me ets</w>
inv itation</w>
id en
gen e</w>
Bi shop</w>
labor atory</w>
l aying</w>
desig ner</w>
aw a</w>
J on
rul ed</w>
promot ed</w>
mis es</w>
k ing
el ine</w>
po ison</w>
inju red</w>
C are
sam ples</w>
defic it</w>
H il
struc turing</w>
sp ell</w>
h et
flo ating</w>
com a</w>
conv entional</w>
boo st</w>
Sever al</w>
Al b
ri x</w>
ell ation</w>
righ te
Moder n</w>
pre ten
power ed</w>
id es</w>
four -
cor rid
Tu es
Ex press</w>
f itness</w>
e- -</w>
Rem ix</w>
Fin nish</w>
E qui
schol ar
jum ping</w>
gr ay</w>
earth qu
cent res</w>
c .</w>
R ap
E UR</w>
reve al</w>
mur ders</w>
Eliz abeth</w>
vir tually</w>
ir a</w>
cam ps</w>
Oc ean</w>
F our
S in
.j pg</w>
some what</w>
mu d</w>
b ag
Enter tainment</w>
D ouble</w>
well- known</w>
re y</w>
al located</w>
ti gh
shi pping</w>
l v
az z</w>
ak a</w>
The atre</w>
B y
19 50</w>
do or
ag er</w>
Os se
Co ast</w>
A F
au to
in spec
exc use</w>
l ing
d uration</w>
bu g</w>
S even</w>
Natur al</w>
Pri dne
G .
continu ous</w>
ati on-
Sy m
urg ent</w>
sac red</w>
necess ity</w>
f et
detec tion</w>
cu p
Pl ant</w>
Chil d</w>
Ar ctic</w>
t us</w>
rac ing</w>
co des</w>
O k
st ays</w>
kil ometers</w>
fant astic</w>
compl etion</w>
circul ation</w>
R on
Mil itary</w>
ro pe</w>
over whel
Venez u
194 2</w>
shor tly</w>
publi shing</w>
ca p</w>
Pridne stro
z y
per su
mini stry</w>
loc ks</w>
invest ed</w>
con sen
C S
sup pl
ang el</w>
Steph en</w>
C in
ta b</w>
coun try
S ky
Par ti
priv acy</w>
ev es</w>
Hav en</w>
z ones</w>
ung le</w>
i Phone</w>
al ongside</w>
s --</w>
par am
ma il
j unc
ther mal</w>
hea ven
dis cre
c rac
acqu ain
ace u
polit an</w>
J as
repe ated</w>
is tic
fi a</w>
V .
Num ber</w>
G il
क ो</w>
rat ings</w>
port fo
ou l</w>
li ps</w>
arti f
Fol low</w>
A dri
dea d
bo ots</w>
bl in
un like</w>
pu shing</w>
plan es</w>
p ace</w>
f ancy</w>
adju st
R ules</w>
trans formation</w>
nam ely</w>
Wh it
succ eed</w>
sub scri
ob li
high way</w>
char ity</w>
bal lo
D ue</w>
Hea ven</w>
Any one</w>
tra p</w>
reali zation</w>
manufac tured</w>
gi fts</w>
2 ,000</w>
tran sit</w>
estim ates</w>
constitu tional</w>
H ence</w>
GO s</w>
bas s</w>
tiv ely</w>
pat ch</w>
desi red</w>
coun ting</w>
War saw</w>
Bas ed</w>
196 3</w>
N G
scul p
di stricts</w>
contribu ted</w>
W ol
si l</w>
brilli ant</w>
ag ne</w>
an ity</w>
al ysis</w>
ak ia</w>
def enders</w>
D addy</w>
p ounds</w>
lan ded</w>
contin ent</w>
calcul ated</w>
Pre tty</w>
Ho stel</w>
Al ways</w>
w ich</w>
o e</w>
ass as
S and
Cul tural</w>
Bet ter</w>
Ad d</w>
ch ester</w>
arch y</w>
Ty pe</w>
O JSC</w>
sh a</w>
ori an</w>
R y
te d
pre mises</w>
aff ili
Ge ography</w>
sk ill</w>
func tion
et on</w>
Wor ks</w>
S oc
P ay
о в
Tr ust</w>
Pl ace</w>
Mach ine</w>
St ud
Rest aur
B -
pro minent</w>
legisl ative</w>
fro zen</w>
fi ve-
detec tive</w>
St and</w>
wi des
guarante ed</w>
Engine ering</w>
V ista</w>
Qu e
Bo ys</w>
fore sts</w>
demonstr ate</w>
E ll
m ly</w>
Sil ver</w>
M eg
tech n
public ations</w>
thr one</w>
An ton
ã o</w>
tem por
m o</w>
la sting</w>
ess entially</w>
chec ks</w>
T un
Li b
hy per
194 6</w>
prov in
lar ge-
ch ess</w>
b acks</w>
ari um</w>
S hel
phenomen on</w>
ou ter</w>
gin s</w>
elimin ate</w>
close st</w>
Poli tical</w>
Comman der</w>
1. 2</w>
stu me</w>
ar k</w>
Princ ess</w>
P M</w>
Kyrgy z</w>
lo ving</w>
fun ded</w>
Mul ti
win s</w>
squ ad</w>
sist ant</w>
sc r
lau gh</w>
den ied</w>
T ER
N ar
ten der</w>
inf o</w>
Em peror</w>
od d</w>
mer cy</w>
d ur
M ol
D mit
C ou
7 0
196 2</w>
x y</w>
subsi diary</w>
rout es</w>
i ties</w>
ro yal</w>
oper ates</w>
man ual</w>
fir st-
A venue</w>
V it
B M
work shop</w>
spec tac
ba stard</w>
pol is</w>
V ice</w>
S av
prosp erity</w>
proc e
for give</w>
eng agement</w>
descri bes</w>
b ite</w>
ari ties</w>
Mi ami</w>
cre di
Ac c
preser ve</w>
inter nation
expan ding</w>
d il
US B</w>
N GOs</w>
Em bassy</w>
veget ables</w>
I M</w>
pi e</w>
attemp ted</w>
Sim il
Bri an</w>
X P</w>
Chan nel</w>
si oned</w>
el -
wra pped</w>
on line-
associ ations</w>
lap top</w>
S S
Free dom</w>
trav eling</w>
qu e
li p
ad ays</w>
S om
Moun t</w>
Azerbaij ani</w>
ri e</w>
mpion ships</w>
dis appear</w>
M etro
ot ing</w>
min ority</w>
graph ics</w>
cha mber</w>
Sto ck
Shang hai</w>
R ach
gro ss</w>
bud dy</w>
Cha pter</w>
Cha mber</w>
Al an</w>
bot tles</w>
v enture</w>
mid night</w>
idi ot</w>
W ould</w>
Play er</w>
proce edings</w>
pret end</w>
l oud</w>
k top</w>
br ut
Spr ing</w>
E F
pen alty</w>
aff air</w>
Dam n</w>
it ty</w>
d ney</w>
at or
ि ए</w>
parti al</w>
cuis ine</w>
Si de</w>
discrimin ation</w>
Elec tric</w>
r ank</w>
gra ph</w>
friger ator</w>
di gn
F uck</w>
Br us
ab oli
T en</w>
Dec laration</w>
re verse</w>
dram atic</w>
bra ins</w>
bad ly</w>
Turkmen istan</w>
P sy
sk y
s now
loc ate</w>
ei ve</w>
class ical</w>
as sign
Mad rid</w>
19 40</w>
dist inct</w>
Carol ina</w>
C lear
vi e</w>
Palest inians</w>
Econom y</w>
t ent</w>
man kind</w>
Aut om
guarante es</w>
ch in
Nazar bayev</w>
inten se</w>
hun t</w>
fol k</w>
b ak
al gori
st un
serv ic
re tired</w>
Harv ard</w>
7 ,
met er</w>
compet ent</w>
ri dic
S n
scen es</w>
ra il</w>
ic on</w>
da wn</w>
territ orial</w>
re placement</w>
chem i
respon sibilities</w>
re di
de partments</w>
L ist
Tues day</w>
mar i
con stitution</w>
arrang ement</w>
P y
Dig ital</w>
x -
G un
Cap ital</w>
hun gry</w>
gr ateful</w>
de signs</w>
cab inet</w>
adop t</w>
Revi ew</w>
20 20</w>
identi fication</w>
Ser bia</w>
G ent
Med ic
li br
de v</w>
N uc
satis faction</w>
h em
al i</w>
der son</w>
U sing</w>
Moun tain</w>
s oph
po e
announ cement</w>
Lu k
Cl ass</w>
pain tings</w>
enni um</w>
Jim my</w>
min eral</w>
heav ily</w>
comp are</w>
c au
eng er</w>
chemi stry</w>
bi shop</w>
wides pread</w>
so m</w>
f oo
correc ted</w>
b ills</w>
R A</w>
win ners</w>
th um
pro -
port al</w>
mo s
apo logi
Se ems</w>
O k</w>
O ff</w>
H ang</w>
p ac
mechan ical</w>
K itch
Ex peri
to y</w>
ti les</w>
ob s
br ush</w>
tri gg
myster ious</w>
miss ile</w>
e u</w>
tr ucks</w>
produc es</w>
help ful</w>
194 8</w>
00 -
opini ons</w>
certi fied</w>
am ong
se gment</w>
U A
Mat the
I van</w>
H aw
A my</w>
r ics</w>
hon our</w>
ti tled</w>
E ff
C ard</w>
B ell</w>
ि क</w>
machin ery</w>
le f
l i</w>
encour aged</w>
z o</w>
u me</w>
supp lied</w>
emer ged</w>
kno ck</w>
dis abled</w>
bu cks</w>
Tay lor</w>
N ice</w>
E ve</w>
2 2
sent enced</w>
p ea
prote in</w>
po le</w>
k it</w>
ho sted</w>
Thur sday</w>
air y</w>
N evertheless</w>
repe at
fas cin
bl an
ail ed</w>
W atch</w>
Naz i</w>
r ational</w>
W r
Sing le</w>
ven ess</w>
f its</w>
anc er</w>
Kos ovo</w>
B ag
soc cer</w>
ble w</w>
Pa ul
Ma x
195 8</w>
manufac ture</w>
ly n</w>
flexi ble</w>
Ho li
u ph
al ley</w>
ad or</w>
P ass
dispos al</w>
dis rup
c ousin</w>
Pr o</w>
Oper a</w>
w ages</w>
b ols</w>
Ha wa
syn c</w>
speci alist</w>
in fin
design ated</w>
con ferences</w>
v ements</w>
sn ake</w>
M E
v ar
top ics</w>
ess els</w>
s u</w>
horri ble</w>
e quality</w>
S imp
Pre mi
L A</w>
tex ts</w>
la g</w>
escap ed</w>
determin ation</w>
chi at
Ken ne
si zes</w>
among st</w>
D at
sol ving</w>
dist ant</w>
op er</w>
hospit als</w>
wr ites</w>
transparen cy</w>
spac es</w>
R ed
scienti st</w>
af for
R ay
Im plem
Ab k
res em
n on</w>
d able</w>
ann ually</w>
Egyp tian</w>
inter -
S on
P S
trac king</w>
pe st</w>
comm an
choo sing</w>
b y-
K no
tr um</w>
ri vers</w>
S ounds</w>
En joy</w>
wa ited</w>
gho st</w>
fre sh
fai thful</w>
Tr an
R ac
sc he</w>
s ers</w>
par tly</w>
at oes</w>
Mean while</w>
re ward</w>
it ate</w>
bon us</w>
al ert</w>
achiev ement</w>
D ru
- in-
sh ire</w>
p ly</w>
198 0s</w>
p is
refl ects</w>
r us
Rig a</w>
I A
conveni ence</w>
co stume</w>
William s</w>
testi mony</w>
remov al</w>
educ ated</w>
o we</w>
emp ire</w>
com e
astr onom
aff ir
g li
cas ino</w>
KZ 2
Croati a</w>
trage dy</w>
ster dam</w>
ing redi
connec ting</w>
boo m</w>
R C</w>
Gu ard</w>
online- game</w>
far ms</w>
Y o</w>
vo ices</w>
Colum bia</w>
provi der</w>
h ec
g ear</w>
be tra
attrac ted</w>
tr ay</w>
ther ine</w>
moderni zation</w>
invol ves</w>
em entary</w>
J os
y ach
Dri ve</w>
Bill board</w>
t ours</w>
se ums</w>
O EC
Ab ra
ograph ical</w>
kill s</w>
h att
soph istic
sk ull</w>
Tom orrow</w>
defe ated</w>
app lies</w>
acc ept
Fac ilities</w>
ro g
per mitted</w>
li ances</w>
bas ket</w>
rec over</w>
disp ute</w>
dec laration</w>
In n</w>
3 5
cop per</w>
Sum mit</w>
M S
sp an</w>
pi an</w>
est yle</w>
con stra
Jer sey</w>
im a</w>
ves sel</w>
ug ly</w>
tra ins</w>
poll ution</w>
O N
Ch ile</w>
resol ved</w>
00 00
youn g
e o</w>
Eura sian</w>
3 4
fru its</w>
r hy
celebr ated</w>
Am sterdam</w>
194 7</w>
war ned</w>
ma id</w>
l ounge</w>
gr atitude</w>
camp us</w>
wor ship</w>
reha bil
dr ama</w>
X X
ob serve</w>
c he</w>
C P</w>
v essels</w>
pos ter</w>
in sec
co alition</w>
bour geo
so oner</w>
re sident</w>
mea sured</w>
j et</w>
icy cle</w>
cry stal</w>
an ch
OEC D</w>
sign als</w>
mac ro
decreas ed</w>
I ce</w>
Brus sels</w>
Ag ain</w>
moder ate</w>
li via</w>
in duc
d augh
Pro v
traff icking</w>
Po wer
wi der</w>
cha os</w>
194 3</w>
temper atures</w>
la v</w>
deal er</w>
bure auc
auth entic
Mr s</w>
smo oth</w>
ro les</w>
bour g</w>
sho w
ent ures</w>
cl er
P D</w>
Mon go
G ate</w>
p unch</w>
s can</w>
r ated</w>
jew el
conc e
Se attle</w>
I X</w>
Con struction</w>
B ran
up gra
sa fe
rout ine</w>
quanti ty</w>
gather ing</w>
co ast
3. 5</w>
195 9</w>
shi p
h ills</w>
ch at
be ating</w>
Rach el</w>
E dition</w>
impro vements</w>
a to</w>
St aff</w>
Kyi v</w>
Inter nal</w>
H D</w>
gar bage</w>
cha se</w>
tri als</w>
pack ages</w>
mus cle</w>
low est</w>
kno cked</w>
archit ec
vot ed</w>
aggres sive</w>
WH O</w>
privil eg
modi fied</w>
grand father</w>
dimen sions</w>
Ven ice</w>
May or</w>
popul arity</w>
exclu sively</w>
direc tors</w>
S li
K as
Hit ler</w>
An dy</w>
preci se</w>
her d</w>
gu ided</w>
for t</w>
fi ghts</w>
O pen
super vision</w>
process ed</w>
civili zation</w>
x er</w>
pot entially</w>
di g</w>
ash k
arti stic</w>
al ised</w>
B ath</w>
serv ants</w>
sc and
h il
e ball</w>
achiev ing</w>
rest oration</w>
rec ession</w>
bear ing</w>
ass ess</w>
A us
2 1st</w>
tw elve</w>
pro portion</w>
pass age</w>
mir acle</w>
min isters</w>
fr ac
Sm all</w>
N ick</w>
s mil
deli cious</w>
Stu dy</w>
ra rely</w>
Al i</w>
1. 1</w>
ex tract</w>
ap ti
po l</w>
diffic ulty</w>
cot ton</w>
Un it</w>
qu est</w>
not e
mon astery</w>
ad ing</w>
acc o</w>
Con trac
त ा</w>
In tel
u el</w>
m itting</w>
hum ili
expl oration</w>
dic t</w>
P il
B S</w>
mil li
con spir
celebr ation</w>
Tem ple</w>
Te a</w>
Bil ly</w>
8 ,
read er</w>
par ked</w>
er ly</w>
bri de</w>
Part ner
observ ation</w>
fre ely</w>
exam ine</w>
ev in</w>
19 17</w>
sev enth</w>
ph a</w>
f ound
en v
butt ons</w>
with draw
wan ting</w>
p ump</w>
de bu
dign ity</w>
bo ther</w>
ar range</w>
In dependent</w>
wit n
v ine</w>
engine ers</w>
B ad</w>
ti ble</w>
spher es</w>
genu ine</w>
accoun t
Cri minal</w>
fur ni
fuc kin</w>
Pol y
18 th</w>
public ly</w>
od ds</w>
li fer
195 6</w>
p acked</w>
pow der</w>
mo dule</w>
lat eral</w>
depar ture</w>
Por t
see ds</w>
fav our</w>
co operate</w>
after wards</w>
recog n
pap er
metho do
con sec
P os
Mik hail</w>
proc eed</w>
pr on
ig no
experim ents</w>
empha sized</w>
chec k
cha e
ch at</w>
S ev
Hear t</w>
C off
tri ps</w>
surpri sing</w>
sha ke</w>
on de</w>
nes ota</w>
min es</w>
St ep</w>
N et</w>
L ic
Car l</w>
me als</w>
char ts</w>
Ali ce</w>
sub stance</w>
hatt an</w>
Tra vel</w>
T B</w>
E mil
un fortunately</w>
sp y</w>
ign ore</w>
he aling</w>
cour t
Vict oria</w>
inju ries</w>
en larg
st ag
ran king</w>
mp agne</w>
au dit</w>
acqu ire</w>
F em
Ca thedral</w>
s its</w>
pe dia</w>
cop y
ari b
anc ement</w>
Restaur ant</w>
tic k</w>
st es</w>
sal vation</w>
ox ide</w>
ligh t
interpret ation</w>
ee ding</w>
bu ll</w>
assas sin
V ar
S us
sym bols</w>
KZ2 C
In nov
ter ies</w>
ski ing</w>
over ing</w>
ch enko</w>
a j
Min nesota</w>
Gr an
F ile</w>
C DP</w>
stri p</w>
b acked</w>
ag ers</w>
portfo lio</w>
He ating</w>
Enterpri se</w>
19 30</w>
d ump</w>
civili ans</w>
F ab
ó n</w>
vill a</w>
process or</w>
pro por
pre liminary</w>
chem icals</w>
BB C</w>
w a</w>
transparen t</w>
st ake
read ers</w>
m ill</w>
glo be</w>
193 3</w>
worl d-
s an</w>
requi rement</w>
air line</w>
Per s
shut tle</w>
ev acu
el eph
Con cer
s wing</w>
mon thly</w>
IB M</w>
I mag
Emil y</w>
De pos
sli p</w>
en ha
clin ical</w>
brea thing</w>
M A
Europe ans</w>
t anks</w>
f os
bor ing</w>
Nuc lear</w>
Fi re
spir its</w>
ph y</w>
S ak
sau ce</w>
Mal ay
repeat edly</w>
l or
inten sive</w>
h es
bre ast</w>
acqui sition</w>
10 0,000</w>
wher ever</w>
war ri
li ability</w>
comm unist</w>
as ed</w>
Environ ment</w>
Al l-
plan ets</w>
figh ters</w>
bal anced</w>
G ot
Fa x</w>
De an</w>
tw enty-
ti ps</w>
PD F</w>
p ays</w>
organ ised</w>
ne x</w>
m all</w>
en tion</w>
concep ts</w>
Mi x</w>
Equi pment</w>
log s</w>
le an</w>
ever age</w>
Strate gy</w>
Com ing</w>
म ा
f ears</w>
conver ted</w>
Res olution</w>
K y
tu i
tu des</w>
0 5
u ties</w>
ar di
serv ant</w>
Con sul
incid ence</w>
ick ness</w>
den y</w>
cHFF FFFF</w>
activi sts</w>
S it
pass port</w>
or bit</w>
lic a</w>
apparen t</w>
St atis
Spea king</w>
Cas pian</w>
up grade</w>
short- term</w>
guid elines</w>
bu l</w>
U T</w>
P in
pe ts</w>
pain ful</w>
jour nal</w>
h itting</w>
S ti
S hou
writ ers</w>
ser ial</w>
to ys</w>
large- scale</w>
g aining</w>
Y ears</w>
Vol ume</w>
Di e</w>
st adium</w>
parti cles</w>
hol m</w>
conduc ting</w>
O tt
C ry
19 20</w>
vi se</w>
ta g</w>
no ver</w>
fore ig
s man</w>
ch en</w>
J i
superi or</w>
spac ious</w>
consen sus</w>
Bro ok
ni k</w>
helicop ter</w>
exp lic
Mor oc
threat ening</w>
t z</w>
t ear</w>
settl ements</w>
refl ection</w>
re structuring</w>
popul ations</w>
di sh
V il
whe els</w>
w rec
Tra ining</w>
Clin ton</w>
worl ds</w>
rec tion</w>
dynam ics</w>
As s
win d
car pet</w>
An dro
sym pa
n ails</w>
juris diction</w>
cor p
b ou
Gent lem
195 7</w>
sun g</w>
oblig ation</w>
euro zone</w>
bom bs</w>
al thy</w>
Per u</w>
I -I</w>
sco red</w>
int end</w>
iden tical</w>
essi onal</w>
intellig ent</w>
har mony</w>
Sy rian</w>
O .</w>
No bel</w>
fe wer</w>
Tel ephone</w>
Scienti fic</w>
R ab
N ature</w>
sub way</w>
ber ry</w>
G olf</w>
re aches</w>
fra ud</w>
war rant</w>
im ported</w>
a z</w>
Venezu ela</w>
F ort</w>
your selves</w>
ri val</w>
obst acles</w>
form erly</w>
amend ments</w>
F ish</w>
soverei gn
reci pi
pat ent</w>
imag ination</w>
R ad
s enti
ro v</w>
ml n</w>
Ro ger</w>
P ull</w>
K -
Econom ics</w>
19 18</w>
ing ham</w>
env elop
G R
195 2</w>
ste aling</w>
st en</w>
li v
al ous</w>
addres sing</w>
Th r
Man hattan</w>
Franc is</w>
F le
desper ate</w>
ro bot</w>
galax y</w>
contain er</w>
pos ing</w>
pic k
mid st</w>
insp ection</w>
an ov</w>
I E
simp li
ren amed</w>
re tri
gra vity</w>
cro p</w>
ans as</w>
Palest ine</w>
Ali yev</w>
1. 3</w>
publi sh</w>
fi res</w>
but t</w>
bea st</w>
aren a</w>
trans fers</w>
h ov
g ang
dar ity</w>
cor d</w>
Her itage</w>
tr ag
regre t</w>
proc la
indi genous</w>
gr ants</w>
el der</w>
For tun
subsequ ently</w>
off -
c ann
Un til</w>
Len in</w>
IS T
reven ge</w>
dec l
car ries</w>
P hoto</w>
G PS</w>
pl ing</w>
lo ver</w>
201 4-
hun g</w>
hi d</w>
discipl ine</w>
si de
es tions</w>
dimen sion</w>
Mo del</w>
F -
Ex tra</w>
up dates</w>
li est</w>
dro w
consequ ence</w>
bl essed</w>
accept ance</w>
z ens</w>
wh i
tra ded</w>
T ol
Al bert</w>
supp liers</w>
s .html</w>
pi pes</w>
est ly</w>
Environ mental</w>
gen ius</w>
ca b</w>
bank rup
al tar</w>
Wed nes
Mun ich</w>
il st</w>
di verse</w>
bas ketball</w>
Pers onal</w>
Mexic an</w>
1 60</w>
y pe</w>
w ounds</w>
uck les</w>
ran ks</w>
perform ances</w>
par ks</w>
ha bit</w>
coll ecting</w>
ch ron
artif icial</w>
G P
Def enders</w>
- of-
up coming</w>
gentlem an</w>
d ingly</w>
amp ire</w>
Wil son</w>
S D
195 1</w>
th an
step ped</w>
prin ce</w>
an onym
rec overed</w>
exc eed</w>
d al</w>
L ink</w>
per sec
loc k
et ly</w>
Con serv
righ t-
Org an
Ba throom</w>
reser vations</w>
isol ated</w>
ab ling</w>
For mul
Fo x</w>
Custom s</w>
Cre dit</w>
B un
se al</w>
phra se</w>
mon ument</w>
195 3</w>
193 6</w>
ru ined</w>
rob bery</w>
go sla
cin ema</w>
S ong</w>
p ill
m ic</w>
investig ate</w>
de pression</w>
ad el
N ev
8 5
exc essive</w>
Tru e</w>
F al
inst ant</w>
influ enced</w>
benef icial</w>
Explo rer</w>
Bloo d</w>
sor ts</w>
as sured</w>
M P</w>
pharm aceu
m asses</w>
W ea
R ub
uni ons</w>
r age</w>
mand ate</w>
bel oved</w>
ag gre
Comm unications</w>
vol can
scre aming</w>
for bi
Ang el</w>
o b</w>
n ut</w>
mean ing
eleg ant</w>
si es</w>
s al</w>
pre ferred</w>
e aten</w>
dres sing</w>
appl ying</w>
Tom my</w>
us s</w>
shel f</w>
man -
Parti cip
mo thers</w>
h n</w>
Iraq i</w>
Do g</w>
en dum</w>
H ard</w>
Coun tries</w>
ra pe</w>
m aps</w>
leg acy</w>
fa thers</w>
anc est
unic ation</w>
tril lion</w>
ton nes</w>
stitu tional</w>
e ur</w>
be aches</w>
S ource</w>
H ope</w>
ul tra
n asty</w>
et a</w>
dic k</w>
cat astro
Secret ariat</w>
193 5</w>
tal ity</w>
prosec ution</w>
ind ex
favor able</w>
remin ded</w>
me tro</w>
H im
is ure</w>
gi an</w>
d ents</w>
tra iler</w>
reg ards</w>
Slo ven
S now</w>
Auth ority</w>
tt a</w>
s .com</w>
no tion</w>
U ser</w>
O w
B ase</w>
no ble</w>
igh t
fortun ate</w>
docum entary</w>
be aten</w>
asp ir
V an
Yu gosla
Whe ther</w>
y o</w>
wea kness</w>
res ses</w>
Vic tor</w>
Reser ve</w>
K evin</w>
An th
194 9</w>
spot ted</w>
mi es</w>
liber ty</w>
inter n
conver t</w>
consider ably</w>
circu it</w>
tion ally</w>
sou th-
p eas
m are</w>
in er</w>
clea red</w>
T aking</w>
0 ,
observ ers</w>
k el
at i</w>
L as</w>
F air</w>
ter ly</w>
pl as
m ou
clim bing</w>
Ed die</w>
per sist
j ungle</w>
&apos; clock</w>
th ri
sur geon</w>
hop ed</w>
do se</w>
Gab ri
195 4</w>
frequ ent</w>
compl aint</w>
ad just</w>
Partner ship</w>
ev ed</w>
br ands</w>
ak i</w>
v end
Y esterday</w>
susp ended</w>
star ing</w>
op en
compos er</w>
comb ine</w>
Sec urities</w>
P ho
CO M</w>
sub stances</w>
shi eld</w>
s wee
n ail</w>
L and
Gl ass</w>
pro xim
ann e</w>
Foot ball</w>
preser ved</w>
ea u</w>
decor ated</w>
Plan et</w>
Nik ol
. net</w>
treas ure</w>
rub ber</w>
rec y
cro wn</w>
I sa
- and-
saf ely</w>
ref ers</w>
cri ticism</w>
corpor ation</w>
Pro sec
O liver</w>
Al most</w>
um p
fri gh
ash vili</w>
an thro
S ound</w>
C lim
oppon ent</w>
ligh ted</w>
ing ness</w>
In spec
sof a</w>
pa ste</w>
p ine</w>
com promise</w>
bra ve</w>
J en
Gr ant</w>
wit ch</w>
restric ted</w>
m ill
lic ence</w>
lay ers</w>
Run ning</w>
Ret ur
sy lv
subsi di
sophistic ated</w>
co ins</w>
S ign</w>
OR D</w>
withdraw al</w>
fa x</w>
es h
dev ast
capit alism</w>
bl essing</w>
Y ep</w>
Sy dney</w>
Sha re
ho sts</w>
cri tici
v ors</w>
mag nific
commit ments</w>
A Z
z ers</w>
yi eld</w>
stan bul</w>
daugh ters</w>
arg uments</w>
Matthe w</w>
Gaz prom</w>
е р
thre sh
sal ad</w>
control ling</w>
S it</w>
J ava</w>
fre ed
P et
ble eding</w>
Th ought</w>
Nag or
Mil an</w>
Experi ence</w>
t ops</w>
perc eption</w>
favour ite</w>
Serge ant</w>
Nic hol
In dividu
14 -
lam p</w>
ff ed</w>
dro pping</w>
down stairs</w>
ca f
ap p</w>
S ony</w>
K ras
Dav is</w>
ver sus</w>
p ho
Armeni ans</w>
reti rement</w>
crimin als</w>
bac teria</w>
Des k</w>
st en
mor tality</w>
leg end</w>
bur gh</w>
bas es</w>
T ed</w>
Ros s</w>
z om
is er</w>
glob alization</w>
domin ant</w>
conf used</w>
Ig or</w>
E L</w>
ran ked</w>
im ports</w>
cl ari
ch ro
Ver sion</w>
H air</w>
psy chiat
n ity</w>
exp ecting</w>
cont am
col um
Ren a
L aw
D ave</w>
resp ected</w>
di al</w>
bron ze</w>
argu ed</w>
De b
D ays</w>
Coff ee</w>
ta p</w>
os ity</w>
inten si
in door</w>
i er</w>
her oes</w>
ef f</w>
Y an
6 th</w>
murder er</w>
log ically</w>
7 th</w>
trans formed</w>
recei ves</w>
politici an</w>
out fit</w>
d addy</w>
Loc al</w>
Alex and
t ack
g ains</w>
dra wer</w>
as m</w>
S mo
sp er
Play Station</w>
pu b</w>
oun ce</w>
ir o</w>
d are</w>
W is
La un
F uture</w>
l as</w>
doc tr
W restling</w>
Ro oms</w>
Lab our</w>
E uro</w>
- in</w>
web sites</w>
uti lity</w>
th care</w>
sci ences</w>
de emed</w>
wi ves</w>
w ells</w>
satis fy</w>
prof ession</w>
fin est</w>
dest iny</w>
Don ald</w>
Ch uck</w>
st am
ri son</w>
real istic</w>
hun ger</w>
empha sis</w>
Pat rick</w>
Cer ti
min i</w>
bu sh</w>
bed ded</w>
M it
Cent ury</w>
susp ici
grand mother</w>
evid ent</w>
comm and
Ton ight</w>
Intro duction</w>
H i</w>
Col or
tic a</w>
sul tan</w>
H a</w>
195 5</w>
19 29</w>
defend ant</w>
Uni verse</w>
9 00</w>
w rest
g all
deci sion-
curi ous</w>
ch y</w>
ac tress</w>
we i
c andy</w>
V ari
J eff
Gor don</w>
3 0-
sh y</w>
sen ds</w>
expe dition</w>
enha gen</w>
diam ond</w>
az e</w>
ra in
deal t</w>
con science</w>
am id</w>
D. C.</w>
sovereign ty</w>
pro let
hat red</w>
ent ations</w>
deter i
V or
x on</w>
sex y</w>
sc al
g ments</w>
L et
ten d
loc ker</w>
ec ological</w>
confir mation</w>
air -
vie wing</w>
figh ter</w>
An ci
tri um
Stal in</w>
Pr ice</w>
19 14</w>
under taken</w>
ru in</w>
foc using</w>
b last</w>
tra dem
telec omm
ov an</w>
inev itable</w>
ear l</w>
P rac
Bob by</w>
ugg age</w>
ro v
exam ined</w>
Hung arian</w>
sal ary</w>
pres cri
Uni versal</w>
Me di
stat ue</w>
sol ely</w>
mu seums</w>
form ats</w>
Wednes day</w>
Philipp ines</w>
C arib
3 2.
vit am
trem end
s wal
bri gh
Rail way</w>
In to</w>
D ance</w>
stop ping</w>
pro found</w>
priv ati
inter views</w>
ed ges</w>
auc tion</w>
Val ent
Stock holm</w>
Portu gu
5 5
sec ured</w>
m i</w>
decl are</w>
T bili
P ent
provi ders</w>
par ish</w>
function ality</w>
exc ess</w>
c attle</w>
ack ers</w>
Po p</w>
B ey
w oke</w>
S ac
C lear</w>
til ity</w>
ra ys</w>
l ending</w>
ful fill</w>
entreprene urs</w>
Sp a</w>
v et</w>
organi zing</w>
mus icians</w>
diam eter</w>
deman ded</w>
Ma thematic
the at
sp reading</w>
gu essing</w>
f oods</w>
en ship</w>
demonstr ation</w>
avi ation</w>
In surance</w>
Gentlem en</w>
strong est</w>
insul a</w>
fini shing</w>
bloo d
Wal ter</w>
To il
H ur
wa shed</w>
thir ty</w>
po ore
bu ses</w>
b locked</w>
a b</w>
4. 5</w>
tra uma</w>
sylv ania</w>
pul se</w>
mor tal</w>
fr ames</w>
differ ently</w>
bub ble</w>
arr ay</w>
announ ce</w>
anal o
A pos
17 th</w>
sust ained</w>
sp in
s ors</w>
mi st</w>
le um</w>
deman ding</w>
de tained</w>
lon ely</w>
ic -
er able</w>
stro ke</w>
ma sters</w>
earthqu ake</w>
cur se</w>
conserv ation</w>
con siders</w>
squ ee
fl ed</w>
boar ding</w>
St ory</w>
Publi shing</w>
Mill er</w>
193 2</w>
pregn ancy</w>
ev ich</w>
classi fied</w>
bar riers</w>
T el</w>
R ound</w>
Ma h
junc tion</w>
de er</w>
bur st</w>
Po or</w>
Com mission
str anger</w>
nor th-
jo in
g est
blo wn</w>
ail ing</w>
T im</w>
D A
tre ating</w>
susp ected</w>
po et</w>
Goo d
Fe el</w>
3. 0</w>
whe el
ra m</w>
quali ties</w>
H op
B ad
soverei gn</w>
sa il</w>
ra dic
micro wave</w>
indic ator</w>
g ey</w>
conclu sions</w>
ari st</w>
Tac is</w>
I cel
sk et
prot ests</w>
desi r
bor ne</w>
oo se</w>
corpor ations</w>
O P
न ा</w>
De ep</w>
z o
jewel ry</w>
e b
Im perial</w>
Agricul ture</w>
radi o
ques tion
in king</w>
br ac
s ab
med als</w>
cred ited</w>
G ary</w>
F light</w>
Christi anity</w>
hal f
coll ections</w>
ba thro
Prov ince</w>
Cop enhagen</w>
स ं
ro om
poss ess</w>
corrid or</w>
Di ff
D I
Carib bean</w>
B ay
trav eled</w>
top -
tal e</w>
rel la</w>
plat forms</w>
lifer ation</w>
incredi bly</w>
deri ved</w>
canc el</w>
W TO</w>
Arch it
о р
to col
ay ne</w>
M ea
193 4</w>
е н
spea ker</w>
ru ins</w>
pan els</w>
gra v
d ity</w>
car t</w>
bul ance</w>
ang els</w>
Res ources</w>
Formul a</w>
kne es</w>
but ter
as ser
Ste el</w>
Nor we
H us
Ch el
l t</w>
detec ted</w>
nor ms</w>
Fri ends</w>
Ber n
po ols</w>
m at</w>
car to
Implem entation</w>
floo d</w>
a res</w>
sh ining</w>
prosec utor</w>
mathematic al</w>
ho c
dum b</w>
coo kies</w>
ag on
ab str
Toil et</w>
S ays</w>
NAS A</w>
L ew
K an
trou bled</w>
t at
pol ar</w>
do zens</w>
app earing</w>
Exper ts</w>
B ou
shi on</w>
enh anced</w>
ba th
K ey</w>
G N
sm ugg
mortg age</w>
del ete</w>
Il lin
k h</w>
impres sed</w>
dec lined</w>
Sho wer</w>
M D
Luk ash
Cont act</w>
tim acy</w>
secon d-
re al-
fin dings</w>
High er</w>
prin ter</w>
ne gl
incenti ves</w>
es cor
con ci
Ri o</w>
K ha
In dependence</w>
F ru
pro vo
is y</w>
brea the</w>
ben ch</w>
Wi Fi</w>
Lis bon</w>
Colom bia</w>
v ary</w>
ment ally</w>
loo p</w>
guil t</w>
country side</w>
Osse tia</w>
1. 4</w>
ro cket</w>
Mic hi
Air lines</w>
concer ts</w>
C N
A ud
9 0
tur nover</w>
gar dens</w>
divi sions</w>
believ ing</w>
Rel ations</w>
N u
18 -
over -
Issu es</w>
pro pri
iss ance</w>
id en</w>
bi es</w>
I stanbul</w>
F igh
19 19</w>
se aled</w>
Gu est</w>
sha dows</w>
sh ers</w>
key board</w>
fer tili
W ales</w>
P ul
stoc ks</w>
perc eived</w>
con fin
a is
Med ve
M organ</w>
Illin ois</w>
phot ography</w>
de struc
T iles</w>
I van
Ex pl
Cl au
ten ing</w>
sti pul
po em</w>
el t</w>
be ans</w>
W all
T ali
Stan ding</w>
L iter
15 th</w>
vis ed</w>
n arr
ec ho
dis appointed</w>
archit ect</w>
S po
A y
193 7</w>
ru b</w>
pro tot
dis count</w>
c ali
bi ology</w>
B all
é e</w>
deb ts</w>
comp ly</w>
Fur niture</w>
9 th</w>
9 6
u tionary</w>
st ation
rehabil itation</w>
Gi b
F ight</w>
Ex am
w olf</w>
prev enting</w>
play ground</w>
phi a</w>
oppon ents</w>
m b
ke eper</w>
in visible</w>
flu id</w>
V I</w>
1 30</w>
vac u
l ecture</w>
conserv ative</w>
bin ding</w>
presti gious</w>
mar ch</w>
exerc ises</w>
M B</w>
v ani
om a</w>
ol d-
las er</w>
f ounding</w>
comp as
Holi day</w>
Chech nya</w>
sup porters</w>
reser ved</w>
renew ed</w>
lin s</w>
Stri p</w>
Bru ce</w>
t am
prin cess</w>
in stitute</w>
hi o</w>
drag ged</w>
B run
Abk haz
mis sil
el abor
c emetery</w>
ari se</w>
Fer r
spec trum</w>
pur suit</w>
liqu idity</w>
gram s</w>
arri ving</w>
Fe atures</w>
ह ै
t l
navi gation</w>
cros s
Mis sion</w>
н а
tocol s</w>
stic ks</w>
fre e-
architec tural</w>
An ne</w>
19 22</w>
ro ad
remin ds</w>
concentr ate</w>
Pen n
Ex actly</w>
rec ep
ra ft</w>
in struction</w>
fin anci
f on
ban ned</w>
Shou l
Ho lo
puzz le</w>
lo go</w>
di ver
b is</w>
Y a
S mar
Dr ama</w>
Bar ry</w>
190 7</w>
18 0</w>
1. 0</w>
&apos; am</w>
z i</w>
wh ilst</w>
soci alist</w>
k ia</w>
ili an</w>
ea e</w>
dr ill</w>
bar rel</w>
Re gar
Nur sultan</w>
4 5
met als</w>
im migration</w>
trav elling</w>
oo th
cred its</w>
campaig ns</w>
behavi our</w>
Tal k</w>
Fortun ately</w>
B ac
197 0s</w>
res ur
dis plays</w>
Len ingrad</w>
1 10</w>
whe at</w>
vi ties</w>
tro pical</w>
to b
he ated</w>
con vention</w>
y ar
re sts</w>
Hea d
substan ti
id a</w>
dum ped</w>
bot s</w>
T est
Qu ite</w>
G T
Ad ditional</w>
str o</w>
st um
lo v</w>
for cing</w>
br ick</w>
L ad
Ke ep</w>
Flo rence</w>
A G</w>
young est</w>
prof itable</w>
pec uli
flexi bility</w>
consi sting</w>
concentr ated</w>
co ck</w>
clu ster</w>
bl onde</w>
assum ing</w>
ari ans</w>
Tor onto</w>
Produc ts</w>
Portugu ese</w>
N ation</w>
supp lier</w>
s ar
h ath</w>
enc ryp
d ul
1. 6</w>
sh ments</w>
particip ant</w>
de pic
consoli dated</w>
bul lets</w>
bu yers</w>
L ov
Dis ney</w>
sk illed</w>
rep ly</w>
poe try</w>
par ade</w>
ex am</w>
corrup t</w>
Vir gin</w>
Secre t</w>
Lat vian</w>
Vill age</w>
Tel evision</w>
NE T</w>
F ant
Austri an</w>
us al</w>
sm ells</w>
reli ability</w>
cha mpagne</w>
acc essories</w>
Tru th</w>
Sen ior</w>
F O
Emp loy
Br on
19 24</w>
ren dered</w>
refer endum</w>
doub le-
deploy ment</w>
con version</w>
certi fication</w>
Leg al</w>
the ft</w>
predic t</w>
alleg ed</w>
Techno logies</w>
CO 2</w>
os ex
here in
es a</w>
an o
U s</w>
Po ker</w>
P on
J an</w>
F alls</w>
vari able</w>
stea dy</w>
pa st
loy alty</w>
la sted</w>
Rob in</w>
Kras no
C at</w>
tri but
poli tically</w>
pack aging</w>
ju do</w>
en coun
Lim ited</w>
D ur
A i
not ing</w>
incorpor ated</w>
dis c</w>
Mem bers</w>
L IN
Dr agon</w>
shoot er</w>
purcha sing</w>
fin anced</w>
dr agon</w>
da e</w>
con sole</w>
c ed
bom bing</w>
u ality</w>
in ches</w>
Lu ke</w>
Brook lyn</w>
j o</w>
investig ating</w>
an no
Tu be</w>
Inter ior</w>
I L</w>
F ace</w>
9 8.
deser ves</w>
S le
20 ,000</w>
presid ency</w>
mea suring</w>
al y</w>
adver tis
accompli shed</w>
Run time</w>
Dev il</w>
stri kes</w>
sla ve</w>
mem orial</w>
dis on</w>
scre w</w>
n as
ful filled</w>
doc k</w>
cru ise</w>
bull shit</w>
b are</w>
0- 0
treat ments</w>
thi ef</w>
stric tly</w>
nomin ated</w>
l ens</w>
j an</w>
hy dr
S port</w>
herein after</w>
Y el
Fr amework</w>
s om
s no
rest ra
e fully</w>
dro me</w>
cro ps</w>
Tbili si</w>
Kazakh stan
App lication</w>
war n</w>
tim ely</w>
hoc key</w>
T V
Pro ph
O hio</w>
John ny</w>
F ra
ner ve</w>
gen es</w>
fast est</w>
Ser gey</w>
hall way</w>
g loves</w>
am bassador</w>
P P
ti de</w>
so v</w>
prop aganda</w>
lun gs</w>
lea k</w>
fa ils</w>
compl aints</w>
associ ate</w>
wel com
w -
v ent</w>
ridic ulous</w>
pri s
lif ting</w>
ear ning</w>
duc k</w>
bu cket</w>
Tra in</w>
Medve dev</w>
Bor n</w>
import antly</w>
d ily</w>
an te</w>
Sh or
M and
Ho ward</w>
B ren
buff et</w>
bound aries</w>
an tum</w>
H S</w>
F OR
D anish</w>
de pri
S ain
P ink</w>
vi c</w>
r ounds</w>
ed ited</w>
bu mp
bil lions</w>
I K
Be at
19 25</w>
ल िए</w>
recei pt</w>
pro pose</w>
ou ting</w>
hom eless</w>
cri tics</w>
I denti
G old
193 8</w>
em bassy</w>
Ch annels</w>
Car ter</w>
s cor
r ors</w>
m atic</w>
competi tors</w>
bre ach</w>
G host</w>
relea ses</w>
re porter</w>
Ter rit
P AR
Bo dy</w>
Ar ound</w>
sp in</w>
justi fied</w>
Ob last</w>
I R</w>
H ands</w>
Co ordin
shoul ders</w>
protec tive</w>
parti ally</w>
cha sing</w>
Rob er
Mar ine</w>
Are n</w>
l ingu
fl u</w>
f ter</w>
bar n</w>
10 0
v ain</w>
ro of
ill er</w>
d ice</w>
S ad
Phi l</w>
Gr ound</w>
Char ter</w>
sty les</w>
g i</w>
P ublic
Lin col
Curren tly</w>
tr e</w>
th ic</w>
testi fy</w>
sim pl
separ ation</w>
F all</w>
Ba sic</w>
m bers</w>
g ated</w>
excep tional</w>
consul ting</w>
adv ised</w>
Res pon
Color ado</w>
A A</w>
10 th</w>
mag ical</w>
h mm</w>
ev o</w>
R id
P ete</w>
Inv estig
sa ic</w>
psycho logy</w>
TH AT</w>
Arab s</w>
zz i</w>
tho logy</w>
out comes</w>
on i</w>
belong ing</w>
B ed
so red</w>
par adise</w>
hi er
du al</w>
B ear</w>
under lying</w>
u sh
har vest</w>
a. m.</w>
st ack</w>
six -
laugh ing</w>
don or</w>
co lo
bel ly</w>
S ter
N Y
Lux em
16 -
ach u
R um
Oper ation</w>
Norwe gian</w>
Malay sia</w>
Co -
र ा
will ingness</w>
v ampire</w>
tal ented</w>
spr ay</w>
in um</w>
Me tro</w>
volun tary</w>
missil es</w>
consul tation</w>
challeng ing</w>
activ ated</w>
Res ort</w>
E M</w>
D uma</w>
8 th</w>
है ं</w>
assign ment</w>
Im port
D R
Comp ani
re ferences</w>
ori entation</w>
S ophi
Ma p</w>
IP O</w>
Al as
2. 1</w>
mon uments</w>
a g</w>
Sen ator</w>
s ack</w>
j unior</w>
igno red</w>
n ell</w>
i g</w>
fir ing</w>
diagno sis</w>
н о
swit ched</w>
ash es</w>
us eless</w>
thresh old</w>
le isure</w>
contra dic
car rier</w>
y k</w>
tox ic</w>
sion ally</w>
lan e</w>
ful ness</w>
es cal
encour aging</w>
clic king</w>
Hawa ii</w>
19 26</w>
16 th</w>
x ation</w>
tend ency</w>
fant asy</w>
belong ed</w>
adel phia</w>
Siber ia</w>
Michi gan</w>
mi li
igh s</w>
de gra
Z h
Slov akia</w>
Reg ulation</w>
ro c
oun ced</w>
itt ees</w>
fab ric</w>
col ony</w>
aff ects</w>
Mem orial</w>
Comm un
un expected</w>
theore tical</w>
rol ls</w>
re hear
prohi bited</w>
obli ged</w>
en abling</w>
disp utes</w>
competi tiveness</w>
D est
19 23</w>
param eter</w>
pa ths</w>
cri ses</w>
convic ted</w>
D omin
Anth ony</w>
2. 2</w>
lic s</w>
le st</w>
ho sting</w>
calcul ation</w>
at- screen</w>
Bro thers</w>
3 ,000</w>
pa ired</w>
o wing</w>
now adays</w>
Cli ent</w>
motiv ated</w>
libr aries</w>
im migrants</w>
atic s</w>
witn essed</w>
trag ic</w>
respon ded</w>
off ensive</w>
i k</w>
gu red</w>
di stor
con stitute</w>
Un cle</w>
To gether</w>
Lev el</w>
G y
welcom ed</w>
r ally</w>
pi x
lic al</w>
dol l</w>
G reg
ey ed</w>
d d</w>
cool ing</w>
capit a</w>
adap tation</w>
Penn sylvania</w>
win ds</w>
recogn ised</w>
Moroc co</w>
Bor is</w>
po ckets</w>
al istic</w>
Coll ection</w>
Ad vis
19 00</w>
renew able</w>
o il
loy al</w>
des ktop</w>
cul t</w>
ch a</w>
W on
L ORD</w>
C av
4 7
un preced
sing le-
semin ars</w>
refer ring</w>
enti ve</w>
en counter</w>
ac re</w>
Tali ban</w>
S cre
Ca therine</w>
C lock</w>
vi su
u re
ha r</w>
d un
char ter</w>
broad er</w>
Hol ding</w>
AL L</w>
A sk</w>
स ा
pro ving</w>
pi one
less ly</w>
ingredi ents</w>
bre w</w>
Stu dios</w>
Cha mpionships</w>
stret ch</w>
rus .
fac tories</w>
commod ity</w>
ch op
c ade</w>
but ter</w>
atten ding</w>
Histor ical</w>
Govern ments</w>
the ories</w>
s ound
per -
episo des</w>
det ect</w>
0. 5</w>
p itch</w>
implic ations</w>
hand led</w>
g il
di versi
anc ell
T reas
Del hi</w>
Cat al
set ts</w>
need le</w>
it ably</w>
experim ental</w>
domin ated</w>
M G</w>
F oc
A x
re ign</w>
inspir ation</w>
il ation</w>
euro s</w>
complex ity</w>
Li eutenant</w>
H air
19 21</w>
week ly</w>
pur se</w>
nec kl
k u</w>
k am
imp lies</w>
desir able</w>
d us
collap sed</w>
car riage</w>
bre eding</w>
b eam</w>
ash a</w>
Q a
Pri x</w>
Phil adelphia</w>
H as
Ch em
tim ing</w>
invest or</w>
gr o</w>
gener ous</w>
form ally</w>
evol ved</w>
Anti -
Anci ent</w>
z oo</w>
qui etly</w>
d ale</w>
Od essa</w>
Nov o
Fe li
ur anium</w>
te enth</w>
spea kers</w>
or i</w>
lea f</w>
inter ference</w>
f lowing</w>
char ming</w>
bl ade</w>
as sure</w>
appro ached</w>
Qu ar
िय ा</w>
soli darity</w>
kin da</w>
ine a</w>
ho st
gen us</w>
Phili p</w>
M -
190 5</w>
ther ed</w>
p. m.</w>
mer ged</w>
iP od</w>
an xi
achu setts</w>
a o</w>
Sh it</w>
success or</w>
po ly</w>
me a</w>
j an
Pla za</w>
O thers</w>
I mp
Comm on</w>
shir ts</w>
portra it</w>
Custom er</w>
rest ing</w>
ren ted</w>
oc op
it ement</w>
found ations</w>
cha ins</w>
S ky</w>
M am
En ough</w>
B ed</w>
B E</w>
ur i</w>
sil ly</w>
scholar ship</w>
resi st</w>
plu g</w>
li p</w>
ar row</w>
W ho
Pl aying</w>
Gre y</w>
B om
B and</w>
th es
super -
o x</w>
im prison
ho b
el e</w>
citiz enship</w>
T ig
R ot
Pre viously</w>
Mo z
An alysis</w>
19 28</w>
ver tical</w>
magaz ines</w>
forbi dden</w>
cul ar</w>
K now
Cha mpi
unpreced ented</w>
spectac ular</w>
magnific ent</w>
lif ted</w>
internation ally</w>
ess ors</w>
ca su
ad mir
join tly</w>
desi res</w>
Qu ality</w>
Gra du
Commission er</w>
ti re</w>
phys ically</w>
hear t
diff er</w>
construc t</w>
Per son
K ol
Jas on</w>
E X</w>
Con stitutional</w>
p ound</w>
ter ior</w>
appro aching</w>
Lincol n</w>
H ab
with draw</w>
mus ician</w>
P ass</w>
Mass achusetts</w>
H R</w>
re tro
h ated</w>
bor row</w>
ak s</w>
P ack</w>
G oods</w>
G U
C are</w>
pr o</w>
ph ony</w>
imp acts</w>
har d-
Ra ther</w>
Cam p</w>
3. 3</w>
y ards</w>
ster ing</w>
sear ched</w>
mus cles</w>
capac ities</w>
appreci ation</w>
an ism</w>
N am
Four th</w>
F T
3. 1</w>
pri ests</w>
inv o
beli efs</w>
R U
L es
K har
In strum
Adv anced</w>
6 5
stake holders</w>
ques tioning</w>
pre fer
Ir oning</w>
Intel ligence</w>
El ena</w>
Beli eve</w>
9 7.
ul ative</w>
et es</w>
decision- making</w>
bas eball</w>
Wor l
lif estyle</w>
en rich
comp ound</w>
In dex</w>
8 7
ant ine</w>
G ol
susp icious</w>
environ ments</w>
c akes</w>
St ep
P O</w>
Mari e</w>
K ey
G E</w>
Ann ual</w>
in er
develop er</w>
a es
Per f
N D
in ci
hydro gen</w>
h alls</w>
er als</w>
d ome</w>
bu yer</w>
ag ged</w>
V as
Cla ire</w>
licen sed</w>
at ories</w>
R F</w>
s ation</w>
r anging</w>
fol lowers</w>
es y</w>
Wil d</w>
pra yers</w>
over seas</w>
ing e</w>
fr an
fo x</w>
deci sive</w>
ca res</w>
al isation</w>
adju sted</w>
Ath ens</w>
tremend ous</w>
st air
sh eriff</w>
lo d
l ou
disci ples</w>
ber ing</w>
adap ted</w>
E in
Cam p
Afgh an</w>
poin ting</w>
character istic</w>
tane ous</w>
prob ability</w>
pi res</w>
in ated</w>
desig ners</w>
clean ed</w>
an na</w>
Lew is</w>
Jac ob</w>
prosp ect</w>
k el</w>
it ter</w>
fire place</w>
chea per</w>
ad ds</w>
Mon ey</w>
L Y</w>
Kenne dy</w>
E F</w>
B een</w>
Ar med</w>
ro ll
li d</w>
fuc ked</w>
def ending</w>
administr ator</w>
P ick</w>
E qu
un certainty</w>
thir d-
progres sive</w>
measu rement</w>
in formal</w>
ill -
fic tion</w>
f ever</w>
ex emp
cre ativity</w>
accur acy</w>
re viewed</w>
ici ary</w>
en ters</w>
am bulance</w>
Prof essional</w>
Mov ement</w>
Co sta</w>
trav el
p ist
or chestra</w>
mer ch
car di
employ ers</w>
au to</w>
Mag az
M ain
Le ft</w>
Indi ans</w>
Con c
moun t</w>
ach ment</w>
19 13</w>
क ि</w>
life -
gover ning</w>
be e</w>
at e-
ad m
Un like</w>
Serge i</w>
Or ange</w>
C oo
sho le</w>
embr ace</w>
Shoul dn</w>
N on
vacu um</w>
susp ects</w>
st atic</w>
mom ent
imm une</w>
f i</w>
aur a</w>
St ore</w>
Qu ick</w>
Lib ya</w>
vis itor</w>
ra dar</w>
al pha
Li ving</w>
J eff</w>
Inst ant</w>
In f
Em ma</w>
6 7
193 1</w>
wi shed</w>
ur ge</w>
pil low</w>
p iss</w>
def ender</w>
cra shed</w>
pat rol</w>
lo vers</w>
Mon tre
Im age</w>
Cry stal</w>
C able</w>
to s</w>
l uggage</w>
imprison ment</w>
hosti le</w>
col li
I ll
. dll</w>
toler ance</w>
multi lateral</w>
colum ns</w>
S eg
An derson</w>
diam onds</w>
cl oth</w>
G all
z z</w>
ven ted</w>
uri ous</w>
pos edly</w>
pig s</w>
high lighted</w>
half way</w>
J ean</w>
H ills</w>
p ity</w>
li ation</w>
inter medi
g us</w>
adjust ment</w>
K ab
D ic
se em
predic table</w>
de m</w>
chr onic</w>
Wor k
ne ys</w>
green house</w>
gener ating</w>
2. 3</w>
un stable</w>
fac ulty</w>
divi de</w>
crip tions</w>
ancest ors</w>
For mer</w>
D M
v ag
mi ti
go at</w>
dres ses</w>
deci des</w>
character ized</w>
Web site</w>
Vi ol
em bedded</w>
e tic</w>
coun ted</w>
comm em
attrac tions</w>
any on</w>
F resh</w>
Abkhaz ia</w>
sil k</w>
inten sity</w>
influ ential</w>
hel or</w>
h ello</w>
c ope</w>
al t</w>
Frank lin</w>
Dy nam
v or
see ks</w>
paper work</w>
et t</w>
cor ners</w>
co ws</w>
y u
y ce</w>
neighbor ing</w>
met e
im pe
es el</w>
voc als</w>
comm ands</w>
Russi an-
Andro id</w>
Add ress</w>
work shops</w>
w ol
predic ted</w>
invest ing</w>
est -
destro ying</w>
datab ases</w>
ca fe</w>
bo w
a unt</w>
Ott om
ि त</w>
v enti
sha pes</w>
sh evi
re act</w>
pro ves</w>
der ness</w>
debu ted</w>
cy cles</w>
Nig eria</w>
K elly</w>
1. 8</w>
se ized</w>
elder man</w>
adap t</w>
mo dest</w>
boo ked</w>
ali ke</w>
Phot os</w>
z ona</w>
tob acco</w>
lay out</w>
dimen sional</w>
accid ents</w>
19 -
seas ons</w>
insist ed</w>
gro cer
eth ical</w>
dram atically</w>
dem on</w>
compar able</w>
comp eted</w>
believ ers</w>
Prosec utor</w>
Ly n
Gen ocide</w>
196 0s</w>
te m</w>
op enly</w>
innov ations</w>
conspir acy</w>
bound ary</w>
Proper ty</w>
J av
tw in</w>
sk o
s son</w>
ide ology</w>
harm ful</w>
ge ons</w>
b is
Lar ge</w>
F ed</w>
Cha ir</w>
preser vation</w>
gen ocide</w>
U pon</w>
ut ter</w>
pl um
li an</w>
grab bed</w>
ff y</w>
con fusion</w>
commer ci
bl ank</w>
be have</w>
b iting</w>
b icycle</w>
R is
R av
M uch</w>
B all</w>
3 9
we althy</w>
ti um</w>
mob ility</w>
lim itations</w>
it ative</w>
for -
Tur ns</w>
R an
on ies</w>
hon estly</w>
acknowled ged</w>
R out
R oo
Cri mea</w>
B lo
termin ation</w>
reali se</w>
pu pp
bil li
as yl
a er
W ell
Laun dry</w>
Ag ainst</w>
о л
or an
optim al</w>
furni shed</w>
f itted</w>
ber -
20 s</w>
respon ses</w>
op en-
ik a</w>
cru de</w>
P ed
Co oper</w>
Bar ack</w>
ou ri
attrac tion</w>
Su st
Sat an</w>
Gra b</w>
C F
3. 2</w>
wra p</w>
mat ching</w>
incid ents</w>
emer ge</w>
cri ed</w>
convic tion</w>
ap par
R ome
J unior</w>
Ar m
im pose</w>
ak ov</w>
Z one</w>
Exc ell
th al</w>
proc u
appear ances</w>
ann ah</w>
alle st</w>
P R</w>
Mar shall</w>
D J</w>
time -
inten ds</w>
comp ul
comp eting</w>
X ML</w>
S atellite</w>
IT Y</w>
13 th</w>
pur ple</w>
justi fy</w>
j e</w>
introduc ing</w>
Represent ative</w>
R ing</w>
Ex ten
D im
sc ary</w>
la in</w>
j ack
integr al</w>
im peri
ballo on</w>
ad vise</w>
Ev ent
Abra ham</w>
trans form</w>
pharmaceu tical</w>
curren cies</w>
them es</w>
sel ler</w>
pal m</w>
j ack</w>
foreig ners</w>
en g</w>
counter -
atom ic</w>
W oo
Ser iously</w>
L. A.</w>
Har vey</w>
AP R</w>
z ar
tu ary</w>
per im
cap ability</w>
F arm</w>
12 th</w>
reduc es</w>
int ent</w>
bo oth</w>
Vi k
Ch ur
C ase</w>
4. 0</w>
0 7
pro liferation</w>
n b
mon t</w>
integr ate</w>
h ence</w>
goo d-
config ure</w>
The ater</w>
Sud an</w>
Met al</w>
tor n</w>
end ea
distingu ished</w>
blan ket</w>
Simil arly</w>
Produc t</w>
Exper t</w>
Cap e</w>
A qu
5. 5</w>
uc c
regul ated</w>
inv ention</w>
cla iming</w>
apologi ze</w>
T ab
P har
P ep
im per
deliver ing</w>
consult ations</w>
chr oni
avo iding</w>
as shole</w>
aggres sion</w>
acc ession</w>
Le o</w>
All en</w>
sum mary</w>
so ever</w>
s ma
re tain</w>
n els</w>
list ened</w>
ed iting</w>
discus sing</w>
all as</w>
St ars</w>
heal thcare</w>
gi a</w>
commis sioned</w>
aband on</w>
Char lot
1 40</w>
wall et</w>
tur n
j am</w>
estiv als</w>
envelop e</w>
cell ar</w>
Wom an</w>
L ED</w>
Ar k
uni fied</w>
te x</w>
k r
inter s</w>
der -
b lows</w>
B P</w>
va ult</w>
tic ul
strength ened</w>
shar k</w>
occa sions</w>
migr ant</w>
fa iry</w>
e tern
V E</w>
G S</w>
4 4
v am
under stand
re vised</w>
pup ils</w>
le ans</w>
g ur
econom ists</w>
Je hov
motor cycle</w>
j azz</w>
fif ty</w>
eigh th</w>
conclu de</w>
bar a</w>
T wit
E ag
Bi o
द े
whol es
ti tudes</w>
s log
ins ane</w>
co s
certific ates</w>
brief ing</w>
No kia</w>
Braz ilian</w>
B E
tum or</w>
tempor arily</w>
t- in</w>
neckl ace</w>
in aug
fir mly</w>
exha u
ed ic
din al</w>
P ack
spi der</w>
schem es</w>
rec alled</w>
puni shed</w>
or d
ho stel</w>
es .
diplom acy</w>
affor dable</w>
X box</w>
war ran
tow el</w>
sust ain
hand some</w>
exhi bit</w>
ch ri
Z o
S avi
Per form
I F</w>
zz y</w>
pe d
pan or
Jehov ah</w>
vo id</w>
sm allest</w>
neutr al</w>
horiz on
end less</w>
electr onics</w>
tournam ents</w>
th read</w>
tel e
ly rics</w>
long est</w>
coun sel
batt le
G onna</w>
Depos it</w>
Def ence</w>
sand wich</w>
ro m
on au
mar gin</w>
k n
in ser
f red</w>
deploy ed</w>
dec ree</w>
Clear ly</w>
&apos; all</w>
sn ea
pro tocols</w>
desig ning</w>
acc us
S W
Bla ir</w>
sur render</w>
p our</w>
mu sh
g ul
dr illing</w>
Strate gic</w>
Inspec tor</w>
Cab inet</w>
Bro ther</w>
5 0,000</w>
re bel
polic y
perman ently</w>
pe tr
lean ing</w>
isol ation</w>
expendit ure</w>
Man u
E th
en sis</w>
comp li
calcul ations</w>
V el
S crip
3 50</w>
trac es</w>
not ably</w>
neighb our</w>
minim al</w>
mand atory</w>
collea gue</w>
chec k-
Mo ses</w>
F ame</w>
Coun t</w>
Ac count</w>
remov ing</w>
do s</w>
del ayed</w>
ac knowledge</w>
Cap it
An d
ob taining</w>
dro be</w>
sing les</w>
pro of
medi eval</w>
invent ory</w>
gl as</w>
fur t</w>
f east</w>
dam ages</w>
copy right</w>
tra des</w>
sugg esting</w>
ph il
analy sts</w>
susp ension</w>
re treat</w>
free zing</w>
cur y</w>
Nichol as</w>
Magaz ine</w>
Fem ale</w>
D eci
2. 4</w>
regi stry</w>
r ation
ne ft</w>
attemp ting</w>
H ey
Diff er
Ken ya</w>
Dre am</w>
A partment</w>
u x
sto ve</w>
pre dec
pon d</w>
o tive</w>
o on</w>
in cl
im men
hor ror</w>
W .
U h-
shi pped</w>
peas ants</w>
k en
determin ing</w>
cl ever</w>
S I</w>
R ick</w>
Presid ential</w>
Out look</w>
Go d
G L
u le</w>
l ac
appreci ated</w>
Dis c
Ch all
we ed</w>
or ic</w>
col ours</w>
Gr ou
Col or</w>
organis ms</w>
coordin ated</w>
contin ental</w>
S cript</w>
Rea dy</w>
P s</w>
Albu m</w>
tra ditionally</w>
su it
p it
ong -
explo itation</w>
don ors</w>
construc tive</w>
colo red</w>
co in</w>
R ated</w>
Mat t</w>
Jud ge</w>
C T
tr icks</w>
sun ny</w>
subsi dies</w>
pra ise</w>
oc e
medi um-
j ar</w>
i zation</w>
St even</w>
S ister</w>
I de
Est onian</w>
ted .com</w>
rela xing</w>
organiz ational</w>
or n</w>
en sures</w>
contro ller</w>
commis sion
col or
coast al</w>
S add
Rel ease</w>
Ju an</w>
Dmit ry</w>
f ing</w>
bu gs</w>
an ic</w>
S l
Rome o</w>
Ari zona</w>
19 10</w>
sa il
good ness</w>
er on</w>
www. ted.com</w>
well- being</w>
some time</w>
real m</w>
pu ri
mut ually</w>
exec ute</w>
char m</w>
bur nt</w>
b old</w>
an n</w>
Sain t-
Metro politan</w>
Con go</w>
the the</w>
sco res</w>
ret t</w>
requ iring</w>
evalu ate</w>
Se an</w>
Medic ine</w>
Li ght
J ake</w>
10 1</w>
vi able</w>
tr ic
lec tures</w>
in son</w>
ha bits</w>
for tress</w>
I ES</w>
wh it
wa sher</w>
su b</w>
st ore
no v</w>
light ning</w>
expendit ures</w>
ज ा
v as</w>
ori um</w>
hor n</w>
elder ly</w>
autom obile</w>
Wal ker</w>
Ph ilosoph
Lukash enko</w>
Hel en</w>
7. 5</w>
umb rella</w>
u ts</w>
str ings</w>
per mits</w>
p y</w>
om ed</w>
inter active</w>
M TV</w>
G os
D E
14 th</w>
vo ic
th at
ta res</w>
independ ently</w>
go s</w>
el son</w>
dr ums</w>
der gar
be st-
analy ze</w>
acquain ted</w>
Vi sual</w>
vic inity</w>
kidn apped</w>
inten tions</w>
experi encing</w>
canc elled</w>
T ak
Mar gare
Dou glas</w>
Di am
phy si
p ad</w>
moun ted</w>
f ut
den ial</w>
app liances</w>
aff ecting</w>
RO M</w>
M Hz</w>
Jer ry</w>
Icel and</w>
sa fer</w>
ge ous</w>
f t
ac on</w>
Imag ine</w>
Fri ed
Do or</w>
suc k</w>
sk el
ge ographical</w>
condition ed</w>
ar do</w>
T s
Swe et</w>
NO T</w>
19 12</w>
tab let</w>
t ext
sli pped</w>
separ ately</w>
mar gin
le y
ca ust</w>
anxi ety</w>
ali ens</w>
Di ego</w>
Contrac ting</w>
scand al</w>
k u
ha med</w>
f s</w>
ambi tious</w>
ac com
Th ir
Comm and</w>
str ated</w>
p ill</w>
negoti ate</w>
ham mer</w>
ec tors</w>
D I</w>
war ding</w>
v et
re vel
ho stage</w>
cu lo
clo ses</w>
ancell or</w>
NE W</w>
Hou ston</w>
Alas ka</w>
AR E</w>
s ory</w>
gradu ates</w>
compet ence</w>
abo ard</w>
Z im
M ass</w>
IC E</w>
р о
threat en</w>
dis order</w>
ang a</w>
Pav lo
Gabri el</w>
App lic
to oth</w>
re j
ho p</w>
defin es</w>
2 5-
19 11</w>
ह ो
stab bed</w>
noti fication</w>
leg end
kne e</w>
hero in</w>
eth eless</w>
eleph ant</w>
brief ly</w>
activ ate</w>
V illa</w>
Direc tive</w>
tion -
in ks</w>
g an
Sh oot</w>
Lo st</w>
Arab ic</w>
fa iling</w>
ep y</w>
comp uting</w>
classi fication</w>
batt les</w>
Sa ak
Pier re</w>
Hol land</w>
4 6
1 25</w>
to wers</w>
in car
exp ec
bri dges</w>
S N
O AO</w>
M au
Kitch en</w>
sc attered</w>
co incidence</w>
cigare tte</w>
cand les</w>
W ars</w>
O t
Cour se</w>
Commer ce</w>
ski y</w>
qu ad
o logist</w>
cr um
capit alist</w>
F air
rail road</w>
photogra pher</w>
mo v</w>
l everage</w>
k om
ch ick
bec ue</w>
as is</w>
Se x</w>
N inten
sup posedly</w>
sn ap</w>
modi fy</w>
man us
li abilities</w>
W y
L ei
Hor se</w>
Boo king</w>
di ving</w>
comp act</w>
b acking</w>
M s</w>
Gener ally</w>
ut ors</w>
to ol
symbo li
sc are</w>
nutri tion</w>
min orities</w>
investig ations</w>
any a</w>
RA M</w>
K han</w>
Consi der</w>
ha un
eni x</w>
condem ned</w>
ari os</w>
a is</w>
Represent atives</w>
R ain
Mill ennium</w>
Bi ography</w>
wh ist
scre wed</w>
privil ege</w>
ca ine</w>
Sus an</w>
under stands</w>
p yr
manif est
jac ent</w>
fre ak</w>
T ree</w>
Os car</w>
Al ong</w>
Ac tive</w>
gi on</w>
far ming</w>
bathro oms</w>
bar rier</w>
Pic tures</w>
K .
Co ach</w>
Br and
p al</w>
not able</w>
log istics</w>
ed it
co smo
c ad
Gen res</w>
Fa shion</w>
Bea uty</w>
Al pha</w>
wor d
tt es</w>
ta ils</w>
s ang</w>
partner ships</w>
dra in</w>
Lar ry</w>
G la
4 8
y land</w>
trans mitted</w>
prepar ations</w>
medic ation</w>
la wn</w>
l on</w>
in tui
dict ator
Rec or
Luxem bourg</w>
F S
E asy</w>
Au to
sy an</w>
it ory</w>
eigh teen</w>
coordin ates</w>
bal ances</w>
algori thm</w>
S ri</w>
L es</w>
swe at</w>
sun light</w>
prescri bed</w>
lo ween</w>
ch in</w>
Th re
N BA</w>
L ot
4. 1</w>
न ि
under take</w>
t ant</w>
it ated</w>
is ite</w>
indic ation</w>
be ef</w>
archi ve</w>
Y ah
T E</w>
S A
Ro y</w>
over night</w>
non- governmental</w>
Qu i
Pridnestro vie</w>
Ninten do</w>
L abor
tre ati
tran si
pre vented</w>
on y
it z
do -
d .</w>
Y ellow</w>
Twit ter</w>
T ed
Organi zations</w>
C ov
2 1-
vol ati
sn eak</w>
procu rement</w>
high- quality</w>
fre ight</w>
docum ented</w>
Saak ashvili</w>
E r</w>
religi ons</w>
provin ces</w>
oran dum</w>
occa sionally</w>
loc king</w>
k ov
instruc ted</w>
go spel</w>
di gging</w>
del eted</w>
cot tage</w>
air ports</w>
Det ails</w>
so ap</w>
li s
inter act</w>
ic an</w>
hand y</w>
g ab
dea dly</w>
ca red</w>
Sloven ia</w>
Mark eting</w>
E thi
sla ves</w>
ec k</w>
Mag ic</w>
ty ard</w>
sk in
sing ly</w>
pursu ed</w>
organiz ers</w>
bl ess</w>
Fre der
F at
C ot
sun set</w>
ent ries</w>
anonym ous</w>
O h
Hou se
11 th</w>
wi pe</w>
w ay
is a</w>
ech es</w>
ch im
V II</w>
Rev ol
Ju lia</w>
E dit</w>
Cer tain
Anton io</w>
- It</w>
tax ation</w>
sm en</w>
in stantly</w>
dr um
di ab
business men</w>
Yugosla via</w>
í a</w>
vo d
phys ician</w>
lad der</w>
feder ation</w>
er up
elimin ated</w>
ab duc
Wel come</w>
L av
Cro wn</w>
Ab u</w>
stimul us</w>
ca thedral</w>
bo red</w>
accid entally</w>
Mongo lia</w>
De li
Ch ev
voc ational</w>
th ing
gor od</w>
ep herd</w>
enti als</w>
develop s</w>
a than</w>
Statis tics</w>
Event ually</w>
Bos nia</w>
A ren
volunte ers</w>
vacc ine</w>
re frigerator</w>
ol ine</w>
i um</w>
for gi
de eds</w>
bit ter</w>
Margare t</w>
F R
1. 7</w>
th ank
sq m</w>
pu rely</w>
perim eter</w>
mo des</w>
m otel</w>
kin dergar
inclu sion</w>
ball et</w>
appro ve</w>
Sou theast</w>
Sea son</w>
H T</w>
ther hood</w>
extrac tion</w>
b ent</w>
F red</w>
Charlot te</w>
ter a</w>
squ ir
imag ined</w>
har v
fif teen</w>
Know ledge</w>
19 15</w>
stic king</w>
s light</w>
regim es</w>
recommend ation</w>
pen ding</w>
cy lin
F ounded</w>
---- ----
rep lied</w>
eli gible</w>
com ic</w>
Mic hel
Cri me</w>
y .
scr atch</w>
res or
per petr
pati ence</w>
consum ed</w>
at t</w>
ac eae</w>
S la
P ole</w>
Fa ith</w>
An nex</w>
we h</w>
trans ported</w>
rel uc
pe e</w>
mod ules</w>
l en</w>
You Tube</w>
tou ching</w>
sen sor</w>
ri ght
negoti ation</w>
mos que</w>
is -
hec tares</w>
distribu te</w>
V ati
P E
Cre ate</w>
3 3
13 -
tar y-
new s
mini -
in fer
fat al</w>
dist ress</w>
contribu ting</w>
consec utive</w>
clim bed</w>
ber ries</w>
Y ak
Ra di
Cor ps</w>
un ite</w>
ti t
ref usal</w>
re actions</w>
mono poly</w>
freed oms</w>
employ er</w>
NG O</w>
Chech en</w>
4. 2</w>
sub jected</w>
o ath</w>
liter ary</w>
econom ically</w>
cl ay</w>
cl am
cand le</w>
bloc k
bio diversity</w>
ani e</w>
Gro wth</w>
Angel a</w>
9 9.
war t</w>
stun ning</w>
strugg ling</w>
pil gri
ide ological</w>
ev en
dra u
brut al</w>
at ter</w>
ass ment</w>
Sam sung</w>
R econ
Phys ics</w>
K yo
H ans</w>
A w
vol tage</w>
tribu te</w>
sub ur
ham mad</w>
ge dly</w>
di ve</w>
dep uties</w>
all y-
Test ament</w>
Ta x</w>
T ED</w>
Par king</w>
Montre al</w>
Ethi op
p ale</w>
op ing</w>
mag nit
air plane</w>
ac ute</w>
UN DP</w>
Ottom an</w>
u zzi</w>
thor oughly</w>
mo saic</w>
m um</w>
in stances</w>
h r
g ol
bl ess
K O
C air
Bal ti
so cks</w>
rel ate</w>
rab bit</w>
qu antum</w>
ma x</w>
class room</w>
Q U
strang ers</w>
poss essed</w>
je alous</w>
eri e</w>
b end</w>
St ef
Part ner</w>
P OR
Avi ation</w>
ques tioned</w>
Wh at
Hair dryer</w>
Do c</w>
Certain ly</w>
ov al</w>
n au
mark et
manu ally</w>
LL P</w>
0. 1</w>
under wear</w>
phenom ena</w>
cub ic</w>
compas sion</w>
B us</w>
stri king</w>
spon sored</w>
re ject</w>
por tedly</w>
p he</w>
le e</w>
ever -
di ence</w>
culo sis</w>
Dat ab
valu ation</w>
tow els</w>
refuge e</w>
observ ations</w>
gri ef</w>
f ill
du p
de licate</w>
am ate
Yah weh</w>
U M
Rea gan</w>
IN TER
Har ris</w>
Fac ulty</w>
E ye</w>
res cu
k ova</w>
in ely</w>
for ums</w>
dres s-
doub ts</w>
al low
Man chester</w>
De ut
ublic s</w>
l uc
gre y</w>
do t</w>
att acking</w>
ans k</w>
ag en</w>
W ake</w>
Sh eriff</w>
Out side</w>
Fl ying</w>
v y
toil et
divi d
cy clo
R ever
Premi er</w>
I E</w>
ER E</w>
Dist ribu
AR T</w>
p acking</w>
har a</w>
cu ps</w>
back yard</w>
wat ches</w>
pursu ing</w>
ph ilos
it ly</w>
in tru
gr ound
consul t</w>
accoun ted</w>
ab ili
Stan ley</w>
sor tium</w>
n us</w>
mis sible</w>
m our
legi timacy</w>
ke ep
heaven s</w>
D ress</w>
D ak
D E</w>
6. 5</w>
tribut es</w>
pa th
off shore</w>
in comes</w>
horiz on</w>
ea ger</w>
al um
In dic
Ci tiz
Ch art</w>
C ouldn</w>
tax pay
t ations</w>
lo ses</w>
hon ored</w>
defin ing</w>
che er
answer ing</w>
T ool</w>
Kar l</w>
sem ination</w>
laun ching</w>
infin ite</w>
ha ble</w>
fl ames</w>
ax is</w>
al o</w>
We ek</w>
T emp
Al arm</w>
si ghts</w>
sens ors</w>
rum ors</w>
rit ual</w>
fil tr
epid emic</w>
dar ling</w>
` s</w>
Si x
E ight</w>
win es</w>
system atic</w>
practi tion
h oods</w>
fin als</w>
dru m</w>
dec lar
Fif th</w>
Con f
Christ opher</w>
4. 3</w>
ome try</w>
illu sion</w>
distinc tion</w>
dev i
asyl um</w>
Prin ci
u -
tri be</w>
sugg estions</w>
qu ery</w>
of- the-
gas es</w>
Democ racy</w>
r het
pri zes</w>
hon ey
hom eland</w>
foun tain</w>
eth ics</w>
enc er</w>
effici ently</w>
Ma sters</w>
17 -
0 4
techn ically</w>
tac tics</w>
si ves</w>
pain ter</w>
now ned</w>
night mare</w>
ha w
gra d</w>
Di vine</w>
Da ily</w>
uc king</w>
tre a
ad jacent</w>
S L
Qa eda</w>
K r
Inclu ding</w>
train er</w>
sub ordin
pis sed</w>
mix ture</w>
h ates</w>
doub tedly</w>
conf ess</w>
Ty ler</w>
Import ant</w>
Corpor ate</w>
wor m</w>
neighb our
met aph
fail ures</w>
emer gence</w>
confron tation</w>
Mon etary</w>
LL C</w>
0- 8
view ers</w>
si st</w>
recipi ent</w>
re nowned</w>
organ ism</w>
man ship</w>
fascin ating</w>
S ales</w>
suspici on</w>
sin c
id ae</w>
fer ry</w>
ex ported</w>
ex ile</w>
defic its</w>
ag e-
Mold ovan</w>
G A</w>
D allas</w>
19 16</w>
sm oo
six ty</w>
pl ague</w>
bi ography</w>
autonom ous</w>
Naz is</w>
Car los</w>
s cription</w>
ound ings</w>
main stream</w>
in cur
dis missed</w>
bat teries</w>
Set tings</w>
valu ed</w>
ri p</w>
m ud
legend ary</w>
fri ed</w>
emo tion</w>
assem bled</w>
ak er</w>
Ti bet</w>
Some where</w>
K ing
Ed itor</w>
D onna</w>
D ir
pro mo
har assment</w>
Paul o</w>
off s</w>
fu se</w>
f itting</w>
em atic</w>
d ental</w>
cat ching</w>
Tou ch</w>
T ER</w>
Ph .
Hea ds</w>
6 8
toilet ries</w>
spo kes
h int</w>
contro versi
consist ently</w>
comp ilation</w>
avo ided</w>
Sadd am</w>
Retur n</w>
R ho
O m
Holo caust</w>
Compani es</w>
ten th</w>
shar ply</w>
j pg</w>
enti c</w>
Mer ced
ES S</w>
C S</w>
B anks</w>
An aly
A ar
ty r
tou gh
pp le</w>
l akes</w>
form ity</w>
doctr ine</w>
cur ve</w>
bour ne</w>
ap peti
accomp lish</w>
Y am
Mari o</w>
Mac ed
Go spel</w>
E cu
Ben jam
B TA</w>
Att orney</w>
Ac ti
us -
un necessary</w>
P M
Commer cial</w>
ti ger</w>
r ack</w>
pres s-
min ded</w>
con gress</w>
bo s
N C</w>
IO NS</w>
H ei
Ch oose</w>
Bi bli
Au to</w>
purcha ses</w>
he m</w>
en ligh
W ood
Tr ack</w>
Ma xim
M a</w>
viol ated</w>
veget able</w>
ten sions</w>
sustain ability</w>
pp i</w>
eri als</w>
do g
EC B</w>
Cam era</w>
é s</w>
suffici ently</w>
sa iling</w>
rac ks</w>
n an</w>
medic ines</w>
k a
conf ession</w>
be k</w>
ar ising</w>
The ory</w>
I I
surg ical</w>
pro jected</w>
premi um</w>
o thy</w>
bur ns</w>
So chi</w>
L A
Gu inea</w>
B uc
wor th
vir uses</w>
radi us</w>
overwhel ming</w>
inter c
inst ability</w>
ing o</w>
ch ef</w>
bloc king</w>
am eni
T op
Share Point</w>
S ki
Perf ect</w>
Med al</w>
Lab or</w>
E co
E AR</w>
Del ta</w>
प र</w>
trigg ered</w>
str onom
ph s</w>
high light</w>
f estivals</w>
dra ws</w>
deri v
d ant</w>
ा र
sum ed</w>
stan t
si ans</w>
resol utions</w>
re placing</w>
prec eding</w>
low- up</w>
im ov</w>
h en</w>
L em
Clim ate</w>
An nie</w>
sel ecting</w>
sc op
mon wealth</w>
ea fter</w>
e .html</w>
divor ced</w>
continu ously</w>
c oup</w>
al is</w>
Vati can</w>
T wi
Spe ed</w>
Sha dow</w>
Se oul</w>
Frank furt</w>
targ eting</w>
ra ped</w>
or ary</w>
my th</w>
li able</w>
law ful</w>
kil omet
identi fying</w>
do v</w>
credi bility</w>
char ging</w>
ch ick</w>
Gr ay</w>
ES T</w>
spher ic</w>
ro s</w>
respon dents</w>
mo tive</w>
for th
fil ing</w>
T ION</w>
L ane</w>
K ansas</w>
Fri end
surr oundings</w>
sen ses</w>
s ounded</w>
orph an
motiv ation</w>
far mer</w>
en vis
cur ricul
co- operation</w>
cli ff</w>
ad her
accum ulated</w>
Star ting</w>
Scot tish</w>
G ur
р е
reve als</w>
ocop ying</w>
ke en</w>
jo kes</w>
ine quality</w>
be y</w>
argu ing</w>
ameni ties</w>
Ru le</w>
Initi ative</w>
19 27</w>
th ms</w>
sequ ently</w>
schol ars</w>
men ted</w>
gl orious</w>
fo ren
exc eeded</w>
cr ush</w>
Rus sell</w>
Gre g</w>
Budd hi
telecomm unications</w>
fl ame</w>
ex changes</w>
er e
bas in</w>
T est</w>
P ool</w>
Mo ore</w>
K are
Janu ary-
Dub ai</w>
Con dition
Cair o</w>
Ale k
00 1</w>
sh iny</w>
magnit ude</w>
l ung</w>
h r</w>
cru el</w>
coordin ate</w>
attrac ting</w>
adv ances</w>
R ou
Electr onic</w>
t u</w>
sur plus</w>
sin cer
reci pe</w>
hy bri
dom s</w>
R -
H ud
ti que</w>
sinc ere</w>
m ons</w>
kis sed</w>
fu els</w>
ent e</w>
accep ting</w>
Bar bara</w>
An n</w>
5 7
190 8</w>
ri b
re sume</w>
pas sion
mat er
bless ings</w>
S cand
He brew</w>
Ham p
F A
C ann
Af ter
190 1</w>
st amp</w>
ro bust</w>
r ussi
commer ce</w>
cer e
car ing</w>
bec ca</w>
ad minist
N one</w>
L it
B ell
Al fa</w>
pa tho
loy d</w>
bud g
archi ves</w>
R M</w>
K ho
Ho st
Del eg
o ids</w>
mat ched</w>
liber ation</w>
hom osex
expl aining</w>
enh ancing</w>
az z
UA H</w>
Pavlo dar</w>
D res
v ar</w>
set up</w>
sensi tivity</w>
ro w
gu ts</w>
fos sil</w>
ag ging</w>
T A
M es
L ang
10 ,
tw ist
tw ins</w>
t ang
substanti ally</w>
cho ir</w>
ba il</w>
Treas ury</w>
G as
E aster</w>
Cro s
sh ri
ov ers</w>
foc uses</w>
di al
consi sted</w>
al together</w>
St adium</w>
S ag
P ain
Manu fac
la sts</w>
kilomet res</w>
e ded</w>
ad dic
Nic ol
J up
F AO</w>
s port
protot ype</w>
pol ls</w>
bud gets</w>
S id
IN V
u i</w>
trav els</w>
stimul ate</w>
scen arios</w>
read iness</w>
preci sion</w>
prec inct</w>
pl ain
measu rements</w>
equ ation</w>
consult ant</w>
confi gured</w>
catalo gue</w>
ban g</w>
alle gedly</w>
K ate</w>
K aren</w>
G on
D ag
Bol shevi
la va</w>
coun sel</w>
U M</w>
Moun tains</w>
Lis a</w>
5. 0</w>
wi res</w>
wi dow</w>
ro d</w>
real ised</w>
per ed</w>
no de</w>
j unk</w>
co caine</w>
applic ants</w>
R on</w>
J acqu
ल ा
ther ing</w>
tat too</w>
ra ises</w>
Ha iti</w>
D etro
4 50</w>
oo p</w>
in forms</w>
exc itement</w>
con junction</w>
avi an</w>
ang ers</w>
Pro cess</w>
4- 7</w>
tari ffs</w>
s wa
p an</w>
ar mies</w>
Secre tary-
Mil es</w>
wil d
uti ves</w>
u sion</w>
sp ra
peri ph
he els</w>
fuc ker</w>
free ze</w>
ear liest</w>
d airy</w>
B att
soci o-
share holder</w>
quali fication</w>
procla imed</w>
in timate</w>
cog ni
cha p
broad casting</w>
aw k
Pap er</w>
K it
I an</w>
G ates</w>
w ick</w>
thum b</w>
announ ces</w>
ad mission</w>
O reg
E yes</w>
Bo y
spr ings</w>
li hood</w>
in n
S ighs</w>
Indi ana</w>
Ad mir
w agon</w>
trou bles</w>
pot atoes</w>
nom ination</w>
er ra</w>
cur tain</w>
Rol l</w>
Perform ance</w>
Min i</w>
M Y</w>
F oun
Cra zy</w>
Administr ative</w>
vo y</w>
to ast</w>
pres enting</w>
meaning ful</w>
je op
install ations</w>
insec ts</w>
ini st</w>
frag ile</w>
cour tyard</w>
canc ellation</w>
atell ites</w>
ast ing</w>
ar chae
Direc tory</w>
syn chroni
et e
en berg</w>
athlet e</w>
W IT
Sho p</w>
Oreg on</w>
Or leans</w>
O f
yach t</w>
inev itably</w>
go -
ch o</w>
b r</w>
ac o</w>
IF A</w>
C os</w>
AP I</w>
7 50</w>
ü r
wh ore</w>
val ry</w>
tun nels</w>
trans late</w>
tr am
s ong
oun d-
nin th</w>
molec ules</w>
he al</w>
g aps</w>
es tive</w>
aw ake</w>
Vin cent</w>
Sp ir
Secretary- General</w>
S hot</w>
Ly me</w>
Lithu anian</w>
Do ing</w>
shor ter</w>
lic ity</w>
fore most</w>
Se bas
ER S</w>
2. 6</w>
veri fy</w>
sub mission</w>
st ain</w>
pres sures</w>
oper atives</w>
in sufficient</w>
g el</w>
U g
Speci es</w>
R ace</w>
Hal loween</w>
H our</w>
F r</w>
Ex port</w>
Detro it</w>
w ears</w>
uc tu
tex t-
ri pped</w>
i zing</w>
em ia</w>
d in</w>
altern atives</w>
V ia</w>
Ted dy</w>
Regi stry</w>
Pho enix</w>
Kyo to</w>
Kal in
Jour n
Cur rent</w>
veter ans</w>
res sion</w>
autom ated</w>
acad emy</w>
Tr inity</w>
S M</w>
Re becca</w>
P ati
M aking</w>
190 4</w>
righte ous</w>
prolet ariat</w>
fi er</w>
exclu ded</w>
com ra
b our</w>
M om
ou tw
er son</w>
conci liation</w>
cli p</w>
accom mo
Ham burg</w>
proph et</w>
har sh</w>
exp ects</w>
et o
deliber ately</w>
dec om
sec ular</w>
rob bed</w>
mon sters</w>
lands cap
g au
ff le</w>
ell i</w>
e ats</w>
ca de
T uni
Se eing</w>
P T</w>
Je an-
D s</w>
D ry</w>
C ore</w>
8 0s</w>
ten ds</w>
k le</w>
h ind</w>
fo g</w>
explo sive</w>
ex otic</w>
at titudes</w>
L D</w>
High way</w>
ro gen</w>
re sistant</w>
re actor</w>
process ors</w>
le tin</w>
gor geous</w>
dr ank</w>
de fl
congrat ulate</w>
cir cus</w>
auth entic</w>
all er
ak h
Tha i</w>
virtu e</w>
sur faces</w>
ou tta</w>
in fr
encoun tered</w>
coo ked</w>
bankrup t
ban quet</w>
Ter minal</w>
Plan ning</w>
Op tions</w>
Fi shing</w>
p ut
inj ection</w>
disp ens
deal ers</w>
Individu al</w>
Ear l</w>
Ad ditionally</w>
v s.</w>
surve ys</w>
perc eive</w>
n evertheless</w>
har dest</w>
gen ic</w>
f ere</w>
descri bing</w>
co operative</w>
cha pel</w>
Valent ine</w>
Psy cho
F el
v .</w>
st ating</w>
re d-
ir rit
ex ag
dang ers</w>
convers ations</w>
S O</w>
D R</w>
Ch icken</w>
un fortunate</w>
ul ating</w>
tra ders</w>
sy r
pre y</w>
non sense</w>
consoli dation</w>
bre ed</w>
Tou rism</w>
Ev ents</w>
Ein stein</w>
D ea
Con fig
Ber kel
Benjam in</w>
x ious</w>
u g</w>
ski p</w>
mat urity</w>
est ers</w>
el ementary</w>
accommo date</w>
Uzbe k</w>
Tit an</w>
S ongs</w>
M ut
wa sted</w>
trac ked</w>
sha de</w>
reb els</w>
ligh ter</w>
dis placed</w>
dec eased</w>
at tributes</w>
W ayne</w>
O M
H old</w>
H ad
quot ed</w>
proxim ity</w>
pra ying</w>
out break</w>
ici ency</w>
iP ad</w>
forgi veness</w>
enjo ys</w>
e di
b ons</w>
N ep
E vil</w>
Ass essment</w>
Am end
Ad ams</w>
2. html</w>
0. 0</w>
0 8
ser i
sc rat
respon ding</w>
mo b</w>
mis erable</w>
fundam ent
dictator ship</w>
challeng ed</w>
c ents</w>
W ater
Fi xed</w>
Bey ond</w>
B L
9 9
195 0s</w>
ris en</w>
i si
cigare ttes</w>
back wards</w>
as cen
Th row</w>
St an</w>
Mo ve</w>
Initi ally</w>
F A</w>
En cyclo
Aus tin</w>
ub er
shi pment</w>
k icking</w>
di oxide</w>
acc ent</w>
Tw in</w>
So fia</w>
R al
P G</w>
Inst all
E h</w>
Anim al</w>
Al tern
о г
val ve</w>
protec ts</w>
pres entations</w>
lin ear</w>
fi er
dis orders</w>
Sust ainable</w>
A in</w>
1. 9</w>
sel ls</w>
resp ects</w>
o ch
net working</w>
ll ery</w>
ex pose</w>
d well</w>
bar becue</w>
P eri
E E</w>
tor tured</w>
ti ans</w>
ri des</w>
pan e</w>
est e
defin ite</w>
S emi
Ob serv
No .
Mot or
J r</w>
F ly
л е
ren dering</w>
rac ies</w>
lo ys</w>
et own</w>
conv inc
by l</w>
Re sid
L aura</w>
C AR
volunte er</w>
st all</w>
qu al
preten ding</w>
it ude</w>
dar k
comm ittees</w>
ab ov
occur ring</w>
lin en</w>
inter fere</w>
insi st</w>
Stud ents</w>
O -
E din
y eva</w>
tak e
sac ri
ju ven
guit arist</w>
fr amed</w>
commem or
Ph illi
N ation
IS A</w>
Ba h
tari ff</w>
tap es</w>
lo e</w>
je ans</w>
en di
disp er
bul k</w>
Dub lin</w>
Cam eron</w>
sk ep
pu ppy</w>
ous y</w>
nur ses</w>
note book</w>
et ta</w>
ear nings</w>
co w
ar ing</w>
anc a</w>
Mem ory</w>
Israel is</w>
H E</w>
Fir stly</w>
Cre ator</w>
Com petition</w>
Bu ff
190 9</w>
ta stes</w>
in coming</w>
horizon tal</w>
g az
cry st
can al</w>
Soci alist</w>
IL O</w>
vo l</w>
ro bots</w>
re portedly</w>
nomin al</w>
kis sing</w>
hur ts</w>
Loc ated</w>
L ay
IV E</w>
G 20</w>
Bu y</w>
Berkel ey</w>
them ati
in ti
free zer</w>
abstr act</w>
U gh</w>
F ren
AT E</w>
ud ge</w>
sp ices</w>
liqu id
for get
es ar</w>
embr ac
differ enti
cru shed</w>
betra yed</w>
at em
anim ation</w>
Tat ar
Pal m</w>
CP U</w>
2. 7</w>
skir t</w>
rela xation</w>
molec ular</w>
mar tial</w>
li eutenant</w>
fr ank
en o
em peror</w>
ai red</w>
Vic tory</w>
vari ables</w>
swe ep</w>
pre n
nuc le
minist ries</w>
met ro
influ ences</w>
el f</w>
di er</w>
as sumption</w>
R icky</w>
Oper ations</w>
Com monwealth</w>
Col lins</w>
tom b</w>
im mer
c ache</w>
ad ic
sor ship</w>
pris oned</w>
mb H</w>
j un
inter ro
indic ating</w>
in sight</w>
gam ing</w>
fol ders</w>
fl at
f ame</w>
endor sed</w>
co her
be ard</w>
arri ves</w>
Mo de</w>
Datab ase</w>
C ool</w>
v i</w>
struc tured</w>
se iz
pl un
at ro
Lea der</w>
Jup iter</w>
J ew</w>
Got ta</w>
Carol ine</w>
2014- 0
wi g</w>
war m
ur ged</w>
thir ds</w>
renov ated</w>
pre dat
ob last</w>
bourgeo is</w>
Tun es</w>
Par ker</w>
P- L</w>
M echan
K R</w>
E G
Compl ex</w>
than ked</w>
sust ain</w>
port able</w>
ic o</w>
i est</w>
ff ing</w>
enti eth</w>
e .com</w>
c ited</w>
b as</w>
assist ed</w>
W ere</w>
A do
ser y</w>
privati zation</w>
main tains</w>
emis sion</w>
ell ers</w>
dis closure</w>
des pair</w>
come dy</w>
ca m</w>
a w</w>
R ES
wrec k</w>
re pairs</w>
post les</w>
ic y</w>
dou bled</w>
ch ill</w>
accor dingly</w>
Stan ford</w>
Pic ture</w>
Ph. D.</w>
M R
Des cription</w>
vo y
u no
tor -
sup plem
si ded</w>
ro y
ri ots</w>
cruc i
compl ain</w>
colon ial</w>
c ea
bre ath
S ound
Res ults</w>
Is ab
th is
soci alism</w>
mar king</w>
l um
dri ed</w>
al ter</w>
Pan el</w>
Bulg arian</w>
AT M</w>
5. 1</w>
2. 8</w>
swe et
par i
escor t</w>
coll ar</w>
R ud
negoti ating</w>
ne ph
fl uctu
dre am
car ved</w>
F itness</w>
F T</w>
Di plom
si ssi
scre ens</w>
perf ection</w>
multi p
lic enses</w>
clean er</w>
U pper</w>
B ird</w>
As sistance</w>
Ak to
3. 4</w>
shi fts</w>
secre tly</w>
se gments</w>
ran g</w>
pro long
gy m
etern ity</w>
down loaded</w>
continu ation</w>
c ease</w>
ate way</w>
Po ints</w>
P ir
Mar ina</w>
Comm unication</w>
C s</w>
Bea utiful</w>
0 9
un limited</w>
sh al</w>
se in</w>
righte ousness</w>
min us</w>
gu m</w>
bub bles</w>
bi as</w>
ap ples</w>
anti que</w>
What ever</w>
Rom anian</w>
Lin d
sever ely</w>
ric ane</w>
or da</w>
ir ri
interpre ted</w>
corp se</w>
contain ers</w>
bad ge</w>
at ers</w>
T ashk
Cl assic</w>
Broad way</w>
AT A</w>
ö r
ra z
quanti ties</w>
p unk</w>
net t</w>
lic it</w>
law suit</w>
ey e
dead line</w>
attribu te</w>
ab sur
Wi reless</w>
Mot or</w>
A part</w>
7 7
vulner ability</w>
tri bes</w>
op tical</w>
flo at</w>
finger prints</w>
fi x
en er</w>
el et</w>
dem o</w>
bra ss</w>
ast oni
El li
ü n
stra in</w>
sho cked</w>
ro ses</w>
ro de</w>
low ering</w>
kin dness</w>
deleg ates</w>
ang ed</w>
Liber ty</w>
G mbH</w>
F ear</w>
wheel chair</w>
trans fer
success es</w>
over view</w>
it ment</w>
in surg
exec utives</w>
d anc
con front</w>
cel ain</w>
Pak ist
Mis sour
Emer gency</w>
3. 8</w>
what soever</w>
wa it
w ood
tur b
tri ple</w>
spec tives</w>
ri dge</w>
p s
k al
jud ged</w>
install ing</w>
gover ned</w>
associ ates</w>
ar sen
Regi ster</w>
O u
Fun c
E le
ur gy</w>
rif le</w>
p y
oc ese</w>
nav al</w>
mo ist
lem on</w>
har bor</w>
US E</w>
T all
Per sian</w>
Missour i</w>
Loo king</w>
L ud
Den nis</w>
Com for
5 0-
4 ,000</w>
25 th</w>
survi vors</w>
re tained</w>
presid ents</w>
po or
ne ts</w>
ment -
enjo y
cher ry</w>
calcul ate</w>
ban ana</w>
Th or
S ources</w>
Fe at
y na</w>
un employed</w>
rul ers</w>
ru g</w>
gre gation</w>
g ical</w>
consi st</w>
comp rises</w>
buil t-in</w>
ba thing</w>
Sol om
En ter</w>
und ant</w>
to s
tem plate</w>
subsidi aries</w>
por a</w>
over cast</w>
mor ality</w>
kid ney</w>
fo ol
dem ons</w>
def ended</w>
cross- country</w>
break through</w>
U P</w>
Sar a</w>
F lowers</w>
F ast</w>
Bran ch</w>
24- hour</w>
yl on</w>
wan dering</w>
vari ations</w>
smil ing</w>
ri sky</w>
pro spec
privileg es</w>
pri sing</w>
po s</w>
oo s</w>
er adic
conc eived</w>
Pop ulation</w>
Der ek</w>
z bol
w o
sh allow</w>
nor th
k ha
dra wings</w>
crow ded</w>
clear ing</w>
anticip ated</w>
Atlan ta</w>
trium ph</w>
t ative</w>
mon keys</w>
interrup ted</w>
dest inations</w>
d- up</w>
borro wed</w>
assassin ation</w>
arbitr ary</w>
Mat erials</w>
K ent
In door</w>
Ham il
य ा
th am</w>
ri al</w>
refl ecting</w>
p son</w>
lef t-
inher ited</w>
g age</w>
e us</w>
com modi
cal yp
autonom y</w>
ad verse</w>
P ER
L ex
L -
F un</w>
Ecu ador</w>
sn ack</w>
reser vo
poore st</w>
kill ers</w>
it ance</w>
im prisoned</w>
exten ds</w>
em ma</w>
de ton
coun c
b re</w>
au top
age ous</w>
U. S</w>
Tashk ent</w>
Mun icip
Kaz an</w>
C ash</w>
0. 2</w>
wi zard</w>
voc al</w>
su ited</w>
methodo logy</w>
mat rix</w>
mar ble</w>
inf ections</w>
frag ments</w>
form ations</w>
comp iled</w>
Po st
L ily</w>
Eng ine</w>
midd le-
D um
Care er</w>
2 1
s ickness</w>
ro tation</w>
p us
mer ger</w>
it ability</w>
gra sp</w>
dol ph
con den
cock tail</w>
A ges</w>
vi d</w>
s atellites</w>
pre ferences</w>
partic le</w>
out lets</w>
on ally</w>
in sky</w>
fas ci
enthusi asm</w>
bath tub</w>
b -
Bro w
0 3
un doubtedly</w>
rhy thm</w>
re conc
n ai
lux urious</w>
f eared</w>
el even</w>
ani ans</w>
alleg ations</w>
Vo ice</w>
N T
In struc
H E
Ep iso
Edin burgh</w>
а т
z u
tri angle</w>
ho stages</w>
gener ator</w>
dress- up
constra ints</w>
F ill</w>
Ev ent</w>
Com b
Av ail
stu ffed</w>
po logy</w>
for ty</w>
con s</w>
au s</w>
at om</w>
Rom ans</w>
Gen esis</w>
B ail
work place</w>
vari ed</w>
st akes</w>
r inging</w>
incenti ve</w>
hy gi
fac ial</w>
clu e</w>
Ch ron
sk ies</w>
per pet
op tional</w>
m am
exten ding</w>
e der</w>
O ne
For give</w>
zbol lah</w>
treati es</w>
re marks</w>
l acking</w>
i on</w>
destruc tive</w>
Kazakhstan i</w>
Gu atem
Condition ing</w>
Ch uckles</w>
Adri an</w>
4. 4</w>
tra um
neighb ours</w>
j ah</w>
gho sts</w>
demonstr ations</w>
avi a</w>
an try</w>
S ally</w>
Con ver
Budd ha</w>
5. 2</w>
un conscious</w>
there of</w>
pic tu
manif est</w>
exhau sted</w>
co sm
al tered</w>
Mis sissi
0. 3</w>
symbo lic</w>
out lined</w>
in o
fl ags</w>
em e</w>
To ols</w>
Pent agon</w>
Ferr ari</w>
won dered</w>
u als</w>
est ock</w>
break down</w>
ani st</w>
T ext</w>
Stor age</w>
Ni zh
F M</w>
A B</w>
under mine</w>
un fair</w>
pri mi
ir us</w>
fol low-up</w>
day light</w>
ca sts</w>
Out door</w>
IO N
F la
C R</w>
00 0
tradem ark</w>
sy s</w>
stu dios</w>
po ll</w>
ha ul</w>
ger ia</w>
den omin
an es
ali zes</w>
al titude</w>
aggre gate</w>
Vik tor</w>
Sam uel</w>
Ric h
N elson</w>
Me h
L S</w>
D NS</w>
macro economic</w>
inclu sive</w>
fish er
ff in</w>
controversi al</w>
un il
ten e
st ur
sent ences</w>
on aire</w>
moment um</w>
g ut</w>
explo ded</w>
en ne</w>
dis charge</w>
ang les</w>
T G
Si ze</w>
Sh ort</w>
Sec tor</w>
L i</w>
High -
por n</w>
inf lic
in ter</w>
ill es</w>
determin es</w>
d al
bankrupt cy</w>
V -
Ph D</w>
G ame
smar t
sigh s</w>
p tion</w>
lab els</w>
int act</w>
ic ket</w>
ess ly</w>
en ary</w>
e po
do c</w>
Ti bet
Sou l</w>
Public ations</w>
N or</w>
Jos h</w>
D ay
wil derness</w>
mi xing</w>
med itation</w>
in ha
d itch</w>
bun al</w>
Pri or</w>
Nagor no-
Fre d
Agricul tural</w>
tol l</w>
th ood</w>
teach ings</w>
recre ation</w>
origin s</w>
mal aria</w>
m n</w>
ind ul
fr action</w>
den ly</w>
be es</w>
Proph et</w>
а р
stri an</w>
re fre
main land</w>
din er</w>
deteri or
catalo g</w>
agre es</w>
Rem ove</w>
N apo
K el
H ind
3 000</w>
un dance</w>
sun shine</w>
rec ur
geo political</w>
elimin ation</w>
Wis con
Ter ms</w>
Spr ings</w>
Har d
H az
F IFA</w>
Certi fic
978- 0-
vi er</w>
thor ough</w>
sh ot
pl edge</w>
celebr ating</w>
bu s
Sud denly</w>
P T
H AV
Akto be</w>
te ens</w>
prote ins</w>
mod eling</w>
inv iting</w>
gradu ation</w>
T ob
Pu sh
P earl</w>
Balti more</w>
sub stitute</w>
radio active</w>
fil ters</w>
er ation</w>
ec raft</w>
d .
cos me
at eg
Rec ently</w>
K now</w>
shor tage</w>
re conciliation</w>
ni es</w>
ing en</w>
emp loy</w>
br o</w>
arm ament</w>
analy tical</w>
ach i</w>
Up date</w>
He zbollah</w>
Cam bo
Arch bishop</w>
8. 5</w>
stea dily</w>
ste ering</w>
rus. pdf</w>
rich est</w>
ini um</w>
em bo
book ings</w>
authentic ation</w>
am or
T ook</w>
S een</w>
Pan ama</w>
Nov gorod</w>
Leg is
J ay</w>
Cl ay</w>
str ate</w>
some day</w>
leg es</w>
ic le</w>
hang s</w>
esc ope</w>
el ect</w>
dre amed</w>
dis abilities</w>
canc eled</w>
as -
Vis a</w>
Nagorno- Karabakh</w>
Eag le</w>
र ू
vic e-
u ter
sc ent</w>
s giving</w>
ot ech
kidn apping</w>
i Tunes</w>
gor sk</w>
fru it
explo it</w>
exag ger
ev ing</w>
comb ines</w>
business man</w>
T elec
Pre pare</w>
N T</w>
Mon tene
J obs</w>
Incre ase</w>
As sistant</w>
An tar
Al ab
sacri fic
off ense</w>
grocer y</w>
coo kie</w>
ad ol
Treat ment</w>
Sar g
Manag ing</w>
J a
For m</w>
Ado be</w>
ск и
hop efully</w>
far -
confir ms</w>
car riers</w>
T ask</w>
Mississi ppi</w>
Min ist
Jam a
H an</w>
Cir cle</w>
B our
Alb ania</w>
war fare</w>
lic on</w>
ini on</w>
fi xing</w>
eng aging</w>
V AT</w>
Sal v
Jon athan</w>
Gu id
G over
A F</w>
obs essed</w>
licen sing</w>
in sert</w>
enh ancement</w>
dic tionary</w>
beh old</w>
am er
Te h
Princ eton</w>
Organ isation</w>
N G</w>
Ma il</w>
Est ab
Aren a</w>
कर ने</w>
ut tle</w>
seem ingly</w>
se c</w>
parti tion</w>
ow a</w>
nur sery</w>
neighbour hood</w>
mechan ics</w>
li graphy</w>
glob ally</w>
fic ally</w>
di esel</w>
O leg</w>
N ancy</w>
Fac tory</w>
Ch ancellor</w>
un clear</w>
uc ked</w>
trav elled</w>
publi sher</w>
k ol
hospit ality</w>
gri p</w>
en co
d war
ambi gu
ab sent</w>
S car
Part ners</w>
Mar x
In t
D. A.</w>
Cas ino</w>
Bir ds</w>
zh ou</w>
wat er-
ux e</w>
ot t</w>
ey ard</w>
exc eeds</w>
disa sters</w>
d ants</w>
at tic</w>
ali gn
Z ur
War ner</w>
H ub
Foc us</w>
D B
star t
rhet oric</w>
p here</w>
ori ans</w>
me -
immen se</w>
ex cur
ar is</w>
ali on</w>
M az
L AN</w>
F S</w>
Andre i</w>
Ab sol
3. 6</w>
ti fication</w>
t ut
sh ells</w>
or der
k ho
et sk</w>
d ot
coun tless</w>
adm ire</w>
ab undance</w>
P un
M IN
Buddhi st</w>
B ig
189 6</w>
10 9</w>
y pes</w>
seas onal</w>
n b</w>
el ty</w>
Wor d
Par adise</w>
C B
the art</w>
over looking</w>
du g</w>
di p</w>
aw ak
WIT H</w>
0 2
vod ka</w>
under way</w>
sugg estion</w>
ri k</w>
persec ution</w>
p o</w>
mel o
m ama</w>
issu ing</w>
fr ame
forth coming</w>
expl oring</w>
cha mbers</w>
atten dance</w>
W ind</w>
Sa fe</w>
Kaz Mun
Bo livia</w>
ver dict</w>
ut able</w>
step ping</w>
sol em
ni us</w>
nb sp</w>
l is</w>
im perial</w>
gam bling</w>
et c.</w>
colon ies</w>
analy zed</w>
account ability</w>
W ood</w>
U .S.
Or chestra</w>
O livia</w>
Hamil ton</w>
Bra d
2 20</w>
ver ses</w>
policy makers</w>
op ping</w>
mak e-
dor f</w>
commodi ties</w>
che ating</w>
c eased</w>
al location</w>
Wi zard</w>
Ser bian</w>
N Y</w>
KZ2C 0000
t ful</w>
specific ations</w>
soci ally</w>
m entation</w>
gen cies</w>
fe eds</w>
enlarg ement</w>
diab etes</w>
c ans</w>
Wiscon sin</w>
Hud son</w>
Gal ax
Cub an</w>
Au dio</w>
surpri singly</w>
sti r
sign ation</w>
pro voc
obe y</w>
hum ble</w>
hom icide</w>
g gy</w>
absor bed</w>
Tatar stan</w>
No body</w>
3. 7</w>
17 0</w>
क र</w>
wholes ale</w>
warri or</w>
pra yed</w>
pea ked</w>
k .
conduc tor</w>
con e</w>
appar atus</w>
L CD</w>
Archit ecture</w>
6 6
suc ks</w>
mis ery</w>
ho se</w>
econom ist</w>
ban kers</w>
b ach</w>
acc essed</w>
R S</w>
Pr int</w>
H id
Compl ete</w>
ä r
utili ties</w>
teen agers</w>
panor amic</w>
im er</w>
htt ps</w>
fli p</w>
enc e-
c end</w>
ac ity</w>
Cl ass
C and
Amaz on</w>
5. 6</w>
5. 3</w>
plan ting</w>
noti fy</w>
mu st
mon itors</w>
ker nel</w>
inf ant</w>
hi king</w>
e ous</w>
comm ented</w>
c el</w>
air lines</w>
Philosoph y</w>
K GB</w>
F is
E ast
Ab dul
ur ine</w>
swe ater</w>
spe eds</w>
h our
good bye</w>
alo gue</w>
U D
H ill
H annah</w>
Democ rats</w>
Any body</w>
Al geria</w>
Al fred</w>
wi ped</w>
re medi
po v</w>
mail box</w>
lot tery</w>
il ers</w>
end ang
dis semination</w>
ar -
10 5</w>
par ad
over head</w>
hum or</w>
diagno sed</w>
conc eption</w>
R U</w>
C oc
189 5</w>
wol ves</w>
wi shing</w>
sex ually</w>
man sion</w>
f ella</w>
consider ations</w>
connec ts</w>
b apti
ar se</w>
advis ory</w>
To y
Territ ory</w>
J ar
E ric
De bian</w>
C ad
Back ground</w>
Albu ms</w>
4 0-
................ ................
s ement</w>
pl ess</w>
jer k</w>
int est
han a</w>
ch al
b ani
Scand in
Rom a</w>
P ay</w>
pil ots</w>
p ud
in appropriate</w>
gi o</w>
Mon it
Gra ham</w>
G ong</w>
र ी
y an
tal es</w>
oc ity</w>
new est</w>
foun ders</w>
fil med</w>
compul sory</w>
ci an</w>
Sit u
Na than</w>
Bang lad
01 T
umin um</w>
sum mar
sn acks</w>
in stitutes</w>
ge ography</w>
d n
conf isc
comman ded</w>
at oms</w>
Str uc
Stand ards</w>
Sp encer</w>
R and
K ings</w>
Him self</w>
Bir thday</w>
य ा</w>
syn thetic</w>
sty lish</w>
shor ts</w>
sh ov
rebel lion</w>
know -
fi ber</w>
avo id
ass essed</w>
as hamed</w>
T ren
Smar t</w>
P aren
Im medi
I. D.</w>
Consi dering</w>
Bag h
A w</w>
v able</w>
te aches</w>
in sk</w>
Ter r
Oper ating</w>
л ь
wi e</w>
scre am</w>
rep ublics</w>
rela xed</w>
premi ered</w>
or ro</w>
mo s</w>
fl ag
empha size</w>
dem oli
comp ounds</w>
clear ance</w>
bo dy
amend ment</w>
Ter ry</w>
Sa w</w>
S cen
2 40</w>
s atur
re publi
dis semin
cha ir
Sebas tian</w>
Phys ical</w>
N ine</w>
Hey dar</w>
C anyon</w>
syn drome</w>
si ege</w>
rul er</w>
minim ize</w>
fe at</w>
deb ates</w>
convinc ing</w>
cont acted</w>
c e-
Tig er</w>
S ão</w>
H ank</w>
AC E</w>
и я</w>
zh an</w>
week ends</w>
trac tor</w>
ti res</w>
su preme</w>
sha ft</w>
rom ance</w>
met al
int -
individu ally</w>
gas oline</w>
ed ged</w>
P I</w>
Mak er</w>
Loc ation</w>
House hold</w>
AM D</w>
v om
s -</w>
ri vals</w>
off set</w>
mo re
gra des</w>
gl ori
dem ographic</w>
co stly</w>
ca sual</w>
battle field</w>
as pora</w>
S K
Qu estion</w>
Mic h
Jo b</w>
H L</w>
G lob
Fru it</w>
4 9
wor rying</w>
won ders</w>
vi sions</w>
un ci
tw ist</w>
sp ect</w>
ic e-
exclu ding</w>
W A</w>
Vil nius</w>
R ain</w>
Pro test
к о
un certain</w>
pric ing</w>
di mini
cur tains</w>
cor ro
c ables</w>
awk ward</w>
WW E</w>
W o
S P</w>
4. 7</w>
vi gor
t ooth
sw ept</w>
inher itance</w>
fro g</w>
depri ved</w>
ath on</w>
analy st</w>
E UR
Ar ts
vari eties</w>
us sion</w>
un happy</w>
pre jud
practic ing</w>
pois oned</w>
mor gue</w>
hand -
er to</w>
c ence</w>
bur ger</w>
atmo spheric</w>
ard ous</w>
ac ious</w>
S cho
P E</w>
Inter view</w>
C yr
7. 1</w>
rem ot
no logy</w>
co st-
Maced onia</w>
He at</w>
F alu
t .
sper m</w>
spe eches</w>
skir ts</w>
po d</w>
pe pper</w>
n g</w>
g em
c s</w>
be ats</w>
F lower</w>
Eng li
Bul l</w>
12 ,
tw entieth</w>
stri ve</w>
primi tive</w>
par as
occup y</w>
mist ress</w>
inter viewed</w>
con sume</w>
compani on</w>
car d
V oc
Sal t</w>
Of ten</w>
Liter ature</w>
9 0s</w>
w ool</w>
to e</w>
sl augh
re porters</w>
ne at</w>
interven tions</w>
dep ths</w>
Ten nes
Sh ell</w>
Invest e</w>
G M</w>
Ful ly</w>
re iter
in e-
hel m</w>
f ear
casu alties</w>
bo xing</w>
bea uti
To dd</w>
Mon astery</w>
Labor atory</w>
L az
Ir ina</w>
E B
Comfor table</w>
C ome
Al ready</w>
6. 7</w>
4. 8</w>
wi red</w>
tr um
relea sing</w>
lo -
kin dly</w>
er ings</w>
de e
d ancer</w>
chri st
bar rels</w>
b ells</w>
W es
P hy
K is
Install ation</w>
Falu n</w>
E A
B apti
Al ber
sec t</w>
o live</w>
m es
hu b</w>
go ssi
con stitutes</w>
au r</w>
U .</w>
Sar ko
SM S</w>
M ade</w>
F on
Cre ek</w>
. com
ve z</w>
vam pires</w>
tack le</w>
stor y
ri gi
prev ents</w>
met ric</w>
he aled</w>
favour able</w>
fac to</w>
c -
any time</w>
Y emen</w>
S ue</w>
P ast
L D
v as
ther land</w>
sub tle</w>
republi can</w>
perc ep
p se
p oured</w>
op a
low ship</w>
ko k</w>
il ee</w>
confin ed</w>
activi st</w>
W olf</w>
S ession</w>
Mess age</w>
F ew</w>
wea ker</w>
s ay
prob able</w>
nation als</w>
liv estock</w>
hist orian</w>
demonstr ates</w>
X i
Wa it</w>
In fra
BM W</w>
6. 0</w>
w icked</w>
petro l</w>
e dy</w>
dre aming</w>
correc tion</w>
commis sions</w>
c ements</w>
Th ank
M all
C lean</w>
C I</w>
189 9</w>
ta h</w>
super market</w>
inter im</w>
in tri
gen re</w>
an as</w>
Tennes see</w>
F ly</w>
3 2-
recor dings</w>
re bel</w>
pun ish</w>
disc over
devast ating</w>
coff in</w>
ap point</w>
acceler ate</w>
Ukra inians</w>
P H
OR K</w>
O UT</w>
ID E</w>
Bud get</w>
tic es</w>
spec im
refu ge</w>
pun c
m g</w>
jud ging</w>
gr in
a .</w>
Sa una</w>
K un
C ole</w>
A po
spon sor</w>
sec uring</w>
reali ties</w>
or dering</w>
l aughter</w>
gl y
fin ances</w>
dep loy</w>
commun al</w>
bal lot</w>
Sarko zy</w>
P ha
P el
M um
Luc y</w>
F ed
Exc el</w>
D O</w>
6. 3</w>
tur key</w>
sal aries</w>
fem in
drow ned</w>
confid ential</w>
ar rog
ap e</w>
ac ies</w>
Z ero</w>
Y uri</w>
M AG
Isa ac</w>
Alab ama</w>
vic tories</w>
un ve
subscri bers</w>
str ous</w>
sp it</w>
ra p</w>
os -
m id</w>
fil ming</w>
c enti
bu reau</w>
W A
Kent ucky</w>
In c.</w>
Don etsk</w>
D ick</w>
Apos tle</w>
wor ries</w>
uni fication</w>
sub scription</w>
p end
go d
emp t</w>
drum mer</w>
discre tion</w>
ak an</w>
ais le</w>
Vic e-
Tr ying</w>
Sw imming</w>
St ev
Sing les</w>
S ex
Roo sev
L P</w>
Fun ny</w>
Dis play</w>
text- align</w>
sal on</w>
re signation</w>
pictu res
nation alist</w>
man eu
ill umin
hand ful</w>
excep tions</w>
cu ffs</w>
W er
Over all</w>
M m-
Amaz ing</w>
190 6</w>
well ness</w>
lim itation</w>
la zy</w>
in direct</w>
in adequate</w>
discipl inary</w>
dd le</w>
be sto
ba it</w>
K le
wr ong
wh ale</w>
th- century</w>
s lower</w>
obst acle</w>
num er
lo ying</w>
ic e
ful filling</w>
dr ying</w>
contrac tor</w>
commun ism</w>
ca fe
W C</w>
Tur ks</w>
Su rely</w>
M um</w>
IC T</w>
I G</w>
Be hind</w>
0-0 1-
y ch</w>
slog an</w>
sligh test</w>
sha king</w>
s at
s aints</w>
promp t</w>
ph p</w>
in sur
in ability</w>
forec asts</w>
em ics</w>
dis appearance</w>
com pression</w>
Solom on</w>
z e-
sur ge</w>
squee ze</w>
sab ot
r anges</w>
poor ly</w>
petro leum</w>
on es
es hip</w>
cH 00
as surance</w>
Teh ran</w>
Su pp
Mu hammad</w>
Kri sh
Ethiop ia</w>
8 8
5 6
3 0,000</w>
sub j
spin ning</w>
ni kov</w>
liqu or</w>
gh ted</w>
es man</w>
War ren</w>
N O</w>
Invest ments</w>
Chem ical</w>
6. 1</w>
vi v</w>
re jo
hel met</w>
distingu ish</w>
disgu sting</w>
bro ch
bo iler</w>
bin ary</w>
Roosev elt</w>
O rac
Ge org
D in
yo ga</w>
re vision</w>
privileg ed</w>
po ts</w>
persu ade</w>
moun tain
mass acre</w>
initi ate</w>
home work</w>
anc e
St atus</w>
Ray mond</w>
Go dd
Con grat
Bi sh
Beat les</w>
x i</w>
t ones</w>
stoc k
sett ling</w>
reali zing</w>
po ta
persist ent</w>
o ks</w>
loc ally</w>
et y
credi ble</w>
ari zed</w>
Sophi e</w>
SC O</w>
N either</w>
Monit oring</w>
G B
Fr on
Be ds</w>
Al right</w>
7 0s</w>
0 1.
vir al</w>
th en
tal ents</w>
sl o</w>
ri ages</w>
relev ance</w>
ref uses</w>
out look</w>
n at
he ir</w>
ever ly</w>
dis man
di ap
democ racies</w>
con sol
compl eting</w>
ch or
Sou th
Napo le
M ind</w>
Cas ey</w>
190 2</w>
य ह</w>
भ ी</w>
zz le</w>
t- up</w>
res on
promot es</w>
p ouring</w>
p age
o y
cosm ic</w>
W rit
Au gu
t ance</w>
survi ving</w>
revi val</w>
fi anc
autom ation</w>
Mont ana</w>
K et
- The</w>
а н
under cover</w>
hal t</w>
extre mist</w>
buil ds</w>
attribu ted</w>
Wor kers</w>
K night</w>
Hus sein</w>
0 6
w rist</w>
th ough
tel ep
su ites</w>
por ch</w>
f ills</w>
ev sky</w>
ener y</w>
def ensive</w>
butter fly</w>
activ ation</w>
á n</w>
under water</w>
speci fication</w>
sel fish</w>
s lic
pota to</w>
pick up</w>
nation alism</w>
lo ser</w>
ik i</w>
equ als</w>
Ten nis</w>
I deal</w>
vend ors</w>
s lam
regul ate</w>
rati fied</w>
peace keeping</w>
passion ate</w>
mid t</w>
kno cking</w>
ke e</w>
int age</w>
g g</w>
e- ma
contribu tes</w>
cha sed</w>
bag gage</w>
advoc ate</w>
E sp
stre ams</w>
s lot</w>
resur rection</w>
recy cling</w>
re ll</w>
galax ies</w>
es ch
archit ects</w>
administ ered</w>
Tuni sia</w>
Thr oughout</w>
Ste wart</w>
Rena issance</w>
E Y</w>
Ch loe</w>
Bak er</w>
y en</w>
teen age</w>
sta b</w>
s ch</w>
kid ding</w>
he li
fashi on
em b
correspon dent</w>
at on</w>
Ven us</w>
Sol ar</w>
H unt</w>
GN U</w>
v icious</w>
origin ated</w>
oce ans</w>
ici st</w>
f lock</w>
expres sions</w>
ec y</w>
compati bility</w>
ad ul
S itting</w>
O slo</w>
Guatem ala</w>
D ni
र ो
st i</w>
sc ales</w>
interro gation</w>
in qui
happ ily</w>
gr ation</w>
confron ted</w>
catastro phe</w>
ca ves</w>
Tr uck</w>
Her z
vari ant</w>
ten se</w>
ser ge
refin ed</w>
pri sons</w>
l end</w>
fi l</w>
distur bing</w>
deser ved</w>
contro ll
W oods</w>
Tra ff
Integr ated</w>
I z
He in
Fam ili
Curren cy</w>
- 1</w>
wat ch
ster e
ol ds</w>
man ages</w>
h ack</w>
explo sives</w>
d z
col leges</w>
author itarian</w>
R ange</w>
L ong
Hun ter</w>
E k
C H</w>
Banglad esh</w>
197 0-01-
ol o</w>
met all
lear nt</w>
gi g</w>
add le</w>
ad ers</w>
Soc orro</w>
R ich</w>
Pen insula</w>
LIN EAR</w>
K ash
Innov ation</w>
E lev
A Z</w>
1970-01- 01T
ru shed</w>
pipel ines</w>
ner ves</w>
ma themati
fore head</w>
foo lish</w>
ex ca
evol utionary</w>
en to</w>
easi est</w>
dr un
cup board</w>
cred itors</w>
ap i
ac tic</w>
W ant</w>
St yle</w>
Sp ec
Sch ol
AN K</w>
warran ty</w>
up side</w>
r ical</w>
p hosp
in complete</w>
g y-
don ated</w>
continu ally</w>
cell ular</w>
ac res</w>
UG CC</w>
St age</w>
Per sons</w>
Li ke
Law rence</w>
L as
H D
Config uration</w>
Arti st</w>
Acad emic</w>
7- 11</w>
2 2-
tu ber
thi eves</w>
sp ill</w>
elabor ate</w>
an es</w>
ak in</w>
ac company</w>
Rev el
Her o</w>
Des ert</w>
त े</w>
warm th</w>
w elling</w>
shi fted</w>
rein forced</w>
nor m</w>
lin king</w>
h ats</w>
guid es</w>
frank ly</w>
fab ulous</w>
embarras sed</w>
com promised</w>
as sign</w>
W an
V A</w>
Temp us</w>
Spr ing
Sh ir
P am
Orac le</w>
De fin
Be gin
&apos; I</w>
а в
um i</w>
simul ation</w>
popul ated</w>
pi er
pa thetic</w>
p ag
drag ging</w>
correspon dence</w>
bra ke</w>
arm or</w>
V III</w>
Stor m</w>
Sh u
N avi
K ad
Bibli ography</w>
Bal k
Arts akh</w>
6. 2</w>
ह ा
stipul ated</w>
sp ouse</w>
r in
pra ised</w>
on ically</w>
ob server</w>
moun ting</w>
g ent</w>
dec oration</w>
dea f</w>
critici zed</w>
an ten
Secon dly</w>
Re ports</w>
R h
mo red</w>
jo y
exc eeding</w>
accus ations</w>
Wi ki
Pap a</w>
H ague</w>
EX PO
190 3</w>
sket ch</w>
practition ers</w>
mir rors</w>
lam ps</w>
ignor ance</w>
h l</w>
gradu al</w>
ch ol
brea sts</w>
ang el
ain less</w>
Tall inn</w>
Rol ling</w>
Lic ense</w>
Gu il
Gi ving</w>
Acti vities</w>
1970-01-01T 03</w>
о д
ur ship</w>
st res
sp ends</w>
pictures que</w>
perform s</w>
p ru
hor m
ho lo
high lights</w>
gu t
dec lining</w>
cl an</w>
chick ens</w>
ar ose</w>
Cra ig</w>
un lea
monit ored</w>
elev ated</w>
ec tion
duc ed</w>
d der</w>
ar cade
Mar x</w>
M essi
L viv</w>
Grand ma</w>
Down load</w>
Cha se</w>
Aar on</w>
10 3</w>
vari es</w>
tu bes</w>
tic ut</w>
t als</w>
syn thesis</w>
slo pes</w>
regi sters</w>
re sist
pro xy</w>
oc curren
o sa
m ys
lea p</w>
k on
en rolled</w>
e c</w>
de pl
correspon d</w>
att i</w>
Ow en</w>
Ki ds</w>
Dic tionary</w>
Arti cles</w>
9. 5</w>
-in- law</w>
proc eeds</w>
pe are</w>
op pose</w>
nur sing</w>
mo on
jum ps</w>
imm unity</w>
hes itate</w>
ess ments</w>
bak ery</w>
V IP</w>
Pakist ani</w>
Integr ation</w>
Har bor</w>
8. 3</w>
6 4
4. 6</w>
189 2</w>
wit z</w>
san itary</w>
promp ted</w>
o logists</w>
ne um
ligh t-
kes peare</w>
ho o</w>
eto oth</w>
d led</w>
court room</w>
bl ems</w>
absor b</w>
Pro jects</w>
Mor ning</w>
E vi
193 0s</w>
tr ance</w>
swit ching</w>
id al</w>
cat aly
W E</w>
Tro t
Rac ing</w>
Gr am
Bir m
A partments</w>
weak ened</w>
un -
succ ession</w>
semi- annual</w>
s age</w>
mist aken</w>
em in
d ots</w>
amate ur</w>
Sle eping</w>
Reg ulations</w>
Rec ord</w>
Proper ties</w>
Port land</w>
Nor man</w>
Mar yland</w>
M C</w>
Hou sing</w>
He li
E i
Di ana</w>
trac ed</w>
st aged</w>
ra is
prec au
phot ocopying</w>
l acks</w>
hun ter</w>
heaven ly</w>
guar ded</w>
en ue</w>
accur ately</w>
Trans fer</w>
Se ating</w>
IC AO</w>
Guar dian</w>
E EC
Da isy</w>
AN Y</w>
200 ,000</w>
sign atures</w>
rem ain
reg ener
p easant</w>
compar ing</w>
W IPO</w>
TH IS</w>
T our
Sil k</w>
Pre par
Jus tin</w>
Champi on</w>
Bos s</w>
sen ator</w>
resp ir
renew al</w>
re signed</w>
re me
rati fication</w>
predec essor</w>
plas ma</w>
or um</w>
keep ers</w>
in correct</w>
i sie</w>
hand ic
g ade</w>
cler k</w>
an xious</w>
a a</w>
Rec omm
J ess
Hil ton</w>
Am anda</w>
2- 3</w>
ब ा
z -
w av
o ak</w>
min erals</w>
hier archy</w>
ge ological</w>
f eld</w>
em an
e b</w>
contrac tors</w>
acceler ated</w>
Z am
Sha w</w>
Re frigerator</w>
J EC
Ar no
6. 4</w>
5. 4</w>
201 3-
त ी</w>
क ि
ve ins</w>
reason ably</w>
negoti ated</w>
mon ks</w>
loc als</w>
con gres
b ore</w>
P om
L ag
IA EA</w>
En er
Differ ent</w>
C ook</w>
stri al</w>
sp ine</w>
so da</w>
sem i
os is</w>
om eter</w>
num bered</w>
gran ting</w>
g on
frigh tened</w>
fol ded</w>
co t</w>
cl ause</w>
bu rial</w>
Ma dison</w>
F requ
Exp o</w>
Car l
t ags</w>
si eur</w>
p ts</w>
ne ur
lo be</w>
ich es</w>
drau lic</w>
co st
appe als</w>
Shar on</w>
R E</w>
L T
Jer emy</w>
Grou ps</w>
Connec ticut</w>
Admir al</w>
14 .com</w>
war drobe</w>
ut terly</w>
sor row</w>
ra v
pro files</w>
li ve
li ar</w>
i ii</w>
den se</w>
arcade 14.com</w>
an ying</w>
N ak
Con gres
Bail ey</w>
s porting</w>
ri ot</w>
pul ls</w>
per ing</w>
nation ality</w>
mul tin
m 3</w>
ju st
comb ining</w>
cat ering</w>
borro wing</w>
bel ts</w>
ang e
Zim bab
Nep al</w>
Montene gro</w>
F as
Cop y</w>
v ou
sculp ture</w>
scre ening</w>
renov ation</w>
re t</w>
nar ro
investig ated</w>
fur n
distinc tive</w>
confir ming</w>
bl amed</w>
Tra ding</w>
T as
Ri ver
Par liamentary</w>
C lev
tac tical</w>
log na</w>
hybri d</w>
clin ics</w>
cl ed</w>
cl as
ali g
Worl d
Sha kespeare</w>
R T
L ow</w>
Jacqu es</w>
Hy dro
Birm ingham</w>
y elling</w>
res cent</w>
peculi ar</w>
in te
forget table</w>
domin ate</w>
d as</w>
complic ations</w>
ath le
a it
Wal t</w>
U tili
S ER
Ma ster
Feat uring</w>
B ang</w>
A unt</w>
. 4
wel coming</w>
uc ker</w>
tra m</w>
stand ardi
ret ali
enni al</w>
ec k
diagno stic</w>
deci ding</w>
bu sted</w>
bab y
ar ks</w>
a f</w>
N B
Fl at</w>
Fin ding</w>
C ame</w>
200 8-
1 28</w>
sm all-
recogni zes</w>
lin er</w>
high- level</w>
ge ometry</w>
ex terior</w>
enti oned</w>
el ding</w>
e on</w>
con formity</w>
bar gain</w>
Th ou</w>
R andy</w>
Like wise</w>
CD -
Belgi an</w>
8 6
6. 8</w>
su es</w>
s lov
ro y</w>
philos opher</w>
ne o-
j peg</w>
in c</w>
g ement</w>
e ditions</w>
distur bed</w>
W ill
Tur ner</w>
Thom pson</w>
Episo de</w>
vi al</w>
utili zation</w>
th y
termin als</w>
n ered</w>
mir acles</w>
m y-
le ys</w>
l er
it t</w>
fab ric
ec tious</w>
Some how</w>
S tick</w>
S B
K ul
K ent</w>
D er</w>
Andre y</w>
stra igh
sour cing</w>
shi fting</w>
phot o
oli gar
oc key</w>
m ati
guar dian</w>
emp tion</w>
cy cling</w>
con ditional</w>
c .
an us</w>
Sec ure</w>
N ear</w>
M I
Har old</w>
G om
wrest lers</w>
un anim
laugh s</w>
gli mp
gest ure</w>
def en
de pressed</w>
d ys
be et
ar o</w>
altern ate</w>
alpha bet</w>
Si erra</w>
L or
An dr
. COM</w>
u ous</w>
st at</w>
mu g</w>
mil d</w>
id ers</w>
g ad
ap le</w>
anti bio
ambi tions</w>
T AR
Savi or</w>
Roc k
O D</w>
Gro wing</w>
z u</w>
we ir
sla very</w>
re productive</w>
ra h</w>
perio dic
in hi
impro ves</w>
h ers</w>
embarras sing</w>
Z ha
Q atar</w>
Ma ur
Inter est</w>
Direc t</w>
C ran
Bang kok</w>
vali dity</w>
st ub
ri sts</w>
remem bers</w>
quali fy</w>
inst inc
h en
ba il
ah u</w>
U K
Stef an</w>
N ina</w>
My ster
Lan ka</w>
प ा
temp tation</w>
os lav</w>
inti mid
gl aci
g ren
co graphy</w>
celebr ations</w>
can vas</w>
Ol ga</w>
N IS</w>
Gu ang
Diam ond</w>
C it
An s
t v</w>
re build</w>
par liam
empha si
cool er</w>
consequ ently</w>
comp ass</w>
comm itting</w>
br is</w>
bi kes</w>
T us
Nor th-
Ne il</w>
Ch is
3 2
thre n</w>
pron ounced</w>
po ems</w>
mess enger</w>
enti ary</w>
crac ked</w>
consum ing</w>
co zy</w>
be g</w>
Qu inn</w>
Prin cip
K im
Gar dens</w>
Dou g</w>
Congrat ulations</w>
189 7</w>
web -
ti est</w>
sympa thy</w>
se ize</w>
ro e</w>
recogni se</w>
par a
de light</w>
ast ed</w>
Sil ent</w>
Per man
9 5
. 1</w>
val ence</w>
ut most</w>
un acceptable</w>
to es</w>
stor ms</w>
p ar</w>
inha bited</w>
fi st</w>
encryp tion</w>
emis phere</w>
correspon ds</w>
autop sy</w>
V C</w>
Pu erto</w>
Hear d</w>
H ood</w>
H it</w>
Fran kie</w>
Ear lier</w>
Deleg ation</w>
A U
vir gin</w>
sma shed</w>
off ence</w>
neph ew</w>
inter fer
ing ent</w>
g ently</w>
au x</w>
as i</w>
adv ent
E at</w>
15 00</w>
st aff
reme dy</w>
k ick
fer tility</w>
e ful</w>
cot t</w>
bir th
ban ner</w>
Sur vey</w>
Qu ick
P ad
Man ual</w>
EF A</w>
tim ber</w>
provin cial</w>
premi ere</w>
posi tively</w>
fu me</w>
d is</w>
counter parts</w>
co c
ar k
Poli tics</w>
Lo wer</w>
Hea vy</w>
Con temporary</w>
vers y</w>
scrip ts</w>
scan ning</w>
ener ge
e jac
chap ters</w>
S ant
Pro file</w>
L om
L ingu
F ili
Eura sia</w>
E mir
Ch r
- 2017</w>
wa x</w>
un pleasant</w>
sanc tuary</w>
s- -
ot er</w>
mess ed</w>
lo ft</w>
it ating</w>
g low</w>
fire wall</w>
ex tr
et to</w>
diplom at</w>
ad diction</w>
Siber ian</w>
R ice</w>
Loc k
F L
E BR
Bagh dad</w>
8 4
war d-
revel ation</w>
habit at</w>
expres sing</w>
dest abili
del ays</w>
W right</w>
M itch
Gre eks</w>
G C</w>
Dec ree</w>
Dak ota</w>
zi g</w>
warri ors</w>
um en</w>
sur fing</w>
si p</w>
sc ep
pric ed</w>
crac ks</w>
ch lor
c al</w>
bourgeo isie</w>
aes thetic</w>
advertis ement</w>
U ru
M T
Lo g
Langu ages</w>
Industri es</w>
D aw
Bro ken</w>
uni vers
uni tion</w>
pursu ant</w>
par aly
ov sk</w>
m ice</w>
lea sing</w>
cum ulative</w>
con sortium</w>
ass essments</w>
UN IC
Per ry</w>
Hi king</w>
F av
7 5
scar f</w>
pur ity</w>
p acks</w>
il legally</w>
gl ance</w>
fill ment</w>
eri an</w>
en os</w>
dev o
conf essed</w>
bl er</w>
att ach</w>
assi sts</w>
Vir tual</w>
Th ous
Mad ame</w>
I da
By z
9 11</w>
uni qu
ul ted</w>
rej ection</w>
r ounded</w>
pl e
gra vit
fundam entally</w>
desper ately</w>
compl ained</w>
bo ot
Uh- huh</w>
Pot ter</w>
Ob j
Mal ta</w>
Jav a
I l</w>
A er
9 5.
6. 6</w>
0. 7</w>
suit case</w>
spec ulation</w>
pe an
ici a</w>
gg le</w>
full- time</w>
crip ts</w>
F RE
Cher no
Blu etooth</w>
इ स
trans mit
spir al</w>
preser ving</w>
lo gged</w>
h iring</w>
em ent
ell ar</w>
elimin ating</w>
administr ators</w>
U sers</w>
R w
Luc as</w>
I owa</w>
H ell
Boo king
th on</w>
sum ably</w>
pre ference</w>
optim istic</w>
key words</w>
han ding</w>
fashi oned</w>
bl end</w>
ar gues</w>
ac er
We ek
N y
Galax y</w>
Fl at-screen</w>
B au
Adv enture</w>
AB C</w>
wa i
tour ing</w>
inspec tor</w>
haun ted</w>
e wing</w>
color ful</w>
Y ale</w>
Seg a</w>
S mi
Ru by</w>
Recomm end
Inter esting</w>
Cri sis</w>
ज ि
vitam in</w>
tion aries</w>
sou th
sh an</w>
ro o
public -
mas ks</w>
ley ball</w>
k night</w>
ic on
haz ardous</w>
advis or</w>
Spea ker</w>
Sarg syan</w>
Mel bourne</w>
It ali
Fant asy</w>
Cambo dia</w>
B SD</w>
Avail able</w>
wor ms</w>
sho ots</w>
ri sed</w>
lin ess</w>
ic ons</w>
establi shments</w>
er ected</w>
edit orial</w>
denti st</w>
cl arity</w>
bi g
ati al</w>
ali bi</w>
Y .
Wat son</w>
In stitu
Gla zed</w>
E ther
201 8</w>
recogni zing</w>
real- time</w>
diplom a</w>
d an
cy ber
car tri
anno ying</w>
anc ou
affili ated</w>
P HP</w>
Mon ica</w>
K en</w>
Croati an</w>
14 ,
0. 4</w>
shar ks</w>
less er</w>
ja w</w>
ing ed</w>
h ut
game .html</w>
for k</w>
av an</w>
ambi tion</w>
T ill</w>
Satur n</w>
Merced es</w>
J ur
J un
Freder ick</w>
Dep ression</w>
B art</w>
8. 0</w>
к а</w>
t down</w>
ri g</w>
p to
h atch</w>
ea gle</w>
duc t</w>
comm ent
ba i</w>
ari zation</w>
U F
Lad en</w>
E U-
Distribu tion</w>
Cho ice</w>
Car ol</w>
Capit ol</w>
A bo
3. 9</w>
w aking</w>
thro ws</w>
reve aling</w>
qu o</w>
pyr amid</w>
por no
pe at</w>
or r
omet ric</w>
micro phone</w>
m amm
induc ed</w>
deliver ies</w>
civili zed</w>
an om
US -
Sof a</w>
Rob inson</w>
H mm</w>
Cam pa
Ab by</w>
10 4</w>
stret ched</w>
pres cription</w>
men us</w>
m us</w>
labor atories</w>
et al</w>
dest ined</w>
complex es</w>
accoun table</w>
a ero
Toy ota</w>
N ick
J azz</w>
Car s</w>
Ac tiv
1 1,
ह ु
ल े</w>
un forgettable</w>
tion ist</w>
stra w</w>
fire works</w>
bac helor</w>
ap ar
aci ds</w>
Vor on
T ech</w>
Is sue</w>
HAV E</w>
Cro w
Cont ent</w>
Con sum
ओ ं</w>
yi elds</w>
sur charge</w>
stre aming</w>
sh outing</w>
rou bles</w>
ro oted</w>
i z</w>
dr one</w>
diplom ats</w>
bu mp</w>
atis m</w>
S onic</w>
Kalin ingrad</w>
H ear</w>
Dar win</w>
3 00
189 4</w>
1 h</w>
star ds</w>
sa ves</w>
re form
practic ed</w>
me try</w>
ess ay</w>
de an</w>
comb ating</w>
ast e</w>
W AS</w>
V ancou
Rec ent</w>
Que ens</w>
Mor ris</w>
M T</w>
L un
Fun ds</w>
Chec k-
Ap pro
188 9</w>
zar re</w>
t sin</w>
sh an
rup tion</w>
quanti tative</w>
psych ic</w>
narr ative</w>
m um
liber alization</w>
instrum ental</w>
fla vor</w>
explic itly</w>
anch or</w>
Y ar
M ey
K itty</w>
Gre at
Fil ter</w>
E vol
. NET</w>
resear cher</w>
re built</w>
pr ag
pois oning</w>
pill ar</w>
pe de
mal ware</w>
loo k
l t
g ov
el u
Un less</w>
Stud ent</w>
Sha k
Rep ublic
Origin ally</w>
Ne ed</w>
Har rison</w>
Br and</w>
A tom
understand able</w>
tou red</w>
ru m</w>
rest oring</w>
ref using</w>
pre mature</w>
pen ny</w>
il ly</w>
guar ding</w>
des cent</w>
ago gue</w>
Lea ve</w>
Krish na</w>
Go ds</w>
G ag
En h
E state</w>
vitam ins</w>
viol in</w>
ur us</w>
sound track</w>
pun ched</w>
on- site</w>
ni gh
fo am</w>
ener gies</w>
champi ons</w>
budg etary</w>
bu shes</w>
Jeff erson</w>
Gl en
C JSC</w>
Br ick</w>
Arno ld</w>
trans plant</w>
sli ce</w>
serge ant</w>
sal mon</w>
pos ters</w>
ne sty</w>
menti oning</w>
lo dge</w>
explo de</w>
exclu de</w>
entreprene ur</w>
encour ages</w>
deli vers</w>
const ellation</w>
Som alia</w>
Sch midt</w>
On t
M ar</w>
Gar cia</w>
G et
E va</w>
Bur ma</w>
A id</w>
trans mit</w>
sli ding</w>
s ics</w>
prof itability</w>
n ap</w>
ket tle</w>
cre ator</w>
Vancou ver</w>
Sel f-
I v
Estab li
Bo eing</w>
4 0,000</w>
0. 6</w>
viol ate</w>
trac tion</w>
qu er
optimi zation</w>
ol es</w>
log ne</w>
l ords</w>
inv aded</w>
interrup t</w>
gg ers</w>
en sured</w>
di ent</w>
cra wl</w>
ann ex
ad i</w>
acqu iring</w>
Sovi ets</w>
Sh uttle</w>
Cha ir
Bo logna</w>
1 15</w>
vel ocity</w>
v re</w>
v ector</w>
ti fied</w>
slo pe</w>
scan ner</w>
prolong ed</w>
pas sive</w>
neighb ouring</w>
i ors</w>
hero ic</w>
dee pest</w>
choo ses</w>
Tibet an</w>
Jam ie</w>
HT TP</w>
H ob
CO MP
Booking .com</w>
B uck
189 3</w>
и т
yl an</w>
veri fication</w>
under -
syn the
sub marine</w>
sl aughter</w>
pol ling</w>
merch ant</w>
lim iting</w>
high- tech</w>
he ater</w>
be ts</w>
aster oid</w>
ap tism</w>
Tan z
Nev ada</w>
Mathematic s</w>
L ate</w>
K ub
Cz echo
Con sequently</w>
An ato
2015-0 7-
2. 9</w>
to logy</w>
ten den
noti fied</w>
li bri
ici ally</w>
high- speed</w>
f ont</w>
cop ied</w>
c it
SE E</w>
Ida ho</w>
Gre ater</w>
Encyclo pedia</w>
B lock</w>
Applic ations</w>
5. 8</w>
squ ares</w>
per spectives</w>
kill ings</w>
el s
detec tives</w>
cros ses</w>
cafe teria</w>
bat ch</w>
ar rows</w>
al er
Rem ote</w>
Perman ent</w>
F E
EEC CA</w>
w ear
ter n</w>
run way</w>
pot ent</w>
oul try</w>
expres ses</w>
ab ad</w>
Pen sion</w>
NO W</w>
Mar cus</w>
Immedi ately</w>
Feli x</w>
Cr us
Ch en</w>
C A
Bre ak</w>
10 2</w>
whol ly</w>
venti lation</w>
t .</w>
pe ac
oo h</w>
nit rogen</w>
ga -
fli r
d ged</w>
ap preh
accum ulation</w>
absur d</w>
W E
Sab bath</w>
Doc um
D a</w>
Clev eland</w>
2 30</w>
tenden cies</w>
sens ation</w>
p and
ou ted</w>
inher ent</w>
ign -
ge ographic</w>
en za</w>
el ded</w>
dev alu
civi c</w>
bac ter
ash i</w>
a ev</w>
S lav
Pri son</w>
Mass age</w>
ह ी
त ा
ч е
thr ough
termin ated</w>
t ments</w>
proph ets</w>
p esti
impres sions</w>
im press</w>
graph ical</w>
fet ch</w>
bu ys</w>
at ov</w>
V O
Ros a</w>
Per m</w>
Nor th
Figh ting</w>
D ick
[...]
